{
  "version": "1.0",
  "truncation": null,
  "padding": null,
  "added_tokens": [
    {
      "id": 0,
      "content": "<|endoftext|>",
      "single_word": false,
      "lstrip": false,
      "rstrip": false,
      "normalized": false,
      "special": true
    }
  ],
  "normalizer": null,
  "pre_tokenizer": {
    "type": "Sequence",
    "pretokenizers": [
      {
        "type": "Digits",
        "individual_digits": true
      },
      {
        "type": "ByteLevel",
        "add_prefix_space": false,
        "trim_offsets": true,
        "use_regex": true
      }
    ]
  },
  "post_processor": null,
  "decoder": {
    "type": "ByteLevel",
    "add_prefix_space": true,
    "trim_offsets": true,
    "use_regex": true
  },
  "model": {
    "type": "BPE",
    "dropout": null,
    "unk_token": null,
    "continuing_subword_prefix": null,
    "end_of_word_suffix": null,
    "fuse_unk": false,
    "byte_fallback": false,
    "ignore_merges": false,
    "vocab": {
      "<|endoftext|>": 0,
      "!": 1,
      "\"": 2,
      "#": 3,
      "$": 4,
      "%": 5,
      "&": 6,
      "'": 7,
      "(": 8,
      ")": 9,
      "*": 10,
      "+": 11,
      ",": 12,
      "-": 13,
      ".": 14,
      "/": 15,
      "0": 16,
      "1": 17,
      "2": 18,
      "3": 19,
      "4": 20,
      "5": 21,
      "6": 22,
      "7": 23,
      "8": 24,
      "9": 25,
      ":": 26,
      ";": 27,
      "<": 28,
      "=": 29,
      ">": 30,
      "?": 31,
      "@": 32,
      "A": 33,
      "B": 34,
      "C": 35,
      "D": 36,
      "E": 37,
      "F": 38,
      "G": 39,
      "H": 40,
      "I": 41,
      "J": 42,
      "K": 43,
      "L": 44,
      "M": 45,
      "N": 46,
      "O": 47,
      "P": 48,
      "Q": 49,
      "R": 50,
      "S": 51,
      "T": 52,
      "U": 53,
      "V": 54,
      "W": 55,
      "X": 56,
      "Y": 57,
      "Z": 58,
      "[": 59,
      "\\": 60,
      "]": 61,
      "^": 62,
      "_": 63,
      "`": 64,
      "a": 65,
      "b": 66,
      "c": 67,
      "d": 68,
      "e": 69,
      "f": 70,
      "g": 71,
      "h": 72,
      "i": 73,
      "j": 74,
      "k": 75,
      "l": 76,
      "m": 77,
      "n": 78,
      "o": 79,
      "p": 80,
      "q": 81,
      "r": 82,
      "s": 83,
      "t": 84,
      "u": 85,
      "v": 86,
      "w": 87,
      "x": 88,
      "y": 89,
      "z": 90,
      "{": 91,
      "|": 92,
      "}": 93,
      "~": 94,
      "¡": 95,
      "¢": 96,
      "£": 97,
      "¤": 98,
      "¥": 99,
      "¦": 100,
      "§": 101,
      "¨": 102,
      "©": 103,
      "ª": 104,
      "«": 105,
      "¬": 106,
      "®": 107,
      "¯": 108,
      "°": 109,
      "±": 110,
      "²": 111,
      "³": 112,
      "´": 113,
      "µ": 114,
      "¶": 115,
      "·": 116,
      "¸": 117,
      "¹": 118,
      "º": 119,
      "»": 120,
      "¼": 121,
      "½": 122,
      "¾": 123,
      "¿": 124,
      "À": 125,
      "Á": 126,
      "Â": 127,
      "Ã": 128,
      "Ä": 129,
      "Å": 130,
      "Æ": 131,
      "Ç": 132,
      "È": 133,
      "É": 134,
      "Ê": 135,
      "Ë": 136,
      "Ì": 137,
      "Í": 138,
      "Î": 139,
      "Ï": 140,
      "Ð": 141,
      "Ñ": 142,
      "Ò": 143,
      "Ó": 144,
      "Ô": 145,
      "Õ": 146,
      "Ö": 147,
      "×": 148,
      "Ø": 149,
      "Ù": 150,
      "Ú": 151,
      "Û": 152,
      "Ü": 153,
      "Ý": 154,
      "Þ": 155,
      "ß": 156,
      "à": 157,
      "á": 158,
      "â": 159,
      "ã": 160,
      "ä": 161,
      "å": 162,
      "æ": 163,
      "ç": 164,
      "è": 165,
      "é": 166,
      "ê": 167,
      "ë": 168,
      "ì": 169,
      "í": 170,
      "î": 171,
      "ï": 172,
      "ð": 173,
      "ñ": 174,
      "ò": 175,
      "ó": 176,
      "ô": 177,
      "õ": 178,
      "ö": 179,
      "÷": 180,
      "ø": 181,
      "ù": 182,
      "ú": 183,
      "û": 184,
      "ü": 185,
      "ý": 186,
      "þ": 187,
      "ÿ": 188,
      "Ā": 189,
      "ā": 190,
      "Ă": 191,
      "ă": 192,
      "Ą": 193,
      "ą": 194,
      "Ć": 195,
      "ć": 196,
      "Ĉ": 197,
      "ĉ": 198,
      "Ċ": 199,
      "ċ": 200,
      "Č": 201,
      "č": 202,
      "Ď": 203,
      "ď": 204,
      "Đ": 205,
      "đ": 206,
      "Ē": 207,
      "ē": 208,
      "Ĕ": 209,
      "ĕ": 210,
      "Ė": 211,
      "ė": 212,
      "Ę": 213,
      "ę": 214,
      "Ě": 215,
      "ě": 216,
      "Ĝ": 217,
      "ĝ": 218,
      "Ğ": 219,
      "ğ": 220,
      "Ġ": 221,
      "ġ": 222,
      "Ģ": 223,
      "ģ": 224,
      "Ĥ": 225,
      "ĥ": 226,
      "Ħ": 227,
      "ħ": 228,
      "Ĩ": 229,
      "ĩ": 230,
      "Ī": 231,
      "ī": 232,
      "Ĭ": 233,
      "ĭ": 234,
      "Į": 235,
      "į": 236,
      "İ": 237,
      "ı": 238,
      "Ĳ": 239,
      "ĳ": 240,
      "Ĵ": 241,
      "ĵ": 242,
      "Ķ": 243,
      "ķ": 244,
      "ĸ": 245,
      "Ĺ": 246,
      "ĺ": 247,
      "Ļ": 248,
      "ļ": 249,
      "Ľ": 250,
      "ľ": 251,
      "Ŀ": 252,
      "ŀ": 253,
      "Ł": 254,
      "ł": 255,
      "Ń": 256,
      "in": 257,
      "Ġt": 258,
      "Ġa": 259,
      "er": 260,
      "es": 261,
      "on": 262,
      "en": 263,
      "ti": 264,
      "ing": 265,
      "Ġth": 266,
      "Ġs": 267,
      "Ġc": 268,
      "or": 269,
      "nd": 270,
      "al": 271,
      "ou": 272,
      "re": 273,
      "Ġw": 274,
      "Ġp": 275,
      "at": 276,
      "Ġthe": 277,
      "it": 278,
      "Ġf": 279,
      "ed": 280,
      "an": 281,
      "Ġand": 282,
      "ar": 283,
      "Ġo": 284,
      "is": 285,
      "Ġin": 286,
      "tion": 287,
      "Ġd": 288,
      "Ġm": 289,
      "Ġb": 290,
      "le": 291,
      "Ġto": 292,
      "Ġe": 293,
      "Ġh": 294,
      "ic": 295,
      "om": 296,
      "Ġof": 297,
      "ent": 298,
      "el": 299,
      "st": 300,
      "ec": 301,
      "ro": 302,
      "Ġl": 303,
      "ac": 304,
      "ation": 305,
      "et": 306,
      "--": 307,
      "il": 308,
      "Ġre": 309,
      "ol": 310,
      "Ġu": 311,
      "ur": 312,
      "as": 313,
      "ow": 314,
      "ers": 315,
      "ig": 316,
      "ve": 317,
      "ly": 318,
      "Ġg": 319,
      "im": 320,
      "id": 321,
      "Ġn": 322,
      "th": 323,
      "Ġy": 324,
      "our": 325,
      "ce": 326,
      "ess": 327,
      "Ġcon": 328,
      "ul": 329,
      "ĠT": 330,
      "Ġst": 331,
      "Ġwh": 332,
      "ir": 333,
      "Ġr": 334,
      "Ġex": 335,
      "am": 336,
      "ts": 337,
      "ver": 338,
      "Ġfor": 339,
      "ith": 340,
      "ay": 341,
      "ĠA": 342,
      "ter": 343,
      "ag": 344,
      "em": 345,
      "ad": 346,
      "ĠS": 347,
      "ch": 348,
      "Ġcom": 349,
      "Ġwith": 350,
      "ap": 351,
      "ĠC": 352,
      "if": 353,
      "us": 354,
      "Ġon": 355,
      "ate": 356,
      "Ġor": 357,
      "----": 358,
      "ab": 359,
      "ĠI": 360,
      "Ġv": 361,
      "Ġpro": 362,
      "ity": 363,
      "ĠTh": 364,
      "os": 365,
      "ri": 366,
      "tic": 367,
      "qu": 368,
      "Ġen": 369,
      "ain": 370,
      "Ġas": 371,
      "pl": 372,
      "od": 373,
      "ke": 374,
      "out": 375,
      "and": 376,
      "ut": 377,
      "ment": 378,
      "Ġal": 379,
      "Ġsu": 380,
      "igh": 381,
      "'s": 382,
      "Ġch": 383,
      "Ġyou": 384,
      "Ġbe": 385,
      "Ġit": 386,
      "Ġan": 387,
      "Ġle": 388,
      "ion": 389,
      "Ġthat": 390,
      "rou": 391,
      "ci": 392,
      "op": 393,
      "ies": 394,
      "ĠB": 395,
      "ese": 396,
      "un": 397,
      "iv": 398,
      "ot": 399,
      "ist": 400,
      "ore": 401,
      "ĠW": 402,
      "ure": 403,
      "gh": 404,
      "Ġsh": 405,
      "Ġtr": 406,
      "ations": 407,
      "ĠM": 408,
      "Ġint": 409,
      "Ġyour": 410,
      "Ġis": 411,
      "ere": 412,
      "Ġus": 413,
      "Ġwe": 414,
      "ĠP": 415,
      "pp": 416,
      "Ġpr": 417,
      "ous": 418,
      "um": 419,
      "iz": 420,
      "Ġac": 421,
      "ld": 422,
      "tions": 423,
      "ĠE": 424,
      "Ġim": 425,
      "all": 426,
      "ill": 427,
      "og": 428,
      "uc": 429,
      "ome": 430,
      "iti": 431,
      "Ġab": 432,
      "Ġtheir": 433,
      "Ġde": 434,
      "ting": 435,
      "ĠĠ": 436,
      "Ġsp": 437,
      "ĠF": 438,
      "ine": 439,
      "Ġne": 440,
      "ĠH": 441,
      "Ġwor": 442,
      "ud": 443,
      "ance": 444,
      "ant": 445,
      "ical": 446,
      "Ġcan": 447,
      "per": 448,
      "Ġad": 449,
      "end": 450,
      "king": 451,
      "Ġcomp": 452,
      "Ġres": 453,
      "**": 454,
      "Ġcont": 455,
      "Ġli": 456,
      "ati": 457,
      "Ġfr": 458,
      "ating": 459,
      "oc": 460,
      "Ġ(": 461,
      "Ġun": 462,
      "ard": 463,
      "ĠR": 464,
      "for": 465,
      "ĠD": 466,
      "Ġpl": 467,
      "ust": 468,
      "ight": 469,
      "Ġse": 470,
      "ual": 471,
      "av": 472,
      "enti": 473,
      "are": 474,
      "Ġthis": 475,
      "ach": 476,
      "Ġhe": 477,
      "Ġthey": 478,
      "ces": 479,
      "Ġdis": 480,
      "--------": 481,
      "Ġabout": 482,
      "nder": 483,
      "Ġby": 484,
      "ans": 485,
      "ep": 486,
      "est": 487,
      "able": 488,
      "ect": 489,
      "ence": 490,
      "ĠL": 491,
      "ong": 492,
      "Ġso": 493,
      "Ġthese": 494,
      "ort": 495,
      "ther": 496,
      "ents": 497,
      "rough": 498,
      "Ġare": 499,
      "eth": 500,
      "ign": 501,
      "Ġinto": 502,
      "fer": 503,
      "Ġat": 504,
      "Ġlike": 505,
      "ge": 506,
      "ide": 507,
      "Ġem": 508,
      "ell": 509,
      "ip": 510,
      "Ġinc": 511,
      "ks": 512,
      "ĠO": 513,
      "ves": 514,
      "ast": 515,
      "Ġfrom": 516,
      "Ġstr": 517,
      "Ġj": 518,
      "vel": 519,
      "age": 520,
      "Ġar": 521,
      "âĢ": 522,
      "Ġk": 523,
      "Ġimp": 524,
      "ors": 525,
      "ile": 526,
      "ary": 527,
      "ities": 528,
      "ind": 529,
      "ens": 530,
      "Ġour": 531,
      "Ġcre": 532,
      "ave": 533,
      "Ġev": 534,
      "ib": 535,
      "Ġme": 536,
      "Ġunder": 537,
      "ful": 538,
      "Ġhow": 539,
      "Ġpar": 540,
      "Ġall": 541,
      "ue": 542,
      "ial": 543,
      "Ġthem": 544,
      "act": 545,
      "arn": 546,
      "ould": 547,
      "ated": 548,
      "stand": 549,
      "ĠG": 550,
      "Ġcl": 551,
      "ult": 552,
      "oo": 553,
      "Ġcomm": 554,
      "form": 555,
      "ff": 556,
      "ĠN": 557,
      "Ġexpl": 558,
      "Ġinter": 559,
      "cess": 560,
      "uring": 561,
      "Ġ\"": 562,
      "very": 563,
      "ĠU": 564,
      "one": 565,
      "ures": 566,
      "ath": 567,
      "ie": 568,
      "Ġbet": 569,
      "Ġapp": 570,
      "ost": 571,
      "ĠIn": 572,
      "ments": 573,
      "ings": 574,
      "Ġthrough": 575,
      "ious": 576,
      "Ġsome": 577,
      "ech": 578,
      "lec": 579,
      "ons": 580,
      "ĠThe": 581,
      "ally": 582,
      "Ġind": 583,
      "ose": 584,
      "ass": 585,
      "Ġcons": 586,
      "ory": 587,
      "Ġfe": 588,
      "Ġman": 589,
      "ple": 590,
      "olog": 591,
      "now": 592,
      "Ġup": 593,
      "ress": 594,
      "round": 595,
      "duc": 596,
      "Ġtim": 597,
      "ition": 598,
      "Ġro": 599,
      "ang": 600,
      "Ġpre": 601,
      "Ġhel": 602,
      "ace": 603,
      "Ġlearn": 604,
      "oun": 605,
      "Ġits": 606,
      "ich": 607,
      "ne": 608,
      "Ġwill": 609,
      "ack": 610,
      "ive": 611,
      "ific": 612,
      "les": 613,
      "Ġhelp": 614,
      "ood": 615,
      "Ġqu": 616,
      "Ġsuch": 617,
      "Ġwhen": 618,
      "over": 619,
      "tr": 620,
      "ater": 621,
      "Ġcol": 622,
      "ound": 623,
      "we": 624,
      "ak": 625,
      "Ġper": 626,
      "ire": 627,
      "'t": 628,
      "Ġpe": 629,
      "Ġrel": 630,
      "tim": 631,
      "Ġins": 632,
      "Ġdo": 633,
      "ays": 634,
      "Ġunderstand": 635,
      "ĠThis": 636,
      "echn": 637,
      "Ġdif": 638,
      "Ġbec": 639,
      "tive": 640,
      "Ġhave": 641,
      "ish": 642,
      "Ġknow": 643,
      "ential": 644,
      "Ġexper": 645,
      "Ġwhat": 646,
      "ex": 647,
      "ough": 648,
      "ative": 649,
      "iqu": 650,
      "Ġmore": 651,
      "Ġdes": 652,
      "ĠJ": 653,
      "Ġevery": 654,
      "ĠCh": 655,
      "Ġdisc": 656,
      "Ġwhile": 657,
      "ely": 658,
      "tiv": 659,
      "ond": 660,
      "ions": 661,
      "elf": 662,
      "Ġam": 663,
      "Ġexam": 664,
      "Ġrem": 665,
      "ake": 666,
      "ĠWh": 667,
      "eng": 668,
      "als": 669,
      "cial": 670,
      "Ġout": 671,
      "ild": 672,
      "art": 673,
      "Ġcommun": 674,
      "ĠâĢ": 675,
      "ility": 676,
      "Ġtime": 677,
      "so": 678,
      "Ġsy": 679,
      "Ġspec": 680,
      "ates": 681,
      "ob": 682,
      "Ġinv": 683,
      "ences": 684,
      "Ġ-": 685,
      "ving": 686,
      "ues": 687,
      "ail": 688,
      "ection": 689,
      "ween": 690,
      "aking": 691,
      "Ġover": 692,
      "se": 693,
      "ite": 694,
      "tain": 695,
      "ber": 696,
      "Ġtechn": 697,
      "ll": 698,
      "Ġwho": 699,
      "Ġdiffer": 700,
      "ys": 701,
      "In": 702,
      "ten": 703,
      "Ġbetween": 704,
      "Ġvar": 705,
      "Ġpers": 706,
      "Ġher": 707,
      "oth": 708,
      "ame": 709,
      "ry": 710,
      "Ġinst": 711,
      "ia": 712,
      "ms": 713,
      "Ġwithin": 714,
      "ĠBy": 715,
      "ular": 716,
      "Ġreg": 717,
      "ural": 718,
      "ople": 719,
      "ĠY": 720,
      "ra": 721,
      "Th": 722,
      "row": 723,
      "ether": 724,
      "hip": 725,
      "pec": 726,
      "Ġincl": 727,
      "ĠâĢĵ": 728,
      "ice": 729,
      "Ġstud": 730,
      "Ġwhere": 731,
      "##": 732,
      "Ġval": 733,
      "Ġworld": 734,
      "Ġthere": 735,
      "Ġag": 736,
      "rib": 737,
      "ower": 738,
      "Ġnew": 739,
      "tical": 740,
      "Ġrec": 741,
      "ward": 742,
      "Ġsign": 743,
      "Ġwas": 744,
      "alth": 745,
      "Ġone": 746,
      "ef": 747,
      "Ġadv": 748,
      "por": 749,
      "Ġph": 750,
      "Ġprov": 751,
      "Ġother": 752,
      "ord": 753,
      "Ġdec": 754,
      "Ġexperi": 755,
      "low": 756,
      "yp": 757,
      "----------------": 758,
      "Ġexp": 759,
      "ov": 760,
      "Ġpeople": 761,
      "Ġgr": 762,
      "ivid": 763,
      "ife": 764,
      "Ġbut": 765,
      "Ġwhich": 766,
      "Ġhist": 767,
      "Ġop": 768,
      "ĠĠĠĠ": 769,
      "Ġduring": 770,
      "Ġsc": 771,
      "res": 772,
      "Ġprac": 773,
      "Ġtrans": 774,
      "ever": 775,
      "Ġmight": 776,
      "Ġlet": 777,
      "velop": 778,
      "``": 779,
      "Ġneed": 780,
      "ern": 781,
      "Ġchall": 782,
      "Ġeven": 783,
      "stem": 784,
      "Ġser": 785,
      "Ġusing": 786,
      "Ġmod": 787,
      "lex": 788,
      "aus": 789,
      "Ġsim": 790,
      "pt": 791,
      "Ġcult": 792,
      "ics": 793,
      "oy": 794,
      "Ġpos": 795,
      "Ġbr": 796,
      "app": 797,
      "ook": 798,
      "Ġfun": 799,
      "ism": 800,
      "ering": 801,
      "arch": 802,
      "tern": 803,
      "Ġresp": 804,
      "ize": 805,
      "cl": 806,
      "Ġmay": 807,
      "Ġcall": 808,
      "Ġinclud": 809,
      "ividual": 810,
      "ĠAs": 811,
      "gr": 812,
      "ark": 813,
      "Ġif": 814,
      "agine": 815,
      "ove": 816,
      "wn": 817,
      "ased": 818,
      "its": 819,
      "Ġrep": 820,
      "ories": 821,
      "Ġadd": 822,
      "ars": 823,
      "Ġcould": 824,
      "ĠSt": 825,
      "ature": 826,
      "Ġsur": 827,
      "Ġdifferent": 828,
      "Ġacc": 829,
      "oring": 830,
      "Ġindividual": 831,
      "Ġvarious": 832,
      "Ġeng": 833,
      "ros": 834,
      "ivers": 835,
      "ily": 836,
      "Ġ**": 837,
      "old": 838,
      "Ġpol": 839,
      "ase": 840,
      "Ġhealth": 841,
      "Ġte": 842,
      "enc": 843,
      "Ġany": 844,
      "Ġhis": 845,
      "Ġbu": 846,
      "Ġhas": 847,
      "Ġhum": 848,
      "Ġwork": 849,
      "ĠFor": 850,
      "riend": 851,
      "ness": 852,
      "Ġno": 853,
      "pport": 854,
      "Ġgen": 855,
      "Ġsk": 856,
      "ible": 857,
      "ĠThese": 858,
      ").": 859,
      "Ġsm": 860,
      "ru": 861,
      "ric": 862,
      "ages": 863,
      "ven": 864,
      "gan": 865,
      "Ġke": 866,
      "ights": 867,
      "Ġdevelop": 868,
      "fl": 869,
      "Ġlead": 870,
      "ool": 871,
      "Ġens": 872,
      "br": 873,
      "Ġeff": 874,
      "Ġthose": 875,
      "Ġconn": 876,
      "Ġplay": 877,
      "Ġalso": 878,
      "anc": 879,
      "ty": 880,
      "Ġnot": 881,
      "ology": 882,
      "ĠIt": 883,
      "ized": 884,
      "Ġeach": 885,
      "ĠK": 886,
      "ational": 887,
      "ise": 888,
      "ĠHow": 889,
      "Ġaround": 890,
      "apter": 891,
      "ider": 892,
      "oin": 893,
      "erg": 894,
      "Ġtw": 895,
      "Ġallow": 896,
      "Ġreal": 897,
      "Ġdel": 898,
      "Ġimport": 899,
      "arm": 900,
      "ands": 901,
      "Ġob": 902,
      "other": 903,
      "reat": 904,
      "ines": 905,
      "ement": 906,
      "Ġtrad": 907,
      "Ġprom": 908,
      "Ġinvol": 909,
      "ata": 910,
      "irst": 911,
      "ange": 912,
      "Ġsa": 913,
      "Ġfam": 914,
      "ub": 915,
      "Ġboth": 916,
      "Ġgo": 917,
      "Ġsystem": 918,
      "Ġchalleng": 919,
      "wor": 920,
      "ead": 921,
      "urn": 922,
      "Ġliv": 923,
      "Ġsignific": 924,
      "Ġfriend": 925,
      "ique": 926,
      "ink": 927,
      "Ġthan": 928,
      "Ġset": 929,
      "str": 930,
      "ph": 931,
      "Ġ`": 932,
      "ian": 933,
      "ross": 934,
      "ember": 935,
      "Ġunderstanding": 936,
      "Ġcare": 937,
      "ved": 938,
      "Ġsom": 939,
      "red": 940,
      "own": 941,
      "Ġref": 942,
      "led": 943,
      "Ġwould": 944,
      "aph": 945,
      "ree": 946,
      "Ġmy": 947,
      "Ġlife": 948,
      "),": 949,
      "Ġcalled": 950,
      "Ġprocess": 951,
      "Ġhigh": 952,
      "Ġfeel": 953,
      "ices": 954,
      "Ġmed": 955,
      "plic": 956,
      "Ġpot": 957,
      "Ġuse": 958,
      "Ġfl": 959,
      "Ġsee": 960,
      "ction": 961,
      "aging": 962,
      "Ġpres": 963,
      "Ġcomplex": 964,
      "ution": 965,
      "Ġback": 966,
      "ples": 967,
      "Ġchar": 968,
      "ateg": 969,
      "Ġcreate": 970,
      "iron": 971,
      "Ġgrow": 972,
      "ted": 973,
      "Ġpower": 974,
      "Ġexplore": 975,
      "Ġess": 976,
      "ying": 977,
      "Ġmany": 978,
      "Ġlearning": 979,
      "fter": 980,
      "Ġdesign": 981,
      "Ġtog": 982,
      "Ġgu": 983,
      "usion": 984,
      "fore": 985,
      "Ġtogether": 986,
      "rop": 987,
      "Ġpartic": 988,
      "Ġperson": 989,
      "Ġjust": 990,
      "ently": 991,
      "Ġid": 992,
      "itions": 993,
      "Ġcontin": 994,
      "fic": 995,
      "Ġfac": 996,
      "ething": 997,
      "ĠThey": 998,
      "ĠWe": 999,
      "ĠEx": 1000,
      "Ġenc": 1001,
      "izing": 1002,
      "Ġmain": 1003,
      "Ġsoci": 1004,
      "Ġcap": 1005,
      "esearch": 1006,
      "Ġread": 1007,
      "Ġvis": 1008,
      "Ġbel": 1009,
      "uss": 1010,
      "ĠAd": 1011,
      "Ġown": 1012,
      "Ġsomething": 1013,
      "Ġtyp": 1014,
      "Ġexample": 1015,
      "Ġdist": 1016,
      "ety": 1017,
      "wards": 1018,
      "Ġfol": 1019,
      "Ġfind": 1020,
      "rit": 1021,
      "viron": 1022,
      "ets": 1023,
      "ability": 1024,
      "ext": 1025,
      "Ġform": 1026,
      "ĠV": 1027,
      "ĠCon": 1028,
      "Ġsol": 1029,
      "ĠĠĠ": 1030,
      "ties": 1031,
      "Ġloc": 1032,
      "Ġbl": 1033,
      "ects": 1034,
      "thers": 1035,
      "Ġsub": 1036,
      "Ġcoun": 1037,
      "Ġsch": 1038,
      "Ġinform": 1039,
      "Ġidenti": 1040,
      "ĠUn": 1041,
      "tics": 1042,
      "Ġ=": 1043,
      "ality": 1044,
      "ĠEn": 1045,
      "Ġequ": 1046,
      "ade": 1047,
      "tice": 1048,
      "aw": 1049,
      "Ġshare": 1050,
      "Ġprot": 1051,
      "Ġdet": 1052,
      "Ġunique": 1053,
      "ances": 1054,
      "uct": 1055,
      "Ġtwo": 1056,
      "Ġrequ": 1057,
      "Ġbefore": 1058,
      "Ġass": 1059,
      "erm": 1060,
      "ribut": 1061,
      "par": 1062,
      "ĠSo": 1063,
      "ĠAm": 1064,
      "Ġed": 1065,
      "ocus": 1066,
      "magine": 1067,
      "Ġwere": 1068,
      "ick": 1069,
      "Ġshe": 1070,
      "ital": 1071,
      "ps": 1072,
      "arly": 1073,
      "Ġshap": 1074,
      "Ġoften": 1075,
      "Ġplan": 1076,
      "Ġnum": 1077,
      "ause": 1078,
      "ization": 1079,
      "Ġgl": 1080,
      "Ġothers": 1081,
      "til": 1082,
      "Ġdata": 1083,
      "ically": 1084,
      "Ġenviron": 1085,
      "Ġthough": 1086,
      "Ġessential": 1087,
      "Ġprovid": 1088,
      "Ġbuild": 1089,
      "Ġlit": 1090,
      "Ġtoo": 1091,
      "Ġsignificant": 1092,
      "ble": 1093,
      "Ġamong": 1094,
      "Ġcur": 1095,
      "akes": 1096,
      "Ġbeh": 1097,
      "ning": 1098,
      "gg": 1099,
      "ĠAn": 1100,
      "ources": 1101,
      "ling": 1102,
      "ining": 1103,
      "Ġsec": 1104,
      "ft": 1105,
      "ourse": 1106,
      "ct": 1107,
      "Ġway": 1108,
      "Ġdue": 1109,
      "ĠCom": 1110,
      "Ġdown": 1111,
      "ict": 1112,
      "Ġdivers": 1113,
      "au": 1114,
      "Ġoff": 1115,
      "con": 1116,
      "Ġap": 1117,
      "Ġbetter": 1118,
      "Ġfollow": 1119,
      "Ġrepres": 1120,
      "be": 1121,
      "Ġskill": 1122,
      "clusion": 1123,
      "Ġdem": 1124,
      "day": 1125,
      "air": 1126,
      "vely": 1127,
      "ather": 1128,
      "Now": 1129,
      "The": 1130,
      "Ġfunction": 1131,
      "roduc": 1132,
      "Ġconsider": 1133,
      "Ġanal": 1134,
      "ds": 1135,
      "Ġorgan": 1136,
      "ĠRe": 1137,
      "Ġcri": 1138,
      "Ġfocus": 1139,
      "itional": 1140,
      "Ġchallenges": 1141,
      "Ġbre": 1142,
      "uch": 1143,
      "Ġco": 1144,
      "Ġrespons": 1145,
      "Ġresearch": 1146,
      "Ġsocial": 1147,
      "Ġtowards": 1148,
      "Ġacross": 1149,
      "iness": 1150,
      "ĠSh": 1151,
      "ax": 1152,
      "Ġtal": 1153,
      "ately": 1154,
      "urther": 1155,
      "Ġmus": 1156,
      "Ġpotential": 1157,
      "ected": 1158,
      "Ġsci": 1159,
      "Ġhuman": 1160,
      "Ġpractic": 1161,
      "iss": 1162,
      "Ġmin": 1163,
      "ination": 1164,
      "Ġprof": 1165,
      "Ġgrou": 1166,
      "ually": 1167,
      "Ġproduc": 1168,
      "Section": 1169,
      "ethod": 1170,
      "Ġhad": 1171,
      "Ġconce": 1172,
      "Ġfirst": 1173,
      "Ġappro": 1174,
      "Ġmean": 1175,
      "Ġimpro": 1176,
      "Ġhapp": 1177,
      "Ġiss": 1178,
      "Ġrelations": 1179,
      "asc": 1180,
      "Ġindividuals": 1181,
      "Ġgener": 1182,
      "uth": 1183,
      "tit": 1184,
      "aring": 1185,
      "Ġincre": 1186,
      "iques": 1187,
      "Ġexperiences": 1188,
      "Ġaw": 1189,
      "Ġpop": 1190,
      ".\"": 1191,
      "ĠAl": 1192,
      "arg": 1193,
      "raph": 1194,
      "Ġwell": 1195,
      "angu": 1196,
      "Ġfost": 1197,
      "lish": 1198,
      "As": 1199,
      "Ġques": 1200,
      "omes": 1201,
      "ogn": 1202,
      "Ġcent": 1203,
      "Ġdiscuss": 1204,
      "ĠYou": 1205,
      "ied": 1206,
      "nderstand": 1207,
      "ili": 1208,
      "te": 1209,
      "Ġarti": 1210,
      "orical": 1211,
      "aving": 1212,
      "Ġrole": 1213,
      "Ġstrateg": 1214,
      "Ġcontribut": 1215,
      "Ġfriends": 1216,
      "St": 1217,
      "Ġbeing": 1218,
      "els": 1219,
      "tional": 1220,
      "Ġever": 1221,
      "Ġmat": 1222,
      "Ġfound": 1223,
      "Ġmaking": 1224,
      "Ġthen": 1225,
      "Ġjour": 1226,
      "iew": 1227,
      "Ġconc": 1228,
      "agement": 1229,
      "Ġmem": 1230,
      "self": 1231,
      "Ġday": 1232,
      "less": 1233,
      "Ġexploring": 1234,
      "```": 1235,
      "ĠThat": 1236,
      "Ġmul": 1237,
      "Ġstart": 1238,
      "Ġhistory": 1239,
      "ols": 1240,
      "ency": 1241,
      "Ġfin": 1242,
      "ier": 1243,
      "ĠHowever": 1244,
      "Ġlong": 1245,
      "Ġmethod": 1246,
      "vers": 1247,
      "ertain": 1248,
      "empor": 1249,
      "Ġoffer": 1250,
      "Ġide": 1251,
      "Ġdoes": 1252,
      "Ġent": 1253,
      "ĠThrough": 1254,
      "âĢĶ": 1255,
      "atives": 1256,
      "abor": 1257,
      "Ġstories": 1258,
      "Ġactiv": 1259,
      "Ġagain": 1260,
      "Ġalong": 1261,
      "Ġclass": 1262,
      "Ġupon": 1263,
      "Ġused": 1264,
      ":**": 1265,
      "Ġinn": 1266,
      "hips": 1267,
      "Ġwhy": 1268,
      "Ġanother": 1269,
      "Ġinfl": 1270,
      "inating": 1271,
      "Ġsuc": 1272,
      "Ġsever": 1273,
      "Wh": 1274,
      "ilities": 1275,
      "ists": 1276,
      "eric": 1277,
      "Ġperform": 1278,
      "Ġthings": 1279,
      "ental": 1280,
      "pportun": 1281,
      "Ġget": 1282,
      "uture": 1283,
      "line": 1284,
      "reci": 1285,
      "sel": 1286,
      "iting": 1287,
      "Ġvalu": 1288,
      "ited": 1289,
      "yth": 1290,
      "Ġself": 1291,
      "Ġbecome": 1292,
      "Ġsaf": 1293,
      "Ġpromot": 1294,
      "times": 1295,
      "Ġimportant": 1296,
      "Ġincluding": 1297,
      "Ġmo": 1298,
      "iel": 1299,
      "acy": 1300,
      "Ġeduc": 1301,
      "Ġmaintain": 1302,
      "Ġeveryone": 1303,
      "ney": 1304,
      "Ġ'": 1305,
      "Ġele": 1306,
      "Ġshow": 1307,
      "Ġright": 1308,
      "arr": 1309,
      "Ġlangu": 1310,
      "Ġenvironment": 1311,
      "ains": 1312,
      "Ġbod": 1313,
      "ication": 1314,
      "Ġappreci": 1315,
      "Ġthroughout": 1316,
      "cc": 1317,
      "Ġend": 1318,
      "ew": 1319,
      "aterial": 1320,
      "emporary": 1321,
      "ograph": 1322,
      "Ġbelie": 1323,
      "Ġtechniques": 1324,
      "nderstanding": 1325,
      "ĠBut": 1326,
      "Ġfact": 1327,
      "lect": 1328,
      "Ġbased": 1329,
      "Ġspecial": 1330,
      "Ġopportun": 1331,
      "Ġsomeone": 1332,
      "ici": 1333,
      "Ġbecause": 1334,
      "Ġpat": 1335,
      "Ġspecific": 1336,
      "Ġskills": 1337,
      "Ġkeep": 1338,
      "ological": 1339,
      "Ġstudents": 1340,
      ",\"": 1341,
      "'re": 1342,
      "Ġdep": 1343,
      "###": 1344,
      "ix": 1345,
      "Ġdef": 1346,
      "Ġwant": 1347,
      "Ġcor": 1348,
      "Ġfood": 1349,
      "ffor": 1350,
      "Ġwater": 1351,
      "Ġemo": 1352,
      "Ġcle": 1353,
      "ired": 1354,
      "Ġmake": 1355,
      "ĠHe": 1356,
      "Ġfasc": 1357,
      "Ġpart": 1358,
      "Ġpass": 1359,
      "tle": 1360,
      "utions": 1361,
      "Ġinformation": 1362,
      "Ġposs": 1363,
      "Ġafter": 1364,
      "Ġapproach": 1365,
      "ĠWhen": 1366,
      "Ġcommunities": 1367,
      "ĠWith": 1368,
      "**:": 1369,
      "ris": 1370,
      "Ġprin": 1371,
      "ren": 1372,
      "Ġless": 1373,
      "Ġhand": 1374,
      "Ġtake": 1375,
      "az": 1376,
      "Ġsmall": 1377,
      "ases": 1378,
      "sts": 1379,
      "itive": 1380,
      "Ġmulti": 1381,
      "ants": 1382,
      "Ġben": 1383,
      "acter": 1384,
      "Ġsens": 1385,
      "Ġsuccess": 1386,
      "bers": 1387,
      "Ġissues": 1388,
      "Ġye": 1389,
      "Ġvaluable": 1390,
      "Ġcultural": 1391,
      "ins": 1392,
      "ams": 1393,
      "Ġbus": 1394,
      "ike": 1395,
      "Step": 1396,
      "Ġcru": 1397,
      "Ġrepresent": 1398,
      "ways": 1399,
      "Ġdid": 1400,
      "aining": 1401,
      "ĠPro": 1402,
      "Ġbeen": 1403,
      "Ġconnec": 1404,
      "rom": 1405,
      "Ġsystems": 1406,
      "Ġinflu": 1407,
      "selves": 1408,
      "ĠTr": 1409,
      "Ġaccess": 1410,
      "Ġleg": 1411,
      "Ġemp": 1412,
      "ĠAmeric": 1413,
      "ĠSome": 1414,
      "atures": 1415,
      "Ġmade": 1416,
      "ĠLet": 1417,
      "II": 1418,
      "Ġatt": 1419,
      "Ġways": 1420,
      "Ġconf": 1421,
      "Ġfuture": 1422,
      "Ġdiscover": 1423,
      "Ġinsp": 1424,
      "Ġmaterial": 1425,
      "plications": 1426,
      "come": 1427,
      "Ġonly": 1428,
      "Ġaff": 1429,
      "Ġpractices": 1430,
      "Ġcontro": 1431,
      "aces": 1432,
      "yn": 1433,
      "Ġexc": 1434,
      "Ġschool": 1435,
      "Ġstory": 1436,
      "Ġeffec": 1437,
      "equ": 1438,
      "Ġthink": 1439,
      "ending": 1440,
      "Ġdeep": 1441,
      "Ġdiverse": 1442,
      "Ġpersonal": 1443,
      "lic": 1444,
      "ĠAr": 1445,
      "Ġcrucial": 1446,
      "Ġauth": 1447,
      "Ġart": 1448,
      "Ġseveral": 1449,
      "Ġwithout": 1450,
      "Ġresources": 1451,
      "Ġmove": 1452,
      "Ġopen": 1453,
      "fully": 1454,
      "ision": 1455,
      "Ġteach": 1456,
      "Ġcond": 1457,
      "ered": 1458,
      "ĠTo": 1459,
      "Ġchang": 1460,
      "Ġchange": 1461,
      "Ġremember": 1462,
      "Ġgre": 1463,
      "Ġhistorical": 1464,
      "Ġstruct": 1465,
      "Ġjourney": 1466,
      "Ġsit": 1467,
      "Ġfascinating": 1468,
      "erv": 1469,
      "Ġmuch": 1470,
      "ĠOne": 1471,
      "ĠAdd": 1472,
      "inal": 1473,
      "Ġmost": 1474,
      "Ġprev": 1475,
      "Ġav": 1476,
      "Ġhelps": 1477,
      "work": 1478,
      "ĠAnd": 1479,
      "Ġunit": 1480,
      "Ġinstance": 1481,
      "ries": 1482,
      "Ġdi": 1483,
      "Ġliter": 1484,
      "labor": 1485,
      "ters": 1486,
      "Ġmodern": 1487,
      "Ġturn": 1488,
      "Ġimm": 1489,
      "avig": 1490,
      "Ġcreating": 1491,
      "ession": 1492,
      "to": 1493,
      "Ġstep": 1494,
      "und": 1495,
      "Ġexpress": 1496,
      "Ġenh": 1497,
      "read": 1498,
      "ecess": 1499,
      "asing": 1500,
      "Ġlook": 1501,
      "ength": 1502,
      "omen": 1503,
      "uce": 1504,
      "Ġagainst": 1505,
      "Ġfamily": 1506,
      "Ġinnov": 1507,
      "Ġwrit": 1508,
      "Ġtoday": 1509,
      "ython": 1510,
      "ledge": 1511,
      "'ll": 1512,
      "ĠUnderstanding": 1513,
      "Ġcommunity": 1514,
      "Ġphys": 1515,
      "Ġknown": 1516,
      "Ġensure": 1517,
      "wh": 1518,
      "Ġbusiness": 1519,
      "Ġcar": 1520,
      "Ġcho": 1521,
      "Ġaddress": 1522,
      "avi": 1523,
      "Ġpur": 1524,
      "ots": 1525,
      "Ġstrong": 1526,
      "iction": 1527,
      "soci": 1528,
      "ests": 1529,
      "Ġsupport": 1530,
      "ĠEm": 1531,
      "Ġlocal": 1532,
      "jects": 1533,
      "Ġpattern": 1534,
      "Ġallows": 1535,
      "roduction": 1536,
      "Ġmeans": 1537,
      "ilar": 1538,
      "Ġparticular": 1539,
      "Ġprovide": 1540,
      "ĠInd": 1541,
      "Ġsti": 1542,
      "avor": 1543,
      "Ġexperience": 1544,
      "ared": 1545,
      "Ġtraditional": 1546,
      "Ġcritical": 1547,
      "ploy": 1548,
      "Ġchapter": 1549,
      "Ġopportunities": 1550,
      "orpor": 1551,
      "Ġtools": 1552,
      "Ġnow": 1553,
      "any": 1554,
      "Ġeffor": 1555,
      "Ġdevelopment": 1556,
      "eness": 1557,
      "Ġdon": 1558,
      "joy": 1559,
      "Ġcomb": 1560,
      "ĠCons": 1561,
      "Ġcontemporary": 1562,
      "ĠOn": 1563,
      "tives": 1564,
      "ained": 1565,
      "Ġyourself": 1566,
      "Ġproble": 1567,
      "lying": 1568,
      "Ġanim": 1569,
      "Ġmind": 1570,
      "ah": 1571,
      "Ġwond": 1572,
      "Ġmust": 1573,
      "Ġtop": 1574,
      "Ġseem": 1575,
      "Ġmon": 1576,
      "tively": 1577,
      "Ġinsights": 1578,
      "inary": 1579,
      "Ġbenef": 1580,
      "iec": 1581,
      "Ġtechnology": 1582,
      "Ġregard": 1583,
      "pects": 1584,
      "Ġinclude": 1585,
      "Ġiniti": 1586,
      "anced": 1587,
      "pite": 1588,
      "Imagine": 1589,
      "Ġstrategies": 1590,
      "Ġcollec": 1591,
      "Ġlevel": 1592,
      "her": 1593,
      "raw": 1594,
      "Ġguid": 1595,
      "Ġkey": 1596,
      "atch": 1597,
      "Ġgrowth": 1598,
      "ends": 1599,
      "Ġris": 1600,
      "Ġrele": 1601,
      "Ġmark": 1602,
      "Ġbi": 1603,
      "Ġencour": 1604,
      "Ġpoin": 1605,
      "Ġdive": 1606,
      "ergy": 1607,
      "Ġcertain": 1608,
      "Ġinte": 1609,
      "Ġimpact": 1610,
      "Ġdev": 1611,
      "istic": 1612,
      "Ġgover": 1613,
      ".,": 1614,
      "Ġlanguage": 1615,
      "ject": 1616,
      "ape": 1617,
      "Ġworks": 1618,
      "ablish": 1619,
      "Ġcharacter": 1620,
      "Ġinstead": 1621,
      "Ġsurround": 1622,
      "Ġpolic": 1623,
      "ables": 1624,
      "Ġsym": 1625,
      "Ġhome": 1626,
      "up": 1627,
      "ret": 1628,
      "Ġnecess": 1629,
      "Ġconcern": 1630,
      "To": 1631,
      "thing": 1632,
      "go": 1633,
      "Ġest": 1634,
      "Ġbro": 1635,
      "Ġenjoy": 1636,
      "Ġexplor": 1637,
      "ooks": 1638,
      "pts": 1639,
      "Ġstand": 1640,
      "aling": 1641,
      "âĢĻ": 1642,
      "Ġmag": 1643,
      "Ġcome": 1644,
      "Ġrecogn": 1645,
      "Ġchild": 1646,
      "Ġsound": 1647,
      "orm": 1648,
      "gin": 1649,
      "Ġassoci": 1650,
      "ng": 1651,
      "aries": 1652,
      "Ġpub": 1653,
      "rac": 1654,
      "atic": 1655,
      "Ġextr": 1656,
      "Ġsupp": 1657,
      "Ġglob": 1658,
      "Ġquestions": 1659,
      "Ġes": 1660,
      "elling": 1661,
      "Ġperspec": 1662,
      "ening": 1663,
      "Ġlives": 1664,
      "ĠIm": 1665,
      "itionally": 1666,
      "Ġoper": 1667,
      "ash": 1668,
      "Ġproper": 1669,
      "Ġpoli": 1670,
      "ibility": 1671,
      "atural": 1672,
      "duce": 1673,
      "Ġbehavi": 1674,
      "acing": 1675,
      "Ġnavig": 1676,
      "Ġintegr": 1677,
      "Ġgood": 1678,
      "ooking": 1679,
      "Ġret": 1680,
      "ined": 1681,
      "Ġsometimes": 1682,
      "Ġaim": 1683,
      "Ġelements": 1684,
      "Ġemerg": 1685,
      "ators": 1686,
      "Ġrelig": 1687,
      "Ġknowledge": 1688,
      "Ġcommon": 1689,
      "Ġprogr": 1690,
      "Ġconnections": 1691,
      "Ġincorpor": 1692,
      "ĠChapter": 1693,
      "Ġaspects": 1694,
      "idd": 1695,
      "Ġlaw": 1696,
      "ender": 1697,
      "Con": 1698,
      "Ġpati": 1699,
      "Ġel": 1700,
      "ustom": 1701,
      "ĠPl": 1702,
      "put": 1703,
      "ery": 1704,
      "ilit": 1705,
      "Ġdig": 1706,
      "the": 1707,
      "Ġill": 1708,
      "ock": 1709,
      "ĠSp": 1710,
      "Ġpatterns": 1711,
      "Ġspe": 1712,
      "Ġlist": 1713,
      "Ġfactors": 1714,
      "Ġrelationships": 1715,
      "Ġreduc": 1716,
      "Ġvalues": 1717,
      "ulations": 1718,
      "eper": 1719,
      "ale": 1720,
      "Ġnature": 1721,
      "olution": 1722,
      "Ġact": 1723,
      "Ġalways": 1724,
      "Ġsimilar": 1725,
      "Ġprinci": 1726,
      "Ġharm": 1727,
      "ount": 1728,
      "Ġ&": 1729,
      "oss": 1730,
      "bs": 1731,
      "ince": 1732,
      "Ġevents": 1733,
      "Ġhim": 1734,
      "One": 1735,
      "Ġbody": 1736,
      "elcome": 1737,
      "Ġmet": 1738,
      "yond": 1739,
      "Ġter": 1740,
      "rim": 1741,
      "troduction": 1742,
      "Ġtransform": 1743,
      "onstr": 1744,
      "Ġappe": 1745,
      "emember": 1746,
      "Ġpresent": 1747,
      "Ġpractice": 1748,
      "get": 1749,
      "Ġcal": 1750,
      "Ġyears": 1751,
      "Ġcollabor": 1752,
      "Ġdeeper": 1753,
      "gress": 1754,
      "Ġcomes": 1755,
      "ield": 1756,
      "Ġcommunication": 1757,
      "conom": 1758,
      "port": 1759,
      "Ġculture": 1760,
      "Ġfre": 1761,
      "Ġimagine": 1762,
      "Ġcourse": 1763,
      "Ġmethods": 1764,
      "Ġfurther": 1765,
      "Ġworking": 1766,
      "Ġadap": 1767,
      "ĠOr": 1768,
      "fort": 1769,
      "Ġprofession": 1770,
      "Ġlim": 1771,
      "Ġsociety": 1772,
      "Ġanaly": 1773,
      "ode": 1774,
      "lement": 1775,
      "ulation": 1776,
      "Ġserv": 1777,
      "ĠIf": 1778,
      "ean": 1779,
      "Ġonline": 1780,
      "ron": 1781,
      "Ġemb": 1782,
      "Ġuntil": 1783,
      "igen": 1784,
      "chie": 1785,
      "amm": 1786,
      "Ġemploy": 1787,
      "Ġenergy": 1788,
      "ush": 1789,
      "ĠWell": 1790,
      "Ġcontribute": 1791,
      "Ġsl": 1792,
      "Ġpiec": 1793,
      "ner": 1794,
      "Ġfill": 1795,
      "sy": 1796,
      "Ġshould": 1797,
      "Ġexist": 1798,
      "Ġcontinu": 1799,
      "Ġbal": 1800,
      "ats": 1801,
      "ires": 1802,
      "ysis": 1803,
      "Ġful": 1804,
      "Ġhaving": 1805,
      "ynam": 1806,
      "Ġoverall": 1807,
      "Ġnarr": 1808,
      "by": 1809,
      "ards": 1810,
      "ults": 1811,
      "ancing": 1812,
      "inking": 1813,
      "Ġinvolves": 1814,
      "ĠBe": 1815,
      "Ġeas": 1816,
      "Ġbest": 1817,
      "oph": 1818,
      "ked": 1819,
      "ording": 1820,
      "Ġyoung": 1821,
      "Ġstill": 1822,
      "Ġcount": 1823,
      "Ġtreat": 1824,
      "izations": 1825,
      "ĠImagine": 1826,
      "ames": 1827,
      "Ġmakes": 1828,
      "Ġcustom": 1829,
      "Ġconcept": 1830,
      "Ġplace": 1831,
      "Ġcontext": 1832,
      "lectr": 1833,
      "Ġidentif": 1834,
      "Ġlands": 1835,
      "Ġlove": 1836,
      "ios": 1837,
      "ids": 1838,
      "Ġimprove": 1839,
      "Ġestablish": 1840,
      "Ġpain": 1841,
      "ĠWhile": 1842,
      "Ġgroup": 1843,
      "Ġprim": 1844,
      "ĠIs": 1845,
      "Ġshared": 1846,
      "Ġnon": 1847,
      "Ġpopular": 1848,
      "Ġgovern": 1849,
      "Ġmeas": 1850,
      "Ġmeaning": 1851,
      "Ġmom": 1852,
      "Ġmaterials": 1853,
      "ĠLe": 1854,
      "Ġactivities": 1855,
      "aps": 1856,
      "Ġcompon": 1857,
      "oreover": 1858,
      "Ġclos": 1859,
      "Ġassociated": 1860,
      "Ġtypes": 1861,
      "tention": 1862,
      "Ġcontrol": 1863,
      "Ġgiv": 1864,
      "Ġscienti": 1865,
      "Ġ$": 1866,
      "Ġer": 1867,
      "ĠAdditionally": 1868,
      "Ġadvent": 1869,
      "Ġbo": 1870,
      "ĠWhat": 1871,
      "xt": 1872,
      "ption": 1873,
      "oday": 1874,
      "ced": 1875,
      "Ġsust": 1876,
      "Ġdoc": 1877,
      "vity": 1878,
      "Ġocc": 1879,
      "Ġintern": 1880,
      "Ġmar": 1881,
      "Ġparticip": 1882,
      "Ġachie": 1883,
      "iring": 1884,
      "more": 1885,
      "Ġnet": 1886,
      "ugg": 1887,
      "Ġobs": 1888,
      "idence": 1889,
      "Ġpo": 1890,
      "Ġbeyond": 1891,
      "Ġkind": 1892,
      "ules": 1893,
      "action": 1894,
      "Ġefforts": 1895,
      "Ġpri": 1896,
      "Ġdelve": 1897,
      "ologies": 1898,
      "care": 1899,
      "irc": 1900,
      "acters": 1901,
      "Ġpast": 1902,
      "Ġliving": 1903,
      "Ġprinciples": 1904,
      "Ġimportance": 1905,
      "ĠDe": 1906,
      "Ġpress": 1907,
      "--------------------------------": 1908,
      "Ġsetting": 1909,
      "io": 1910,
      "Ġstrength": 1911,
      "Ġsitu": 1912,
      "esting": 1913,
      "Ġfollowing": 1914,
      "Let": 1915,
      "Ġensuring": 1916,
      "Ġasp": 1917,
      "ym": 1918,
      "Ġregarding": 1919,
      "Ġinf": 1920,
      "iod": 1921,
      "irit": 1922,
      "view": 1923,
      "Ġbas": 1924,
      "Ġlight": 1925,
      "Ġhold": 1926,
      "Ġmusic": 1927,
      "Ġconditions": 1928,
      "Ġconstr": 1929,
      "Ġeconom": 1930,
      "Ġtre": 1931,
      "Ġmultiple": 1932,
      "sych": 1933,
      "Ġdire": 1934,
      "Ġdr": 1935,
      "ĠUnit": 1936,
      "ĠSim": 1937,
      "Ġthree": 1938,
      "Ġorig": 1939,
      "Ġvisual": 1940,
      "Ġlay": 1941,
      "Ġfostering": 1942,
      "igenous": 1943,
      "Ġcontinue": 1944,
      "Ġtimes": 1945,
      "Ġleading": 1946,
      "Ġbig": 1947,
      "Ġnatural": 1948,
      "ients": 1949,
      "ĠĠĠĠĠĠĠ": 1950,
      "Ġeth": 1951,
      "Ġstudy": 1952,
      "Ġgroups": 1953,
      "Ġearly": 1954,
      "erous": 1955,
      "Ġthought": 1956,
      "ened": 1957,
      "Ġdemonstr": 1958,
      "Ġdraw": 1959,
      "Ġcaus": 1960,
      "ey": 1961,
      "Ġpowerful": 1962,
      "ury": 1963,
      "com": 1964,
      "Ġnext": 1965,
      "Ġthemselves": 1966,
      "ĠEng": 1967,
      "ĠAt": 1968,
      "Ġsimple": 1969,
      "ĠYour": 1970,
      "Ġbegin": 1971,
      "Ġeducation": 1972,
      "Ġengaging": 1973,
      "Ġfig": 1974,
      "Ġtri": 1975,
      "ustr": 1976,
      "Ġey": 1977,
      "Ġfavor": 1978,
      "Ġhere": 1979,
      "erc": 1980,
      "Ġvalue": 1981,
      "Ġext": 1982,
      "Ġdynam": 1983,
      "Ġneeds": 1984,
      "Ġones": 1985,
      "Ġbuilding": 1986,
      "Ġscen": 1987,
      "Ġcul": 1988,
      "Ġoffers": 1989,
      "Ġlo": 1990,
      "Ġhard": 1991,
      "Ġglobal": 1992,
      "ĠWor": 1993,
      "gu": 1994,
      "ifically": 1995,
      "Ġsharing": 1996,
      "ele": 1997,
      "Ġmen": 1998,
      "Ġidentity": 1999,
      "Ġcharacters": 2000,
      "phas": 2001,
      "pos": 2002,
      "oved": 2003,
      "Ġbehind": 2004,
      "Ġspace": 2005,
      "Ġrespect": 2006,
      "Ġsurrounding": 2007,
      "Ġoptim": 2008,
      "Ġwords": 2009,
      "Ġvari": 2010,
      "Ġpublic": 2011,
      "oes": 2012,
      "Ġareas": 2013,
      "arth": 2014,
      "Ġphysical": 2015,
      "fs": 2016,
      "auti": 2017,
      "avel": 2018,
      "Ġenvironmental": 2019,
      "Ġfil": 2020,
      "ails": 2021,
      "Ġnear": 2022,
      "Ġminim": 2023,
      "Ġve": 2024,
      "Ġyet": 2025,
      "ension": 2026,
      "Ġeffici": 2027,
      "isc": 2028,
      "Ġlearned": 2029,
      "Ch": 2030,
      "Ġmanagement": 2031,
      "ĠDes": 2032,
      "amp": 2033,
      "ze": 2034,
      "eting": 2035,
      "Ġincreasing": 2036,
      "So": 2037,
      "Ġcomput": 2038,
      "Ġelectr": 2039,
      "Ġenti": 2040,
      "urthermore": 2041,
      "Ġsustain": 2042,
      "Ġwhether": 2043,
      "aged": 2044,
      "ason": 2045,
      "ones": 2046,
      "Ġdigital": 2047,
      "Ġsafe": 2048,
      "ĠCont": 2049,
      "Ġcolor": 2050,
      "ĠToday": 2051,
      "Ġreflec": 2052,
      "Ġconclusion": 2053,
      "Ġaway": 2054,
      "actions": 2055,
      "Ġdeterm": 2056,
      "Ġarr": 2057,
      "ipp": 2058,
      "Ġwr": 2059,
      "val": 2060,
      "Ġchanges": 2061,
      "amed": 2062,
      "Ġattention": 2063,
      "Ġ*": 2064,
      "ope": 2065,
      "ltim": 2066,
      "ems": 2067,
      "ĠOver": 2068,
      "Ġnarratives": 2069,
      "reh": 2070,
      "Ġreturn": 2071,
      "Ġpred": 2072,
      "Ġlandsc": 2073,
      "?\"": 2074,
      "Ġrelev": 2075,
      "ctions": 2076,
      "ĠJust": 2077,
      "Ġsuper": 2078,
      "Ġallowing": 2079,
      "Ġground": 2080,
      "ĠAmerican": 2081,
      "Ġconsist": 2082,
      "Ġaud": 2083,
      "Ġembr": 2084,
      "oms": 2085,
      "):": 2086,
      "Ġresili": 2087,
      "Ġshaping": 2088,
      "Ġconcepts": 2089,
      "Ġreach": 2090,
      "Ġdecid": 2091,
      "Al": 2092,
      "Ġtype": 2093,
      "Ġconvers": 2094,
      "isions": 2095,
      "Ġperspectives": 2096,
      "ecting": 2097,
      "Ġbroad": 2098,
      "Ġrich": 2099,
      "ee": 2100,
      "Ġperiod": 2101,
      "Ġview": 2102,
      "Ġnovel": 2103,
      "ĠRemember": 2104,
      "ense": 2105,
      "cient": 2106,
      "Ġscience": 2107,
      "Ġeverything": 2108,
      "Ġstay": 2109,
      "works": 2110,
      "ground": 2111,
      "sh": 2112,
      "oid": 2113,
      "ĠComm": 2114,
      "Conclusion": 2115,
      "Ġappreciate": 2116,
      "Ġcool": 2117,
      "Ġther": 2118,
      "An": 2119,
      "ane": 2120,
      "exts": 2121,
      "Ġlevels": 2122,
      "Ġge": 2123,
      "Ġfilled": 2124,
      "Ġet": 2125,
      "Ġtra": 2126,
      "Ġold": 2127,
      "Ġshape": 2128,
      "Ġindust": 2129,
      "Ġdiv": 2130,
      "Ġmembers": 2131,
      "Ġthinking": 2132,
      "ĠQ": 2133,
      "Ġcultures": 2134,
      "Ġimplement": 2135,
      "By": 2136,
      "ĠFurthermore": 2137,
      "tivity": 2138,
      "Ġproviding": 2139,
      "Have": 2140,
      "..": 2141,
      "Ġfund": 2142,
      "Ġprocesses": 2143,
      "Ex": 2144,
      "Ġemphas": 2145,
      "Ġcirc": 2146,
      "Ġpost": 2147,
      "Ġstrugg": 2148,
      "Ġaltern": 2149,
      "Ġsame": 2150,
      "orts": 2151,
      "python": 2152,
      "Ġprogress": 2153,
      "Ġnecessary": 2154,
      "Ġgreat": 2155,
      "Ġtrust": 2156,
      "Ġmental": 2157,
      "aster": 2158,
      "Ġperformance": 2159,
      "ĠCl": 2160,
      "Ġmodel": 2161,
      "atform": 2162,
      "Ġwomen": 2163,
      "athy": 2164,
      "ouse": 2165,
      "Ġconcerns": 2166,
      "ells": 2167,
      "Ġrece": 2168,
      "inally": 2169,
      "ĠMoreover": 2170,
      "Ġspirit": 2171,
      "Ġpromoting": 2172,
      "'ve": 2173,
      "arl": 2174,
      "Ġforms": 2175,
      "Ġsince": 2176,
      "Ġmess": 2177,
      "urop": 2178,
      "tig": 2179,
      "actly": 2180,
      "enge": 2181,
      "Ġenough": 2182,
      "Ġstarted": 2183,
      "Ġbeauti": 2184,
      "Ġsing": 2185,
      "Ġcomponents": 2186,
      "Ġhealthcare": 2187,
      "Ġchallenging": 2188,
      "oh": 2189,
      "Ġinterest": 2190,
      "rent": 2191,
      "ltimately": 2192,
      "Ġtem": 2193,
      "Ġintric": 2194,
      "Ġhighl": 2195,
      "Ġliterature": 2196,
      "Ġsty": 2197,
      "ource": 2198,
      "ĠAfter": 2199,
      "Ġrights": 2200,
      "Ġbehavior": 2201,
      "Ġmaintaining": 2202,
      "Ġgain": 2203,
      "Ġmach": 2204,
      "Ġconsum": 2205,
      "mm": 2206,
      "Ġreaders": 2207,
      "ective": 2208,
      "Ġanalysis": 2209,
      "ĠCan": 2210,
      "Bob": 2211,
      "Ġaut": 2212,
      "icate": 2213,
      "Ġbenefits": 2214,
      "ration": 2215,
      "Ġcost": 2216,
      "Ġbring": 2217,
      "Ġsw": 2218,
      "Ġarch": 2219,
      "Ġrequire": 2220,
      "Ġdri": 2221,
      "Ġrun": 2222,
      "Ġrather": 2223,
      "let": 2224,
      "ising": 2225,
      "Ġpsych": 2226,
      "Ġsteps": 2227,
      "Ġsignificantly": 2228,
      "ges": 2229,
      "omm": 2230,
      "Ġair": 2231,
      "Ġparticularly": 2232,
      "ient": 2233,
      "Ġec": 2234,
      "Ġcra": 2235,
      "land": 2236,
      "ream": 2237,
      "elebr": 2238,
      "Ġsugg": 2239,
      "Ġtas": 2240,
      "Ġexamining": 2241,
      "Ġstructures": 2242,
      "outs": 2243,
      "Ġfavorite": 2244,
      "efore": 2245,
      "Ġpreser": 2246,
      "Ġaccur": 2247,
      "oney": 2248,
      "Ġanimals": 2249,
      "Ġbooks": 2250,
      "ulate": 2251,
      "ĠAf": 2252,
      "Ġgoing": 2253,
      "Ġheart": 2254,
      "Ġthemes": 2255,
      "orn": 2256,
      "Ġplatform": 2257,
      "etal": 2258,
      "Ġdecision": 2259,
      "Ġhumans": 2260,
      "Ġcase": 2261,
      "ilarly": 2262,
      "Ġartists": 2263,
      "Ġquick": 2264,
      "ously": 2265,
      "Ġtry": 2266,
      "Ġprefer": 2267,
      "ips": 2268,
      "aily": 2269,
      "Ġadapt": 2270,
      "Ġfeatures": 2271,
      "ides": 2272,
      "Ġland": 2273,
      "aves": 2274,
      "Ġpositive": 2275,
      "Ġconfl": 2276,
      "ĠStud": 2277,
      "Ġlessons": 2278,
      "Ġchallenge": 2279,
      "Ġavail": 2280,
      "augh": 2281,
      "Ġincred": 2282,
      "pecial": 2283,
      "Ġnumerous": 2284,
      "Ġorganizations": 2285,
      "Ġisn": 2286,
      "Ġinterp": 2287,
      "ored": 2288,
      "Ġregion": 2289,
      "Ġphot": 2290,
      "ĠAc": 2291,
      "Ġpolitical": 2292,
      "Ġvers": 2293,
      "Ġplays": 2294,
      "Ġdesc": 2295,
      "Ġnamed": 2296,
      "ours": 2297,
      "ises": 2298,
      "istance": 2299,
      "ultural": 2300,
      "urs": 2301,
      "Ġtraditions": 2302,
      "Ġtaking": 2303,
      "ĠCol": 2304,
      "Ġprovides": 2305,
      "ression": 2306,
      "Ġing": 2307,
      "atis": 2308,
      "Ġinves": 2309,
      "ners": 2310,
      "Ġpath": 2311,
      "Ġincorporating": 2312,
      "Ġheard": 2313,
      "Ġregular": 2314,
      "try": 2315,
      "Ġinside": 2316,
      "echan": 2317,
      "Ġrefers": 2318,
      "Ġbook": 2319,
      "arge": 2320,
      "Ġbecomes": 2321,
      "Ġste": 2322,
      "Ġideas": 2323,
      "ancial": 2324,
      "ĠCourse": 2325,
      "Ġserve": 2326,
      "Ġencoun": 2327,
      "Ġbecame": 2328,
      "Ġmedia": 2329,
      "going": 2330,
      "Ġface": 2331,
      "ump": 2332,
      "Ġcompreh": 2333,
      "Ġlittle": 2334,
      "ĠEurop": 2335,
      "Ġpromote": 2336,
      "olving": 2337,
      "Ġgame": 2338,
      "Ġspecifically": 2339,
      "areness": 2340,
      "Ġsure": 2341,
      "Ġfeelings": 2342,
      "Ġresilience": 2343,
      "Ġevent": 2344,
      "Ġwa": 2345,
      "Ġresult": 2346,
      "Ġcode": 2347,
      "Ġengage": 2348,
      "ĠNow": 2349,
      "ĠTim": 2350,
      "ighting": 2351,
      "Ġlibr": 2352,
      "Ġdaily": 2353,
      "Ġprevent": 2354,
      "enced": 2355,
      "ropri": 2356,
      "Ġbeautiful": 2357,
      "Ġstri": 2358,
      "Ġsoft": 2359,
      "Ġfar": 2360,
      "Ġperf": 2361,
      "ĠShe": 2362,
      "Ġsymb": 2363,
      "Ġeffectively": 2364,
      "know": 2365,
      "Ġmix": 2366,
      "tivating": 2367,
      "Ġrequires": 2368,
      "Alice": 2369,
      "hold": 2370,
      "Ġengine": 2371,
      "Ġleaders": 2372,
      "Ġgender": 2373,
      "Ġapplications": 2374,
      "Ġbreak": 2375,
      "Ġpossible": 2376,
      "ystem": 2377,
      "ĠOnce": 2378,
      "irt": 2379,
      "Ġgenerations": 2380,
      "Ġchildren": 2381,
      "Ġservices": 2382,
      "Ġremains": 2383,
      "ches": 2384,
      "Ġord": 2385,
      "ativity": 2386,
      "ample": 2387,
      "Ġancient": 2388,
      "Ġneeded": 2389,
      "Ġdecided": 2390,
      "Ġvo": 2391,
      "Ġstar": 2392,
      "Ġline": 2393,
      "Ġdistin": 2394,
      "iver": 2395,
      "ĠInst": 2396,
      "Ġmath": 2397,
      "pro": 2398,
      "Ġfaced": 2399,
      "Ġbalance": 2400,
      "Ġbound": 2401,
      "aste": 2402,
      "urity": 2403,
      "Ġquality": 2404,
      "Ġonce": 2405,
      "Ġquestion": 2406,
      "Ġsurf": 2407,
      "Ġexerc": 2408,
      "ny": 2409,
      "Ġreligious": 2410,
      "Ġclim": 2411,
      "Ġsignificance": 2412,
      "Ġsolutions": 2413,
      "ĠApp": 2414,
      "Ġded": 2415,
      "Ġimag": 2416,
      "ĠExpl": 2417,
      "Ġcelebr": 2418,
      "ral": 2419,
      "risti": 2420,
      "ervation": 2421,
      "Ġdoing": 2422,
      "esh": 2423,
      "Ġexactly": 2424,
      "int": 2425,
      "elt": 2426,
      "comes": 2427,
      "uter": 2428,
      "Ġemotions": 2429,
      "Ġfield": 2430,
      "ilies": 2431,
      "ements": 2432,
      "ĠThere": 2433,
      "Ġnumber": 2434,
      "Ġplaying": 2435,
      "Ġextra": 2436,
      "Ġjoin": 2437,
      "astic": 2438,
      "ware": 2439,
      "iliar": 2440,
      "Ġrules": 2441,
      "Ġresponsible": 2442,
      "Ġapproaches": 2443,
      "cies": 2444,
      "Ġtarg": 2445,
      "af": 2446,
      "Ġvital": 2447,
      "zing": 2448,
      "azing": 2449,
      "oman": 2450,
      "ography": 2451,
      "Ġsafety": 2452,
      "eti": 2453,
      "Ġgive": 2454,
      "Ġinvolve": 2455,
      "play": 2456,
      "pr": 2457,
      "ites": 2458,
      "Ġtalk": 2459,
      "ank": 2460,
      "Ġproblem": 2461,
      "Ġbusinesses": 2462,
      "ĠEach": 2463,
      "hood": 2464,
      "time": 2465,
      "Ġtravel": 2466,
      "Ġwal": 2467,
      "Ġsuccessful": 2468,
      "itle": 2469,
      "Ġsal": 2470,
      "Ġfiction": 2471,
      "Ġfoster": 2472,
      "Ġparts": 2473,
      "Ġsocietal": 2474,
      "Ġinvolved": 2475,
      "atory": 2476,
      "ĠFrom": 2477,
      "Ġoutcomes": 2478,
      "Ġfew": 2479,
      "apy": 2480,
      "alu": 2481,
      "Ġdeb": 2482,
      "Ġutil": 2483,
      "Ġthoughts": 2484,
      "eck": 2485,
      "uction": 2486,
      "Ġbeliefs": 2487,
      "bo": 2488,
      "Ġclear": 2489,
      "ĠChristi": 2490,
      "osing": 2491,
      "Ġdesigned": 2492,
      "ended": 2493,
      "Ġappreciation": 2494,
      "ĠId": 2495,
      "Ġaction": 2496,
      "just": 2497,
      "Ġdecisions": 2498,
      "Ġemotional": 2499,
      "Ġsay": 2500,
      "ission": 2501,
      "Ġempathy": 2502,
      "Ġinvest": 2503,
      "Ġinfluence": 2504,
      "Ġseeking": 2505,
      "Ġflow": 2506,
      "This": 2507,
      "ging": 2508,
      "side": 2509,
      "ĠMay": 2510,
      "Ġunc": 2511,
      "Ġpict": 2512,
      "ustice": 2513,
      "()": 2514,
      "utri": 2515,
      "Ġcalc": 2516,
      "Ġsources": 2517,
      "But": 2518,
      "Ġproblems": 2519,
      "aper": 2520,
      "Ġshort": 2521,
      "ium": 2522,
      "ibr": 2523,
      "ster": 2524,
      "Ġreve": 2525,
      "Ġexamine": 2526,
      "Ġachieve": 2527,
      "Ġreading": 2528,
      "Ġaddressing": 2529,
      "ply": 2530,
      "Ġdial": 2531,
      "Ġaspect": 2532,
      "dom": 2533,
      "ĠAfric": 2534,
      "Ġbegan": 2535,
      "Ġarea": 2536,
      "Ġfair": 2537,
      "overy": 2538,
      "like": 2539,
      "Ġongoing": 2540,
      "elines": 2541,
      "my": 2542,
      "Ġhead": 2543,
      "Ġcommit": 2544,
      "ĠRec": 2545,
      "Ġrest": 2546,
      "gor": 2547,
      "Ġeffective": 2548,
      "Ġaccording": 2549,
      "onic": 2550,
      "Ġlarge": 2551,
      "oming": 2552,
      "gen": 2553,
      "Ġdirect": 2554,
      "izes": 2555,
      "based": 2556,
      "Ġteam": 2557,
      "ĠSimilarly": 2558,
      "Ġhealthy": 2559,
      "iny": 2560,
      "Ġrelationship": 2561,
      "iosity": 2562,
      "ensive": 2563,
      "rep": 2564,
      "Ġcomfort": 2565,
      "redients": 2566,
      "Ġcy": 2567,
      "he": 2568,
      "sing": 2569,
      "Ġidentify": 2570,
      "appy": 2571,
      "ĠSe": 2572,
      "isms": 2573,
      "Ġouts": 2574,
      "Ġsun": 2575,
      "Ġincredible": 2576,
      "Ġperfect": 2577,
      "Ġselec": 2578,
      "Ġaudi": 2579,
      "though": 2580,
      "ĠHist": 2581,
      "==": 2582,
      "asting": 2583,
      "Ġfinancial": 2584,
      "How": 2585,
      "Ġnavigate": 2586,
      "itable": 2587,
      "Ġmechan": 2588,
      "Ġresearchers": 2589,
      "ived": 2590,
      "Ġidea": 2591,
      "Ġcore": 2592,
      "Ġmatter": 2593,
      "Ġremain": 2594,
      "Ġsense": 2595,
      "Ġclean": 2596,
      "Ġmedical": 2597,
      "Ġdespite": 2598,
      "ĠTheir": 2599,
      "ger": 2600,
      "ony": 2601,
      "Ġcover": 2602,
      "Ġtopics": 2603,
      "Ġbir": 2604,
      "Ġevalu": 2605,
      "Ġwarm": 2606,
      "Ġur": 2607,
      "Ġroles": 2608,
      "Ġprotect": 2609,
      "acks": 2610,
      "me": 2611,
      "being": 2612,
      "Ġinnovative": 2613,
      "ĠNew": 2614,
      "gorith": 2615,
      "Ġbroader": 2616,
      "ians": 2617,
      "pecially": 2618,
      "Ġfrequ": 2619,
      "Ġ+": 2620,
      "Ġmor": 2621,
      "Ġentire": 2622,
      "Ġcountries": 2623,
      "Ġfacilit": 2624,
      "exp": 2625,
      "Ġlive": 2626,
      "Ġtraining": 2627,
      "Ġplants": 2628,
      "epend": 2629,
      "Ġappropri": 2630,
      "Ġensures": 2631,
      "Ġz": 2632,
      "Ġmoney": 2633,
      "Ġshif": 2634,
      "Ġvery": 2635,
      "---": 2636,
      "Ġleft": 2637,
      "amples": 2638,
      "ule": 2639,
      "Ġauthor": 2640,
      "Ġpriv": 2641,
      "Ġcame": 2642,
      "ĠComp": 2643,
      "acts": 2644,
      "Ġincreased": 2645,
      "Ġstress": 2646,
      "omp": 2647,
      "Ġfamilies": 2648,
      "Ġdiffic": 2649,
      "Ġsex": 2650,
      "Ġrelevant": 2651,
      "Ġnp": 2652,
      "Ġcreative": 2653,
      "Ġ\\": 2654,
      "Ġage": 2655,
      "Ġtakes": 2656,
      "Ġtechnologies": 2657,
      "ĠWelcome": 2658,
      "Ġcreativity": 2659,
      "Ġespecially": 2660,
      "Ġresults": 2661,
      "Ġtext": 2662,
      "Ġactions": 2663,
      "What": 2664,
      "Ġdise": 2665,
      "ĠStr": 2666,
      "rig": 2667,
      "Ġfa": 2668,
      "Ġstudying": 2669,
      "Ġbackground": 2670,
      "ilos": 2671,
      "Ġinclus": 2672,
      "Ġstate": 2673,
      "ture": 2674,
      "Ġavailable": 2675,
      "cious": 2676,
      "Ġfull": 2677,
      "Ġconnection": 2678,
      "Ġcreated": 2679,
      "Ġgrowing": 2680,
      "utes": 2681,
      "Ġincreasingly": 2682,
      "Ġourselves": 2683,
      "Ġhab": 2684,
      "Ġcuriosity": 2685,
      "ivil": 2686,
      "Ġbreath": 2687,
      "aj": 2688,
      "ooth": 2689,
      "Introduction": 2690,
      "Ġamazing": 2691,
      "cep": 2692,
      "ident": 2693,
      "Ġtrying": 2694,
      "Ġdiversity": 2695,
      "Ġcomple": 2696,
      "Ġpoints": 2697,
      "Ġenhance": 2698,
      "!\"": 2699,
      "Ġrisk": 2700,
      "itation": 2701,
      "Ġelse": 2702,
      "Ġmaybe": 2703,
      "Ġpolicies": 2704,
      "Ġra": 2705,
      "Ġtrue": 2706,
      "Ġawareness": 2707,
      "Ġstat": 2708,
      "Ġprograms": 2709,
      "Ġlived": 2710,
      "abilities": 2711,
      "ĠHappy": 2712,
      "Ġvol": 2713,
      "Ġintricate": 2714,
      "Ġadvoc": 2715,
      "Ġenvironments": 2716,
      "Ġtemper": 2717,
      "wide": 2718,
      "ficial": 2719,
      "Ġcompared": 2720,
      "Ġneg": 2721,
      "Ġcountry": 2722,
      "cept": 2723,
      "Ġevidence": 2724,
      "ann": 2725,
      "Ġmeet": 2726,
      "Ġadvance": 2727,
      "onom": 2728,
      "ĠThink": 2729,
      "arily": 2730,
      "ĠAll": 2731,
      "ibilities": 2732,
      "Ġvide": 2733,
      "Ġoptions": 2734,
      "Ġinterven": 2735,
      "ema": 2736,
      "ĠHave": 2737,
      "Ġcollaboration": 2738,
      "Ġplatforms": 2739,
      "Ġrev": 2740,
      "Ġonto": 2741,
      "Ġinvestig": 2742,
      "ĠPython": 2743,
      "ĠSu": 2744,
      "Ġcontinued": 2745,
      "Ġdoesn": 2746,
      "Ġpay": 2747,
      "idst": 2748,
      "Ġitems": 2749,
      "ĠWorld": 2750,
      "aim": 2751,
      "ĠMan": 2752,
      "Ġadm": 2753,
      "Ġinvolving": 2754,
      "Ġdeveloping": 2755,
      "ores": 2756,
      "Ġcity": 2757,
      "aced": 2758,
      "oot": 2759,
      "Ġsingle": 2760,
      "Ġgoals": 2761,
      "iment": 2762,
      "ls": 2763,
      "Ġheav": 2764,
      "Ġsituations": 2765,
      "hes": 2766,
      "Ġability": 2767,
      "Ġhelping": 2768,
      "Ġadventure": 2769,
      "Ġwatch": 2770,
      "ĠĠĠĠĠĠĠĠ": 2771,
      "ĠCre": 2772,
      "Ġcut": 2773,
      "itiz": 2774,
      "Ġcentury": 2775,
      "Ġbar": 2776,
      "Ġcomputer": 2777,
      "ops": 2778,
      "Ġled": 2779,
      "ĠInstead": 2780,
      "Ġdiscovered": 2781,
      "Ġgraph": 2782,
      "sw": 2783,
      "Ġnor": 2784,
      "Ġworry": 2785,
      "eter": 2786,
      "ĠPh": 2787,
      "Ġrepresents": 2788,
      "Ġdifferences": 2789,
      "Ġrisks": 2790,
      "eration": 2791,
      "Ġalgorith": 2792,
      "eed": 2793,
      "Ġpieces": 2794,
      "Ġwis": 2795,
      "Ġgreater": 2796,
      "Ġund": 2797,
      "Ġhy": 2798,
      "Ġdiscussions": 2799,
      "ĠEarth": 2800,
      "uck": 2801,
      "ify": 2802,
      "Ġillustr": 2803,
      "life": 2804,
      "Ġcr": 2805,
      "Ġpoint": 2806,
      "ĠBl": 2807,
      "Ġdynamics": 2808,
      "Ġnever": 2809,
      "Ġjob": 2810,
      "orting": 2811,
      "ĠRes": 2812,
      "Ġgiven": 2813,
      "Ġjustice": 2814,
      "Ġoutside": 2815,
      "ban": 2816,
      "Ġlegal": 2817,
      "Ġencounter": 2818,
      "outh": 2819,
      "Ġtest": 2820,
      "Ġrob": 2821,
      "Ġdialog": 2822,
      "ĠInter": 2823,
      "uries": 2824,
      "dd": 2825,
      "ighb": 2826,
      "Ġframe": 2827,
      "Ġgames": 2828,
      "Ġprofessionals": 2829,
      "iol": 2830,
      "Ġstudies": 2831,
      "Ġlater": 2832,
      "etry": 2833,
      "edi": 2834,
      "Ġworldwide": 2835,
      "Ġdocu": 2836,
      "Ġfelt": 2837,
      "ator": 2838,
      "ole": 2839,
      "ont": 2840,
      "Ġcross": 2841,
      "ring": 2842,
      "ĠSc": 2843,
      "Ġloss": 2844,
      "Ġcolors": 2845,
      "ĠTechn": 2846,
      "Ġcarefully": 2847,
      "Ġasked": 2848,
      "emic": 2849,
      "idden": 2850,
      "Ġinformed": 2851,
      "Ġdam": 2852,
      "ĠReg": 2853,
      "Ġengagement": 2854,
      "ĠPol": 2855,
      "Ġdom": 2856,
      "su": 2857,
      "making": 2858,
      "Ġfree": 2859,
      "of": 2860,
      "Ġsubst": 2861,
      "Ġapplic": 2862,
      "Chapter": 2863,
      "alls": 2864,
      "ellig": 2865,
      "Ġquickly": 2866,
      "Ġremind": 2867,
      "Ġbond": 2868,
      "Ġtasks": 2869,
      "ĠMod": 2870,
      "ĠGod": 2871,
      "ields": 2872,
      "Ġunivers": 2873,
      "ĠIntroduction": 2874,
      "Ġhope": 2875,
      "Ġadop": 2876,
      "Ġobser": 2877,
      "cip": 2878,
      "ĠOur": 2879,
      "Ġoffering": 2880,
      "ĠWar": 2881,
      "iddle": 2882,
      "cipl": 2883,
      "Ġexpect": 2884,
      "eep": 2885,
      "ik": 2886,
      "ilosoph": 2887,
      "sp": 2888,
      "ogether": 2889,
      "Ġlog": 2890,
      "ĠGr": 2891,
      "Ġcompan": 2892,
      "Ġaimed": 2893,
      "Before": 2894,
      "arah": 2895,
      "ĠTitle": 2896,
      "cer": 2897,
      "Ġrefer": 2898,
      "Ġnutri": 2899,
      "Ġinstit": 2900,
      "Ġwonder": 2901,
      "Ġprojects": 2902,
      "Ġembracing": 2903,
      "Ġvibr": 2904,
      "aut": 2905,
      "use": 2906,
      "encing": 2907,
      "Ġmis": 2908,
      "Ġput": 2909,
      "Ġexploration": 2910,
      "Ġstructure": 2911,
      "Ġassess": 2912,
      "âĢĿ": 2913,
      "Ġcour": 2914,
      "Ġconven": 2915,
      "udd": 2916,
      "Ġavoid": 2917,
      "ably": 2918,
      "Ġprep": 2919,
      "anti": 2920,
      "hib": 2921,
      "Ġvia": 2922,
      "Ġalternative": 2923,
      "Ġgather": 2924,
      "Ġbodies": 2925,
      "Ġx": 2926,
      "ĠConsider": 2927,
      "Ġarchit": 2928,
      "Ġmodels": 2929,
      "Ġplanning": 2930,
      "ĠNo": 2931,
      "ĠMed": 2932,
      "ĠMany": 2933,
      "Ġexpand": 2934,
      "Ġingredients": 2935,
      "ina": 2936,
      "itage": 2937,
      "Ġdevices": 2938,
      "reen": 2939,
      "Ġsimply": 2940,
      "Ġsustainable": 2941,
      "encies": 2942,
      "Ġfunctions": 2943,
      "Ġsmooth": 2944,
      "Ġcritic": 2945,
      "Ġearl": 2946,
      "ute": 2947,
      "Ġmedic": 2948,
      "Ġrad": 2949,
      "Ġsounds": 2950,
      "Ġthreat": 2951,
      "ror": 2952,
      "ĠMar": 2953,
      "Ġobjects": 2954,
      "Ġfresh": 2955,
      "itch": 2956,
      "ĠPe": 2957,
      "Ġaccount": 2958,
      "Ġfinding": 2959,
      "Another": 2960,
      "Ġtown": 2961,
      "Ġprimary": 2962,
      "Ġneighb": 2963,
      "Ġlarg": 2964,
      "Ġside": 2965,
      "Ġauthors": 2966,
      "Ġwar": 2967,
      "ilt": 2968,
      "Ġlandscape": 2969,
      "agn": 2970,
      "ert": 2971,
      "Ġspiritual": 2972,
      "ĠâĢľ": 2973,
      "On": 2974,
      "Ġtell": 2975,
      "Ġmovements": 2976,
      "ribution": 2977,
      "ĠChristian": 2978,
      "Ġrout": 2979,
      "__": 2980,
      "Ġproducts": 2981,
      "Ġprec": 2982,
      "ĠAcc": 2983,
      "Ġserves": 2984,
      "Ġschol": 2985,
      "apid": 2986,
      "Ġwanted": 2987,
      "Ġpiece": 2988,
      "ither": 2989,
      "Ġnu": 2990,
      "Ġeconomic": 2991,
      "Ġargu": 2992,
      "Ġhands": 2993,
      "ĠFr": 2994,
      "Ġterms": 2995,
      "Ġspread": 2996,
      "icious": 2997,
      "Ġparam": 2998,
      "Ġclimate": 2999,
      "Ġver": 3000,
      "Ġmovement": 3001,
      "Ġadjust": 3002,
      "Ġamidst": 3003,
      "First": 3004,
      "akers": 3005,
      "Ġcontr": 3006,
      "eds": 3007,
      "Ġcareful": 3008,
      "ords": 3009,
      "stic": 3010,
      "Ġrange": 3011,
      "ude": 3012,
      "Ġforward": 3013,
      "ĠEnc": 3014,
      "Ġred": 3015,
      "Ġsolid": 3016,
      "Ġcorre": 3017,
      "Ġboundaries": 3018,
      "Ġlab": 3019,
      "Ġgrad": 3020,
      "uid": 3021,
      "Ġwind": 3022,
      "Ġloved": 3023,
      "ĠDevelop": 3024,
      "Ġappear": 3025,
      "aly": 3026,
      "Ġbrain": 3027,
      "ellow": 3028,
      "esson": 3029,
      "Ġspaces": 3030,
      "ug": 3031,
      "Ġhigher": 3032,
      "etic": 3033,
      "sc": 3034,
      "ulting": 3035,
      "Ġalongside": 3036,
      "Ġinher": 3037,
      "Ġguide": 3038,
      "anging": 3039,
      "Ġenab": 3040,
      "illing": 3041,
      "Ġinterests": 3042,
      "Ġinnovation": 3043,
      "Through": 3044,
      "Ġproject": 3045,
      "Ġgovernment": 3046,
      "Ġfant": 3047,
      "Ġansw": 3048,
      "Ġvirt": 3049,
      "Ġsettings": 3050,
      "Ġcompeti": 3051,
      "Ġfit": 3052,
      "Ġscientists": 3053,
      "umb": 3054,
      "Ġtexts": 3055,
      "Ġappropriate": 3056,
      "Ġimage": 3057,
      "Ġfeeling": 3058,
      "Ġconnect": 3059,
      "Ġlooking": 3060,
      "Ġeyes": 3061,
      "Ġgreen": 3062,
      "Ġlines": 3063,
      "Ġethical": 3064,
      "ished": 3065,
      "Ġmanaging": 3066,
      "alities": 3067,
      "Ġexamples": 3068,
      "eless": 3069,
      "Ġdidn": 3070,
      "Ġinstr": 3071,
      "Ġopp": 3072,
      "Ġnumbers": 3073,
      "Ġpaper": 3074,
      "Ġindigenous": 3075,
      "term": 3076,
      "Ġprofessional": 3077,
      "Ġmic": 3078,
      "Ġconduc": 3079,
      "head": 3080,
      "Ġcooking": 3081,
      "rix": 3082,
      "Ġsecond": 3083,
      "Ġmoment": 3084,
      "Ġexch": 3085,
      "Ġclose": 3086,
      "cle": 3087,
      "Ġlif": 3088,
      "ox": 3089,
      "Ġagre": 3090,
      "Ġrepl": 3091,
      "entially": 3092,
      "Ġchoose": 3093,
      "irm": 3094,
      "Ġhidden": 3095,
      "Ġexpos": 3096,
      "Ġsumm": 3097,
      "Ġtook": 3098,
      "ĠZ": 3099,
      "ma": 3100,
      "IV": 3101,
      "Ġchoices": 3102,
      "Ġadvanced": 3103,
      "Ġembark": 3104,
      "Ġimages": 3105,
      "Ġcollective": 3106,
      "Ġtool": 3107,
      "Ac": 3108,
      "Ġwriting": 3109,
      "orders": 3110,
      "Ġabs": 3111,
      "apes": 3112,
      "assion": 3113,
      "Ġreducing": 3114,
      "Ġfem": 3115,
      "Ġoriginal": 3116,
      "Ġkids": 3117,
      "eted": 3118,
      "Ġdistinct": 3119,
      "Ġlow": 3120,
      "Ġanti": 3121,
      "Ġearlier": 3122,
      "$$": 3123,
      "Ġvast": 3124,
      "Ġindepend": 3125,
      "Ġcraf": 3126,
      "Ġinitial": 3127,
      "Ġwild": 3128,
      "equences": 3129,
      "istics": 3130,
      "ĠPar": 3131,
      "Ġmeaningful": 3132,
      "Ġprovided": 3133,
      "Ġhon": 3134,
      "ĠPrac": 3135,
      "edd": 3136,
      "Ġguidance": 3137,
      "Ġprepar": 3138,
      "Ġvisit": 3139,
      "Ġfaith": 3140,
      "expected": 3141,
      "Ġlaws": 3142,
      "Ġtreatment": 3143,
      "iet": 3144,
      "onal": 3145,
      "ĠKeep": 3146,
      "ĠHer": 3147,
      "ody": 3148,
      "telling": 3149,
      "zz": 3150,
      "ĠPer": 3151,
      "asts": 3152,
      "ĠHis": 3153,
      "ensions": 3154,
      "Ġalign": 3155,
      "Ġreduce": 3156,
      "Ġeffects": 3157,
      "ival": 3158,
      "uild": 3159,
      "ote": 3160,
      "Ġphilosoph": 3161,
      "Ġhowever": 3162,
      "Ġcook": 3163,
      "Ġunexpected": 3164,
      "Ġask": 3165,
      "Ġfarm": 3166,
      "Ġproduction": 3167,
      "Ġanx": 3168,
      "Ġcitiz": 3169,
      "ĠDuring": 3170,
      "Ġrealm": 3171,
      "Ġscientific": 3172,
      "Ġreally": 3173,
      "Ġsepar": 3174,
      "------------": 3175,
      "Ġusers": 3176,
      "ised": 3177,
      "Ġrapid": 3178,
      "Ġsurface": 3179,
      "Ġhappens": 3180,
      "where": 3181,
      "Ġmonit": 3182,
      "back": 3183,
      "Ġfundam": 3184,
      "Ġknows": 3185,
      "Ġabilities": 3186,
      "Ġwellbeing": 3187,
      "Ġlanguages": 3188,
      "ĠMr": 3189,
      "Ġheritage": 3190,
      "man": 3191,
      "atter": 3192,
      "ĠSarah": 3193,
      "Ġpolicy": 3194,
      "Ã©": 3195,
      "Ġsn": 3196,
      "order": 3197,
      "For": 3198,
      "Ġvibrant": 3199,
      "Ġreality": 3200,
      "Ġtransport": 3201,
      "Ġschools": 3202,
      "Ġtrends": 3203,
      "Ġcateg": 3204,
      "Ġmanage": 3205,
      "III": 3206,
      "iration": 3207,
      "Ġultimately": 3208,
      "Ġexciting": 3209,
      "Ġinterpret": 3210,
      "Ġinstall": 3211,
      "Ġsports": 3212,
      "Ġnetworks": 3213,
      "Ġsle": 3214,
      "onial": 3215,
      "Ġable": 3216,
      "ĠIdenti": 3217,
      "Ġexpression": 3218,
      "Ġviol": 3219,
      "Finally": 3220,
      "Ġfamous": 3221,
      "ĠCur": 3222,
      "ok": 3223,
      "Ġmov": 3224,
      "Ġmarket": 3225,
      "Ġterm": 3226,
      "Ġhol": 3227,
      "Ġalike": 3228,
      "othing": 3229,
      "Ġpeace": 3230,
      "Ġplant": 3231,
      "Welcome": 3232,
      "inist": 3233,
      "At": 3234,
      "Ġdrawing": 3235,
      "ton": 3236,
      "Ġoccur": 3237,
      "Ġcurious": 3238,
      "Ġenable": 3239,
      "opp": 3240,
      "Ġplaces": 3241,
      "When": 3242,
      "Ġmeasures": 3243,
      "Ġoil": 3244,
      "Ġtypically": 3245,
      "Ġpressure": 3246,
      "Ġkne": 3247,
      "ĠAmerica": 3248,
      "Ġlate": 3249,
      "Ġpossess": 3250,
      "Ġchem": 3251,
      "Ġtail": 3252,
      "Ġmeasure": 3253,
      "Ġadvancements": 3254,
      "Ġcivil": 3255,
      "Ġfigures": 3256,
      "Ġarchitect": 3257,
      "Ġenables": 3258,
      "Ġrealized": 3259,
      "Ġmill": 3260,
      "Ġintellig": 3261,
      "Ġcause": 3262,
      "ounts": 3263,
      "Ġpassion": 3264,
      "auty": 3265,
      "Ġinternational": 3266,
      "Ġencourages": 3267,
      "ictions": 3268,
      "ĠResearch": 3269,
      "Ġacad": 3270,
      "ingly": 3271,
      "Ġword": 3272,
      "Ġfeed": 3273,
      "Ġparents": 3274,
      "ĠAlice": 3275,
      "Ġslow": 3276,
      "Ġwasn": 3277,
      "Ġwondered": 3278,
      "Ġinteresting": 3279,
      "Ġep": 3280,
      "ĠAlex": 3281,
      "Ġdays": 3282,
      "uly": 3283,
      "ĠDis": 3284,
      "Ġju": 3285,
      "uff": 3286,
      "Ġbasic": 3287,
      "Ġmachine": 3288,
      "Ġsection": 3289,
      "Ġdetails": 3290,
      "Ġwee": 3291,
      "Ġuses": 3292,
      "Ġenabling": 3293,
      "Ġfru": 3294,
      "pose": 3295,
      "icated": 3296,
      "Ġconsequences": 3297,
      "Ġseen": 3298,
      "Ġactivity": 3299,
      "Ġmass": 3300,
      "Ġpreserving": 3301,
      "Ġdeeply": 3302,
      "bre": 3303,
      "Ġfour": 3304,
      "Ġenhancing": 3305,
      "ĠIndigenous": 3306,
      "Ġsecurity": 3307,
      "Ġscenar": 3308,
      "Ġsexual": 3309,
      "urt": 3310,
      "haps": 3311,
      "Ġitself": 3312,
      "eral": 3313,
      "ĠEncour": 3314,
      "Ġconversations": 3315,
      "ified": 3316,
      "ĠSch": 3317,
      "Ġdifficult": 3318,
      "oud": 3319,
      "Ġreflect": 3320,
      "ĠTogether": 3321,
      "avors": 3322,
      "Ġplayed": 3323,
      "Ġintroduc": 3324,
      "Ġcontain": 3325,
      "Ġcompos": 3326,
      "Ġexperienced": 3327,
      "Ġsqu": 3328,
      "Ġcaptivating": 3329,
      "Ġapply": 3330,
      "Ġmut": 3331,
      "tors": 3332,
      "ought": 3333,
      "icts": 3334,
      "Ġindustry": 3335,
      "Ġgard": 3336,
      "ĠPre": 3337,
      "ĠCommun": 3338,
      "ypes": 3339,
      "Ġmention": 3340,
      "Ġphen": 3341,
      "ĠUnited": 3342,
      "atively": 3343,
      "py": 3344,
      "oon": 3345,
      "Ġcrim": 3346,
      "ĠDr": 3347,
      "Ġunf": 3348,
      "Ġinj": 3349,
      "ingu": 3350,
      "ĠSometimes": 3351,
      "Ġempower": 3352,
      "Ġrein": 3353,
      "ification": 3354,
      "Ġartistic": 3355,
      "ĠBen": 3356,
      "Ġequip": 3357,
      "Ġcurrent": 3358,
      "Ġlibrary": 3359,
      "Ġemerging": 3360,
      "Ġconstit": 3361,
      "Ġ|": 3362,
      "Ġdim": 3363,
      "Ġplot": 3364,
      "Ġforces": 3365,
      "Ġwisdom": 3366,
      "Ġsize": 3367,
      "Ġcouldn": 3368,
      "Ġmathema": 3369,
      "Ġactive": 3370,
      "Ġbecoming": 3371,
      "ohn": 3372,
      "Ġdialogue": 3373,
      "Ġliterary": 3374,
      "andom": 3375,
      "Ġwritten": 3376,
      "Ġshowc": 3377,
      "Ġroom": 3378,
      "Ġpopulations": 3379,
      "Ġbeauty": 3380,
      "Ġaren": 3381,
      "entic": 3382,
      "Ġheat": 3383,
      "Ġdescrib": 3384,
      "Ġeye": 3385,
      "Ġknowing": 3386,
      "Ġfocused": 3387,
      "iance": 3388,
      "arning": 3389,
      "Ġtheory": 3390,
      "Ġinput": 3391,
      "Ġdat": 3392,
      "Ġrepresentation": 3393,
      "Ġadditional": 3394,
      "Ġcreatures": 3395,
      "Ġspecies": 3396,
      "Ġcompany": 3397,
      "Ġname": 3398,
      "Ġresulting": 3399,
      "light": 3400,
      "Ġexisting": 3401,
      "Ġrates": 3402,
      "Ġusually": 3403,
      "Ġchanging": 3404,
      "ystems": 3405,
      "ades": 3406,
      "Ġsaid": 3407,
      "Ġimproved": 3408,
      "ager": 3409,
      "Ġmagical": 3410,
      "Ġtiny": 3411,
      "Ġgetting": 3412,
      "Ġrecent": 3413,
      "Lesson": 3414,
      "Ġbelieve": 3415,
      "ĠPers": 3416,
      "Ġsurv": 3417,
      "Ġactually": 3418,
      "Ġimplications": 3419,
      "Ġdiscussing": 3420,
      "Ġpartners": 3421,
      "Ġoptimal": 3422,
      "Ġpatients": 3423,
      "Ġveget": 3424,
      "Ġfields": 3425,
      "med": 3426,
      "Ġnetwork": 3427,
      "Ġgained": 3428,
      "Ġfeature": 3429,
      "Ġadding": 3430,
      "Ġcapable": 3431,
      "Ġcells": 3432,
      "Ġhours": 3433,
      "ouch": 3434,
      "Ġguidelines": 3435,
      "Ġeasy": 3436,
      "Ġcloser": 3437,
      "ĠWho": 3438,
      "Ġbelong": 3439,
      "Ġcogn": 3440,
      "Ġcu": 3441,
      "Ġrecip": 3442,
      "ths": 3443,
      "Ġtruly": 3444,
      "Ġthr": 3445,
      "Ġlies": 3446,
      "Ġinteractions": 3447,
      "Ġmax": 3448,
      "vent": 3449,
      "Ġcitizens": 3450,
      "ĠDisc": 3451,
      "Ġkeeping": 3452,
      "Ġfundamental": 3453,
      "fact": 3454,
      "Ġestablished": 3455,
      "ĠTrans": 3456,
      "Ġbehaviors": 3457,
      "Ġclosely": 3458,
      "Ġanalyze": 3459,
      "Ġhouse": 3460,
      "urd": 3461,
      "ming": 3462,
      "Ġphenomen": 3463,
      "Ġexpectations": 3464,
      "Ġshows": 3465,
      "owers": 3466,
      "Ġmil": 3467,
      "Ġinters": 3468,
      "ulture": 3469,
      "Ġadvers": 3470,
      "Ġren": 3471,
      "Ġrequired": 3472,
      "ĠAlthough": 3473,
      "ormal": 3474,
      "Ġeducational": 3475,
      "Ġconstruc": 3476,
      "Ġfish": 3477,
      "Ġpracticing": 3478,
      "Ġdepending": 3479,
      "Ġwebs": 3480,
      "tivate": 3481,
      "Ġcam": 3482,
      "Ġthri": 3483,
      "ternal": 3484,
      "Ġsoftware": 3485,
      "Ġinitiatives": 3486,
      "Ġwhole": 3487,
      "Ġport": 3488,
      "Ġcounter": 3489,
      "Ġpursu": 3490,
      "Ġoperations": 3491,
      "Ġsearch": 3492,
      "Ġpu": 3493,
      "Ġobj": 3494,
      "set": 3495,
      "Ġcop": 3496,
      "Ġpreferences": 3497,
      "Ġcompassion": 3498,
      "Ġstorytelling": 3499,
      "Ġsoon": 3500,
      "Ġfindings": 3501,
      "ĠMaybe": 3502,
      "ales": 3503,
      "Ġstronger": 3504,
      "Ġnavigating": 3505,
      "oke": 3506,
      "ffer": 3507,
      "Ġlarger": 3508,
      "ultane": 3509,
      "gar": 3510,
      "Ġurban": 3511,
      "Ġintrig": 3512,
      "iety": 3513,
      "Example": 3514,
      "Ġseries": 3515,
      "rich": 3516,
      "Ġtoward": 3517,
      "Ġinspired": 3518,
      "Ġemerged": 3519,
      "Ġlik": 3520,
      "Ġsyn": 3521,
      "xim": 3522,
      "ĠDespite": 3523,
      "ĠLit": 3524,
      "Ġtechnique": 3525,
      "ees": 3526,
      "Ġpush": 3527,
      "Ġinspire": 3528,
      "Ġjud": 3529,
      "Ġarri": 3530,
      "Ġtechnological": 3531,
      "Here": 3532,
      "while": 3533,
      "ributions": 3534,
      "Ġdedicated": 3535,
      "Ġcompanies": 3536,
      "Ġready": 3537,
      "Ġago": 3538,
      "Ġprofound": 3539,
      "ĠDon": 3540,
      "Ġresource": 3541,
      "eties": 3542,
      "ounds": 3543,
      "equently": 3544,
      "Ġvideo": 3545,
      "Ġuser": 3546,
      "Ġsecure": 3547,
      "Ġmoments": 3548,
      "Ġfigure": 3549,
      "Ġcausing": 3550,
      "fulness": 3551,
      "Ġshapes": 3552,
      "Ġlimit": 3553,
      "Ġenth": 3554,
      "Ġconst": 3555,
      "Ġrecognize": 3556,
      "Ġpractical": 3557,
      "Ġautom": 3558,
      "ĠMe": 3559,
      "Ġhelped": 3560,
      "Throughout": 3561,
      "usi": 3562,
      "Ġnational": 3563,
      "active": 3564,
      "ĠDef": 3565,
      "Ġmentioned": 3566,
      "ĠSec": 3567,
      "unch": 3568,
      "mon": 3569,
      "ĠAb": 3570,
      "ĠEven": 3571,
      "Ġdistribution": 3572,
      "ĠUsing": 3573,
      "Ġevol": 3574,
      "rought": 3575,
      "ĠConsequently": 3576,
      "Ġtherapy": 3577,
      "Ġresponse": 3578,
      "Ġprevious": 3579,
      "ows": 3580,
      "Ġstore": 3581,
      "ĠExamples": 3582,
      "Ġpack": 3583,
      "Ġscholars": 3584,
      "Ġleaving": 3585,
      "Ġsymbol": 3586,
      "Ġshar": 3587,
      "ĠAp": 3588,
      "Ġnorms": 3589,
      "ior": 3590,
      "ĠRep": 3591,
      "Ġcontinues": 3592,
      "Ġmarg": 3593,
      "Ġprimarily": 3594,
      "Ġdest": 3595,
      "iving": 3596,
      "Ġanyone": 3597,
      "plot": 3598,
      "ticed": 3599,
      "Ġfamiliar": 3600,
      "riers": 3601,
      "ucture": 3602,
      "Ġstyles": 3603,
      "not": 3604,
      "Ġnotable": 3605,
      "lo": 3606,
      "Ġanalyzing": 3607,
      "Ġexhib": 3608,
      "Ġadvant": 3609,
      "Ġrac": 3610,
      "Ġplanet": 3611,
      "Ġinstitutions": 3612,
      "asp": 3613,
      "ections": 3614,
      "ulating": 3615,
      "Ġdemand": 3616,
      "Ġproduct": 3617,
      "Key": 3618,
      "Ġstre": 3619,
      "ĠExploring": 3620,
      "mental": 3621,
      "Ġrespond": 3622,
      "Ġsocieties": 3623,
      "Ġeither": 3624,
      "Ġenthusi": 3625,
      "ills": 3626,
      "Ġsympt": 3627,
      "Ġhappened": 3628,
      "Ġsupporting": 3629,
      "Ġidentities": 3630,
      "ĠGen": 3631,
      "force": 3632,
      "Ġtales": 3633,
      "Ġgoal": 3634,
      "que": 3635,
      "Ġappl": 3636,
      "Ġang": 3637,
      "ĠNe": 3638,
      "Ġsil": 3639,
      "Ġtap": 3640,
      "ĠStates": 3641,
      "ĠBob": 3642,
      "Ġlower": 3643,
      "Ġvirtual": 3644,
      "ray": 3645,
      "Ġsaw": 3646,
      "Ġimproving": 3647,
      "Ġequal": 3648,
      "uel": 3649,
      "ĠJohn": 3650,
      "Ġposition": 3651,
      "inated": 3652,
      "Ġhear": 3653,
      "Ġreson": 3654,
      "Ġorder": 3655,
      "Ġcamp": 3656,
      "Ġproduce": 3657,
      "Ġskin": 3658,
      "Ġmaj": 3659,
      "Ġstates": 3660,
      "Ġyear": 3661,
      "ĠMy": 3662,
      "Ġacknow": 3663,
      "Ġconnected": 3664,
      "ads": 3665,
      "Ġweight": 3666,
      "...": 3667,
      "ilitary": 3668,
      "ĠFirst": 3669,
      "ĠHealth": 3670,
      "uilding": 3671,
      "lev": 3672,
      "Ġcolle": 3673,
      "Ġaffect": 3674,
      "Ġwin": 3675,
      "ĠAfrican": 3676,
      "alle": 3677,
      "ĠNor": 3678,
      "Ġdesigns": 3679,
      "ultaneously": 3680,
      "poin": 3681,
      "atisf": 3682,
      "Ġmast": 3683,
      "Ġstarting": 3684,
      "Ġseason": 3685,
      "Ġmessages": 3686,
      "aught": 3687,
      "Ġresid": 3688,
      "ille": 3689,
      "ĠIts": 3690,
      "Ġapplication": 3691,
      "Ġconflicts": 3692,
      "lam": 3693,
      "Ġexperiment": 3694,
      "inate": 3695,
      "Ġtable": 3696,
      "ĠMus": 3697,
      "eign": 3698,
      "Ġsmaller": 3699,
      "orough": 3700,
      "ocks": 3701,
      "ĠX": 3702,
      "Ġcreation": 3703,
      "tition": 3704,
      "uing": 3705,
      "ung": 3706,
      "Ġdiagn": 3707,
      "ĠBr": 3708,
      "Ġprob": 3709,
      "Ġmemory": 3710,
      "Ġmaxim": 3711,
      "Ġaudiences": 3712,
      "Ġproperties": 3713,
      "Ġattr": 3714,
      "ented": 3715,
      "Ġunderlying": 3716,
      "Ġconve": 3717,
      "Ġauthentic": 3718,
      "osp": 3719,
      "Ġadults": 3720,
      "ĠEurope": 3721,
      "Ġcosts": 3722,
      "ifying": 3723,
      "Ġfellow": 3724,
      "Ġprotection": 3725,
      "Ġintelligence": 3726,
      "ĠEuropean": 3727,
      "Ġacqu": 3728,
      "acles": 3729,
      "Ġroot": 3730,
      "ĠSci": 3731,
      "ĠJew": 3732,
      "ĠNot": 3733,
      "Ġblood": 3734,
      "ĠSet": 3735,
      "Ġcenturies": 3736,
      "une": 3737,
      "Ġmotiv": 3738,
      "Ġlayers": 3739,
      "Ġupd": 3740,
      "venile": 3741,
      "Ġinherent": 3742,
      "Ġcountless": 3743,
      "eat": 3744,
      "Ġresponsibility": 3745,
      "Ġreview": 3746,
      "ector": 3747,
      "Ġpatient": 3748,
      "Ġclaim": 3749,
      "Ġmyster": 3750,
      "Ġvary": 3751,
      "Ġseemingly": 3752,
      "Ġpatience": 3753,
      "tis": 3754,
      "Ġcomplexity": 3755,
      "Ġnoticed": 3756,
      "aken": 3757,
      "urance": 3758,
      "Ġsleep": 3759,
      "bal": 3760,
      "Ġ#": 3761,
      "Ġmatters": 3762,
      "Ġrecognizing": 3763,
      "ai": 3764,
      "Ġnight": 3765,
      "Ġsuggest": 3766,
      "Ġmanip": 3767,
      "Ġlandscapes": 3768,
      "ev": 3769,
      "Ġinsight": 3770,
      "antly": 3771,
      "Ġimmers": 3772,
      "BT": 3773,
      "odes": 3774,
      "Ġknew": 3775,
      "Ġexcess": 3776,
      "Ġrespec": 3777,
      "Ġremark": 3778,
      "Ġanimal": 3779,
      "Ġteaching": 3780,
      "Ġinstru": 3781,
      "Ġsmart": 3782,
      "Ġfoundation": 3783,
      "Ġdelicious": 3784,
      "Ġfacing": 3785,
      "Ġcheck": 3786,
      "Ġrobust": 3787,
      "Ġsituation": 3788,
      "nected": 3789,
      "rel": 3790,
      "Ġdiscrim": 3791,
      "esty": 3792,
      "Ġbrought": 3793,
      "Ġtax": 3794,
      "Ġpolitics": 3795,
      "ĠRel": 3796,
      "osph": 3797,
      "Ġtrack": 3798,
      "cles": 3799,
      "ĠCanad": 3800,
      "apan": 3801,
      "Ġstudent": 3802,
      "However": 3803,
      "Ġreveal": 3804,
      "ĠAI": 3805,
      "anks": 3806,
      "Ġsus": 3807,
      "roduce": 3808,
      "Ġprocessing": 3809,
      "Ġquite": 3810,
      "asons": 3811,
      "Ġasking": 3812,
      "Ġfreed": 3813,
      "Ġissue": 3814,
      "Ġaccept": 3815,
      "Ġcircum": 3816,
      "Activity": 3817,
      "',": 3818,
      "ĠKey": 3819,
      "Once": 3820,
      "Ġwhenever": 3821,
      "Ġpicture": 3822,
      "cent": 3823,
      "Ġhom": 3824,
      "Ġflex": 3825,
      "Ġdispar": 3826,
      "Ġseek": 3827,
      "Ġwood": 3828,
      "Ġperspective": 3829,
      "Ġthereby": 3830,
      "ulner": 3831,
      "Ġmer": 3832,
      "lling": 3833,
      "Ġregional": 3834,
      "Ġpossibilities": 3835,
      "acies": 3836,
      "ĠUse": 3837,
      "Des": 3838,
      "Ġbenefit": 3839,
      "Ġresistance": 3840,
      "Ġconsid": 3841,
      "Ġproced": 3842,
      "Ġlens": 3843,
      "Ġgently": 3844,
      "Ġpersist": 3845,
      "Ġrh": 3846,
      "itig": 3847,
      "Ġinspiration": 3848,
      "eters": 3849,
      "acking": 3850,
      "Ġperce": 3851,
      "Ġexplored": 3852,
      "Ġeasily": 3853,
      "ordinary": 3854,
      "Ġimpacts": 3855,
      "astly": 3856,
      "Ġmarginal": 3857,
      "ĠAccording": 3858,
      "iversity": 3859,
      "Ġarray": 3860,
      "hic": 3861,
      "oor": 3862,
      "ceed": 3863,
      "aming": 3864,
      "There": 3865,
      "Ġprior": 3866,
      "ellect": 3867,
      "))": 3868,
      "enly": 3869,
      "Ġrig": 3870,
      "Ġgets": 3871,
      "ĠThen": 3872,
      "cing": 3873,
      "Ġbuilt": 3874,
      "ĠFam": 3875,
      "Ġpan": 3876,
      "ĠAmong": 3877,
      "Ġservice": 3878,
      "Ġwhose": 3879,
      "Ġthous": 3880,
      "Ġcases": 3881,
      "Ġtrade": 3882,
      "Ġturned": 3883,
      "ĠPeople": 3884,
      "Ġdisease": 3885,
      "lessly": 3886,
      "Ġdamage": 3887,
      "Ġremarkable": 3888,
      "Ġfall": 3889,
      "Ġunders": 3890,
      "Ġengineering": 3891,
      "Ġcomputers": 3892,
      "Ġdesired": 3893,
      "ĠDesign": 3894,
      "Ġtailored": 3895,
      "Ġnegative": 3896,
      "Ġcapac": 3897,
      "Ġcommunicate": 3898,
      "Ġhor": 3899,
      "Ġencourage": 3900,
      "Ġroots": 3901,
      "Ġcat": 3902,
      "eanwhile": 3903,
      "Ġpainting": 3904,
      "Ġanxiety": 3905,
      "Ġsoil": 3906,
      "()`": 3907,
      "Ġextraordinary": 3908,
      "Ġequipment": 3909,
      "ĠBoth": 3910,
      "Ġroc": 3911,
      "Ġdishes": 3912,
      "Ġsequ": 3913,
      "Ġopportunity": 3914,
      "Ġtemperature": 3915,
      "Ġsets": 3916,
      "Ġindic": 3917,
      "Ġfinal": 3918,
      "Ġhot": 3919,
      "Ġthorough": 3920,
      "Ġcapture": 3921,
      "Ġswe": 3922,
      "Ġ[": 3923,
      "ĠSuch": 3924,
      "Ġmatrix": 3925,
      "Ġfoot": 3926,
      "Ġprote": 3927,
      "world": 3928,
      "Ġlabor": 3929,
      "Ġreduced": 3930,
      "ĠJapan": 3931,
      "Ġpotentially": 3932,
      "Ġfeat": 3933,
      "ĠCho": 3934,
      "Ġminutes": 3935,
      "Ġstage": 3936,
      "Ġsatisf": 3937,
      "rol": 3938,
      "Ġwrite": 3939,
      "ancy": 3940,
      "Ġcreates": 3941,
      "Ġfacilitate": 3942,
      "Ġreligion": 3943,
      "reg": 3944,
      "Ġahead": 3945,
      "Ġmechanisms": 3946,
      "uman": 3947,
      "Ġdefine": 3948,
      "gue": 3949,
      "Ġdocument": 3950,
      "ĠOp": 3951,
      "Why": 3952,
      "Ġdiscipl": 3953,
      "Ġpositi": 3954,
      "Ġdynamic": 3955,
      "Ġmutual": 3956,
      "Ġlimited": 3957,
      "Ġvulner": 3958,
      "ightly": 3959,
      "Ġwaiting": 3960,
      "Ġfail": 3961,
      "?**": 3962,
      "Ġexercise": 3963,
      "ene": 3964,
      "Ġobst": 3965,
      "ĠReal": 3966,
      "aks": 3967,
      "agon": 3968,
      "ectives": 3969,
      "Ġcognitive": 3970,
      "Ġreason": 3971,
      "way": 3972,
      "Ġetc": 3973,
      "ott": 3974,
      "Ġnearby": 3975,
      "inations": 3976,
      "Ġperhaps": 3977,
      "Ġlistening": 3978,
      "Ġsent": 3979,
      "ĠConclusion": 3980,
      "Ġfrequently": 3981,
      "Ġgiving": 3982,
      "Ġevolution": 3983,
      "Ġlast": 3984,
      "ĠArt": 3985,
      "Ġecos": 3986,
      "Ġfear": 3987,
      "Ġcutting": 3988,
      "iation": 3989,
      "alf": 3990,
      "ĠEnglish": 3991,
      "Ġrequiring": 3992,
      "Ġcomplete": 3993,
      "Ġhealing": 3994,
      "oles": 3995,
      "Ġartic": 3996,
      "Ġanything": 3997,
      "Ġexec": 3998,
      "Ġexternal": 3999,
      "Ġsustainability": 4000,
      "Ġconsidering": 4001,
      "Ġrelated": 4002,
      "Ġeffort": 4003,
      "Ġaccurate": 4004,
      "Ġexamination": 4005,
      "osen": 4006,
      "Ġcommitment": 4007,
      "ompass": 4008,
      "Ġsymptoms": 4009,
      "ipped": 4010,
      "Ġacademic": 4011,
      "Ġdisplay": 4012,
      "Ġsimultaneously": 4013,
      "Ġsac": 4014,
      "Ġcontributing": 4015,
      "Ġcarry": 4016,
      "Ġpros": 4017,
      "icians": 4018,
      "Ġalgorithms": 4019,
      "Ġtalking": 4020,
      "ufact": 4021,
      "ĠUltimately": 4022,
      "rial": 4023,
      "Ġconflict": 4024,
      "rench": 4025,
      "Ġparties": 4026,
      "Ġencompass": 4027,
      "uctions": 4028,
      "Ġrelax": 4029,
      "Ġdifference": 4030,
      "ĠSm": 4031,
      "Ġregions": 4032,
      "orous": 4033,
      "Ġinclusive": 4034,
      "VI": 4035,
      "Ġcomplexities": 4036,
      "ready": 4037,
      "Ġrequirements": 4038,
      "ticip": 4039,
      "Ġcorrect": 4040,
      "Ġincorporate": 4041,
      "Ġsong": 4042,
      "Ġgrap": 4043,
      "Ġextract": 4044,
      "rief": 4045,
      "ĠPr": 4046,
      "Ġmiss": 4047,
      "Ġcircumst": 4048,
      "Ġdebates": 4049,
      "Ġice": 4050,
      "Ġlocation": 4051,
      "Ġbrow": 4052,
      "Ġexposure": 4053,
      "Ġexpressions": 4054,
      "Ġefficiency": 4055,
      "Ġbarriers": 4056,
      "Ġnovels": 4057,
      "lation": 4058,
      "Ġmilitary": 4059,
      "aid": 4060,
      "iable": 4061,
      "fy": 4062,
      "aff": 4063,
      ".'": 4064,
      "Ġlooked": 4065,
      "room": 4066,
      "Ġdetail": 4067,
      "Ġrecomm": 4068,
      "Ġeasier": 4069,
      "igr": 4070,
      "Ġsou": 4071,
      "Ġimmedi": 4072,
      "iding": 4073,
      "Ġconsistent": 4074,
      "Ġalready": 4075,
      "Ġrace": 4076,
      "igration": 4077,
      "ume": 4078,
      "ĠDec": 4079,
      "ishing": 4080,
      "Ġic": 4081,
      "ffici": 4082,
      "holders": 4083,
      "Ġcer": 4084,
      "connected": 4085,
      "ulated": 4086,
      "Ġobject": 4087,
      "Ġaffecting": 4088,
      "Ġden": 4089,
      "Ġder": 4090,
      "Ġgot": 4091,
      "amming": 4092,
      "Ġorganization": 4093,
      "Ġcondition": 4094,
      "Ġexplained": 4095,
      "Ġvoice": 4096,
      "orial": 4097,
      "Ġminimize": 4098,
      "wise": 4099,
      "ĠStep": 4100,
      "Ġmedicine": 4101,
      "Ġincludes": 4102,
      "Ġfeaturing": 4103,
      "Ġwaste": 4104,
      "ĠAre": 4105,
      "Ġdre": 4106,
      "Ġlearners": 4107,
      "Ġdark": 4108,
      "Ġcontexts": 4109,
      "Ġcand": 4110,
      "Ġfully": 4111,
      "hab": 4112,
      "Ġcard": 4113,
      "ĠHistorical": 4114,
      "ĠTw": 4115,
      "estern": 4116,
      "Ġgir": 4117,
      "iers": 4118,
      "Ġundersc": 4119,
      "acting": 4120,
      "Ġthousands": 4121,
      "Ġhabit": 4122,
      "Ġmajor": 4123,
      "Ġcred": 4124,
      "Ġclin": 4125,
      "rip": 4126,
      "Ġcharacteristics": 4127,
      "Ġtour": 4128,
      "Ġleads": 4129,
      "mit": 4130,
      "Ġmeals": 4131,
      "Ġwhite": 4132,
      "Ġpassed": 4133,
      "Ġlisten": 4134,
      "Ġwait": 4135,
      "Ġwriters": 4136,
      "Ġmagic": 4137,
      "We": 4138,
      "ift": 4139,
      "Ġeveryday": 4140,
      "Ġconnecting": 4141,
      "Ġmoving": 4142,
      "Ġregulations": 4143,
      "Ġfab": 4144,
      "Ġstake": 4145,
      "Ġcontact": 4146,
      "Ġconver": 4147,
      "Ġimplementing": 4148,
      "Ġcontent": 4149,
      "Ġmicro": 4150,
      "Ġcircumstances": 4151,
      "Ġvehic": 4152,
      "Ġworth": 4153,
      "Ġfocusing": 4154,
      "iles": 4155,
      "ĠTime": 4156,
      "Ġsymbols": 4157,
      "Ġwit": 4158,
      "Ġglass": 4159,
      "`,": 4160,
      "Ġtradition": 4161,
      "ĠFinally": 4162,
      "lim": 4163,
      "Ġstruggles": 4164,
      "Ġminds": 4165,
      "Ġexercises": 4166,
      "Ġplayers": 4167,
      "Ġintellect": 4168,
      "Ġforce": 4169,
      "Ġchemical": 4170,
      "ivity": 4171,
      "resp": 4172,
      "essions": 4173,
      "ear": 4174,
      "Ġhumanity": 4175,
      "Ġhappen": 4176,
      "Ġsigns": 4177,
      "Ġscr": 4178,
      "Ġche": 4179,
      "Ġjoy": 4180,
      "Ġvoices": 4181,
      "Ġdevice": 4182,
      "Ġreceive": 4183,
      "ird": 4184,
      "ĠMon": 4185,
      "Ġstandards": 4186,
      "Ġarts": 4187,
      "Ġgoes": 4188,
      "ibly": 4189,
      "Ġtransc": 4190,
      "ĠAss": 4191,
      "rast": 4192,
      "Ġencouraging": 4193,
      "Ġenrich": 4194,
      "Ġexchange": 4195,
      "Ġinterconnected": 4196,
      "Ġbat": 4197,
      "Ġincrease": 4198,
      "Ġwon": 4199,
      "ĠFl": 4200,
      "water": 4201,
      "Ġdeliver": 4202,
      "Ġartist": 4203,
      "Ġelectric": 4204,
      "arity": 4205,
      "ĠGerm": 4206,
      "Ġobstacles": 4207,
      "Ġball": 4208,
      "Ġthing": 4209,
      "Ġtaken": 4210,
      "Ġhistor": 4211,
      "Ġadventures": 4212,
      "ĠRef": 4213,
      "Ġamb": 4214,
      "tor": 4215,
      "Ġweather": 4216,
      "ĠPres": 4217,
      "Ġintegrating": 4218,
      "Ġfeedback": 4219,
      "Ġdevelopments": 4220,
      "Ġcontributions": 4221,
      "Ġhappy": 4222,
      "Ġdelves": 4223,
      "titioners": 4224,
      "ky": 4225,
      "tegr": 4226,
      "While": 4227,
      "Ġbase": 4228,
      "Ġstyle": 4229,
      "Ġexcit": 4230,
      "Next": 4231,
      "Ġunity": 4232,
      "eel": 4233,
      "iant": 4234,
      "====": 4235,
      "Ġdiscussion": 4236,
      "arian": 4237,
      "Ġcities": 4238,
      "Ġflavors": 4239,
      "Ġmemories": 4240,
      "Ġbox": 4241,
      "Ġtraum": 4242,
      "Ġagric": 4243,
      "apping": 4244,
      "Ġtouch": 4245,
      "Ġcareer": 4246,
      "empl": 4247,
      "Ġplans": 4248,
      "Ġeventually": 4249,
      "Ġsecre": 4250,
      "tish": 4251,
      "ball": 4252,
      "Ġpictures": 4253,
      "Ġchosen": 4254,
      "Ġtransportation": 4255,
      "Ġsource": 4256,
      "Ġlayer": 4257,
      "ĠEast": 4258,
      "Ġath": 4259,
      "Ġentertain": 4260,
      "Ġpressing": 4261,
      "pris": 4262,
      "rics": 4263,
      "ried": 4264,
      "Ġprogram": 4265,
      "Ġann": 4266,
      "Ġcoord": 4267,
      "ibl": 4268,
      "nesses": 4269,
      "Ġeating": 4270,
      "Ġgrand": 4271,
      "Ġprop": 4272,
      "Ġbonds": 4273,
      "alysis": 4274,
      "Ġapproxim": 4275,
      "Ġinfluences": 4276,
      "Ġsolve": 4277,
      "Ġcapital": 4278,
      "Ġfoods": 4279,
      "Ġfer": 4280,
      "volution": 4281,
      "goti": 4282,
      "Ġsup": 4283,
      "ĠLife": 4284,
      "Ġtree": 4285,
      "nal": 4286,
      "Ġpoll": 4287,
      "Ġgenerate": 4288,
      "Ġthreats": 4289,
      "ĠModern": 4290,
      "Ġmessage": 4291,
      "Ġdetermination": 4292,
      "Ġmob": 4293,
      "amb": 4294,
      "esthe": 4295,
      "airs": 4296,
      "ĠII": 4297,
      "Ġgrab": 4298,
      "Ġ/": 4299,
      "Ġcombining": 4300,
      "Ġworked": 4301,
      "Ġinteract": 4302,
      "Ġcomfortable": 4303,
      "ĠConn": 4304,
      "Ġrunning": 4305,
      "Ġexcitement": 4306,
      "Ġcritically": 4307,
      "Ġfreedom": 4308,
      "Ġcultivate": 4309,
      "Ġdang": 4310,
      "ructure": 4311,
      "Ġtaste": 4312,
      "Ġefficient": 4313,
      "Ġarrang": 4314,
      "Ġfeels": 4315,
      "Ġdance": 4316,
      "ula": 4317,
      "Ġvalid": 4318,
      "Ġdiagnos": 4319,
      "mosph": 4320,
      "ama": 4321,
      "ler": 4322,
      "ĠTe": 4323,
      "ĠImp": 4324,
      "eline": 4325,
      "Ġcris": 4326,
      "Ġproperty": 4327,
      "Ġterrit": 4328,
      "tise": 4329,
      "inent": 4330,
      "arness": 4331,
      "ĠUp": 4332,
      "And": 4333,
      "Despite": 4334,
      "Ġwent": 4335,
      "ffic": 4336,
      "Ġapplying": 4337,
      "Ġdemonstrate": 4338,
      "Ġpurpose": 4339,
      "Ġteachers": 4340,
      "Ġten": 4341,
      "Ġmanufact": 4342,
      "Ġdiving": 4343,
      "Ġstrategy": 4344,
      "co": 4345,
      "Ġcry": 4346,
      "Ġbur": 4347,
      "esis": 4348,
      "Ġattem": 4349,
      "Ġwrong": 4350,
      "ĠGe": 4351,
      "ĠPlus": 4352,
      "Ġbuy": 4353,
      "Ġscenarios": 4354,
      "Ġmist": 4355,
      "Ġtrees": 4356,
      "asy": 4357,
      "Ġsave": 4358,
      "mission": 4359,
      "ĠQu": 4360,
      "known": 4361,
      "udes": 4362,
      "ister": 4363,
      "Ġhous": 4364,
      "ĠCare": 4365,
      "Ġdatas": 4366,
      "Ġdeveloped": 4367,
      "Ġconversation": 4368,
      "Ġir": 4369,
      "Ġhighlighting": 4370,
      "Ġheight": 4371,
      "Ġuncover": 4372,
      "Ġmaster": 4373,
      "col": 4374,
      "Ġfing": 4375,
      "clus": 4376,
      "Ġcapacity": 4377,
      "ament": 4378,
      "Ġopin": 4379,
      "lection": 4380,
      "erve": 4381,
      "Ġefficiently": 4382,
      "Ġhomes": 4383,
      "Ġnecessit": 4384,
      "import": 4385,
      "pting": 4386,
      "Ġabove": 4387,
      "ocal": 4388,
      "ressing": 4389,
      "Ġblack": 4390,
      "Ġneighbor": 4391,
      "ĠEmp": 4392,
      "Ġtransformation": 4393,
      "Ġdiscrimination": 4394,
      "Ġtend": 4395,
      "ĠCal": 4396,
      "Ġcontributes": 4397,
      "Ġrandom": 4398,
      "Ġweak": 4399,
      "board": 4400,
      "Ġstandard": 4401,
      "Ġfast": 4402,
      "erge": 4403,
      "ĠEmbr": 4404,
      "rastructure": 4405,
      "Ġcustoms": 4406,
      "ĠData": 4407,
      "Remember": 4408,
      "Ġfocuses": 4409,
      "add": 4410,
      "Ġwid": 4411,
      "Ġevolving": 4412,
      "ĠGo": 4413,
      "Ġcraft": 4414,
      "Ġharmful": 4415,
      "Ġstability": 4416,
      "Ġadded": 4417,
      "ull": 4418,
      "Ġlesson": 4419,
      "Ġintroduce": 4420,
      "Ġresponses": 4421,
      "Ġpuzz": 4422,
      "Ġemotion": 4423,
      "ĠCent": 4424,
      "Ġera": 4425,
      "Ġrely": 4426,
      "Ġrecognition": 4427,
      "ĠChar": 4428,
      "ountain": 4429,
      "Ġleadership": 4430,
      "Ġconvey": 4431,
      "Ġassign": 4432,
      "ae": 4433,
      "bon": 4434,
      "oration": 4435,
      "Ġguess": 4436,
      "Ġdesigning": 4437,
      "Ġpick": 4438,
      "AA": 4439,
      "ript": 4440,
      "Ġpractitioners": 4441,
      "Ġconfidence": 4442,
      "rug": 4443,
      "ĠTimmy": 4444,
      "uge": 4445,
      "Ġmys": 4446,
      "Ġdefin": 4447,
      "Ġperiods": 4448,
      "ĠMake": 4449,
      "Ġintervention": 4450,
      "Ġhost": 4451,
      "Ġprepared": 4452,
      "Ġwalking": 4453,
      "mat": 4454,
      "Ġhighlight": 4455,
      "aches": 4456,
      "ĠIslam": 4457,
      "atin": 4458,
      "Ġbrid": 4459,
      "fication": 4460,
      "Ġintriguing": 4461,
      "ĠMiddle": 4462,
      "Ġstruggle": 4463,
      "Ġnations": 4464,
      "Ġfosters": 4465,
      "Ġstakeholders": 4466,
      "Ġlonger": 4467,
      "unning": 4468,
      "pe": 4469,
      "Ġdog": 4470,
      "ued": 4471,
      "Ġharmony": 4472,
      "Ġqualities": 4473,
      "ged": 4474,
      "ĠSocial": 4475,
      "Ġcentral": 4476,
      "Ġinternal": 4477,
      "ĠNum": 4478,
      "Ġacknowled": 4479,
      "Ġexpertise": 4480,
      "Ġinspiring": 4481,
      "Ġbackgrounds": 4482,
      "Ġcollection": 4483,
      "ĠCo": 4484,
      "Ġcaused": 4485,
      "Ġdiss": 4486,
      "Ġviolence": 4487,
      "ĠInt": 4488,
      "Ġaffected": 4489,
      "`.": 4490,
      "Ġfix": 4491,
      "Ġsudd": 4492,
      "Ġhabits": 4493,
      "Ġfive": 4494,
      "ĠTrad": 4495,
      "Ġparticipants": 4496,
      "ĠSpec": 4497,
      "Ġspecialized": 4498,
      "Ġatmosph": 4499,
      "coming": 4500,
      "Ġneu": 4501,
      "anch": 4502,
      "ork": 4503,
      "Ġgrasp": 4504,
      "Ġlost": 4505,
      "ĠAdv": 4506,
      "Ġflavor": 4507,
      "Ġrelevance": 4508,
      "ĠEduc": 4509,
      "ĠGreat": 4510,
      "Ġstic": 4511,
      "Ġlength": 4512,
      "Ġseemed": 4513,
      "Ġinstances": 4514,
      "Ġmeeting": 4515,
      "Ġdifferently": 4516,
      "Ġmonitoring": 4517,
      "Ġstor": 4518,
      "Ġpropos": 4519,
      "Ġsched": 4520,
      "Ġsolving": 4521,
      "Ġmachines": 4522,
      "Ġlaugh": 4523,
      "urb": 4524,
      "Ġcream": 4525,
      "Understanding": 4526,
      "Ġfire": 4527,
      "urch": 4528,
      "Ġvision": 4529,
      "Ġdisorders": 4530,
      "Ġmel": 4531,
      "tal": 4532,
      "ĠExp": 4533,
      "Ġleave": 4534,
      "vention": 4535,
      "Ġconservation": 4536,
      "Ġintellectual": 4537,
      "Ġdiscovery": 4538,
      "def": 4539,
      "Ġtherap": 4540,
      "Ġregardless": 4541,
      "],": 4542,
      "Ġmitig": 4543,
      "rors": 4544,
      "Ġcustomers": 4545,
      "bles": 4546,
      "Ġi": 4547,
      "Ġprotecting": 4548,
      "Ġgraphic": 4549,
      "Ġgovernments": 4550,
      "Ġsole": 4551,
      "Ġcoop": 4552,
      "Ġpreserve": 4553,
      "OU": 4554,
      "Ġalone": 4555,
      "Ġbrings": 4556,
      "Ġcharacterized": 4557,
      "Ġsolution": 4558,
      "ĠCurrent": 4559,
      "Re": 4560,
      "eli": 4561,
      "ustling": 4562,
      "prise": 4563,
      "Ġdemoc": 4564,
      "Ġfile": 4565,
      "used": 4566,
      "Ġemployed": 4567,
      "Ġconsidered": 4568,
      "ĠJewish": 4569,
      "Ġrestr": 4570,
      "rist": 4571,
      "ĠEvery": 4572,
      "Ġcomplic": 4573,
      "itical": 4574,
      "Ġapart": 4575,
      "ensity": 4576,
      "cean": 4577,
      "ĠGu": 4578,
      "With": 4579,
      "Ġfantastic": 4580,
      "Ġallowed": 4581,
      "Ġstatus": 4582,
      "Ġmagn": 4583,
      "Ġdiet": 4584,
      "Ġnote": 4585,
      "Ġtruth": 4586,
      "Ġpublish": 4587,
      "aign": 4588,
      "Ġtesting": 4589,
      "ĠSouth": 4590,
      "Ġheld": 4591,
      "These": 4592,
      "Ġexcell": 4593,
      "ĠRegular": 4594,
      "Ġregularly": 4595,
      "Ġaccordingly": 4596,
      "Ġemphasizing": 4597,
      "Ġdry": 4598,
      "Ġgenre": 4599,
      "Ġphotograph": 4600,
      "lines": 4601,
      "ĠFrench": 4602,
      "ils": 4603,
      "Ġsav": 4604,
      "Ġinfrastructure": 4605,
      "asure": 4606,
      "ĠEncourage": 4607,
      "Ġlots": 4608,
      "Ġeducators": 4609,
      "Ġmarginalized": 4610,
      "Ġnotice": 4611,
      "fford": 4612,
      "Ġinclusivity": 4613,
      "tiveness": 4614,
      "Ġpsychological": 4615,
      "Ġkn": 4616,
      "Ġinterventions": 4617,
      "Ġparticipate": 4618,
      "Ġframeworks": 4619,
      "Ġserved": 4620,
      "Ġspark": 4621,
      "edge": 4622,
      "Ġheavily": 4623,
      "ives": 4624,
      "Ġpositively": 4625,
      "Ġsuffer": 4626,
      "Ġmonths": 4627,
      "ana": 4628,
      "Ġreflecting": 4629,
      "ĠCar": 4630,
      "Ġsuitable": 4631,
      "ĠShare": 4632,
      "Ġpopulation": 4633,
      "Ġmillions": 4634,
      "ĠSam": 4635,
      "Ġleaves": 4636,
      "ĠJam": 4637,
      "ĠExper": 4638,
      "Ġchann": 4639,
      "Ġsubjects": 4640,
      "Ġvegetables": 4641,
      "Ġment": 4642,
      "Ġlingu": 4643,
      "Ġstaying": 4644,
      "Ġcapabilities": 4645,
      "Ġscreen": 4646,
      "Ġculinary": 4647,
      "ĠBri": 4648,
      "Ġthrilling": 4649,
      "Ġweek": 4650,
      "Ġtack": 4651,
      "esus": 4652,
      "Ġforeign": 4653,
      "Ġhyp": 4654,
      "Ġdeath": 4655,
      "ĠLeg": 4656,
      "Ġcenter": 4657,
      "aching": 4658,
      "Ġestim": 4659,
      "umn": 4660,
      "Ġnormal": 4661,
      "Ġjuvenile": 4662,
      "respond": 4663,
      "Ġreasons": 4664,
      "Ġlibraries": 4665,
      "Ġgold": 4666,
      "Ġdemands": 4667,
      "Ġminimizing": 4668,
      "Ġcannot": 4669,
      "Ġactual": 4670,
      "Ġspot": 4671,
      "Ġdra": 4672,
      "Ġcentered": 4673,
      "Ġdiseases": 4674,
      "Ġteacher": 4675,
      "Ġdecide": 4676,
      "Tr": 4677,
      "Ġstrategic": 4678,
      "Ġkindness": 4679,
      "Ġhar": 4680,
      "Ġartificial": 4681,
      "Ġsecret": 4682,
      "Ġexperts": 4683,
      "Ġsessions": 4684,
      "Ġnews": 4685,
      "sequ": 4686,
      "Ġprogramming": 4687,
      "eday": 4688,
      "Ġreturns": 4689,
      "Ġconsideration": 4690,
      "bl": 4691,
      "Ġaesthe": 4692,
      "Ġdisru": 4693,
      "ĠMeanwhile": 4694,
      "Ġclients": 4695,
      "urally": 4696,
      "ums": 4697,
      "Ġadvantages": 4698,
      "ĠRuss": 4699,
      "Ġsomeday": 4700,
      "Ġserving": 4701,
      "ographical": 4702,
      "ĠTechniques": 4703,
      "*:": 4704,
      "lled": 4705,
      "whel": 4706,
      "ĠNorth": 4707,
      "Ġfollowed": 4708,
      "ading": 4709,
      "Ġolder": 4710,
      "ĠHere": 4711,
      "Ġteams": 4712,
      "right": 4713,
      "Ġances": 4714,
      "Ġconventional": 4715,
      "Ġesc": 4716,
      "aight": 4717,
      "Ġinteraction": 4718,
      "Ġimprovement": 4719,
      "Ġnegoti": 4720,
      "Ġextre": 4721,
      "Ġintegration": 4722,
      "Ġcomprehension": 4723,
      "Ġcell": 4724,
      "ceptions": 4725,
      "ley": 4726,
      "Ġassistance": 4727,
      "Ġbustling": 4728,
      "Ġembrace": 4729,
      "Ġpen": 4730,
      "estry": 4731,
      "Ġinten": 4732,
      "Ġbit": 4733,
      "ĠChin": 4734,
      "aints": 4735,
      "ison": 4736,
      "Ġhandling": 4737,
      "Ġspeed": 4738,
      "Ġinequ": 4739,
      "Ġseam": 4740,
      "Ġlever": 4741,
      "Ġspent": 4742,
      "Ġcoming": 4743,
      "Ġcolonial": 4744,
      "orb": 4745,
      "neys": 4746,
      "Ġinitially": 4747,
      "Ġcreations": 4748,
      "Ġexcited": 4749,
      "unately": 4750,
      "Ġcompelling": 4751,
      "Ġvariables": 4752,
      "Ġhalf": 4753,
      "Ġfruits": 4754,
      "Ġsugar": 4755,
      "Ġtreatments": 4756,
      "Ġlimitations": 4757,
      "otypes": 4758,
      "Ġcorrespond": 4759,
      "ĠJesus": 4760,
      "GBT": 4761,
      "Ġtoys": 4762,
      "Ġprocedures": 4763,
      "tenance": 4764,
      "rene": 4765,
      "Ġarise": 4766,
      "Ġformation": 4767,
      "Ġattit": 4768,
      "ĠStrateg": 4769,
      "pper": 4770,
      "Ġtarget": 4771,
      "ĠNative": 4772,
      "ĠOf": 4773,
      "Ġnuanced": 4774,
      "Ġrise": 4775,
      "Ġprivate": 4776,
      "Ġcontaining": 4777,
      "Ġfriendly": 4778,
      "aur": 4779,
      "Ġbuildings": 4780,
      "Ġdetermine": 4781,
      "Ġegg": 4782,
      "ville": 4783,
      "uts": 4784,
      "Ġharness": 4785,
      "Ġdream": 4786,
      "anning": 4787,
      "ĠChall": 4788,
      "Ġhimself": 4789,
      "Ġcolorful": 4790,
      "ĠYOU": 4791,
      "erate": 4792,
      "Ġrule": 4793,
      "Ġthanks": 4794,
      "Ġrepresenting": 4795,
      "Ġreflection": 4796,
      "Ġengaged": 4797,
      "ologists": 4798,
      "Ġdistance": 4799,
      "ĠChina": 4800,
      "Ġconcerning": 4801,
      "Ġcancer": 4802,
      "Ġdirectly": 4803,
      "Ġcomponent": 4804,
      "Ġmeant": 4805,
      "ectors": 4806,
      "anting": 4807,
      "ĠProt": 4808,
      "Ġstop": 4809,
      "Ġrenew": 4810,
      "----------------------------": 4811,
      "Ġmedium": 4812,
      "Ġcauses": 4813,
      "Ġarchitecture": 4814,
      "Ġgenu": 4815,
      "ĠGl": 4816,
      "Ġeager": 4817,
      "Ġmathematical": 4818,
      "Ġsecrets": 4819,
      "ĠManagement": 4820,
      "Ġcomprehensive": 4821,
      "Ġshaped": 4822,
      "Ġpurch": 4823,
      "found": 4824,
      "eterm": 4825,
      "Ġalter": 4826,
      "Ġworkers": 4827,
      "ports": 4828,
      "iled": 4829,
      "Ġaudience": 4830,
      "Ġoutput": 4831,
      "mer": 4832,
      "Ġstere": 4833,
      ",'": 4834,
      "hand": 4835,
      "atically": 4836,
      "Ġconscious": 4837,
      "Ġstraight": 4838,
      "Ġdivid": 4839,
      "Ġcalculate": 4840,
      "Ġdealing": 4841,
      "ĠSur": 4842,
      "Ġthus": 4843,
      "Ġfuel": 4844,
      "orrow": 4845,
      "Ġconcent": 4846,
      "You": 4847,
      "ĠLook": 4848,
      "Ġlabel": 4849,
      "Ġconstruction": 4850,
      "ĠCommon": 4851,
      "formation": 4852,
      "icit": 4853,
      "It": 4854,
      "ublic": 4855,
      "Ġstatis": 4856,
      "Ġaccuracy": 4857,
      "ĠTrends": 4858,
      "Ġholds": 4859,
      "ipping": 4860,
      "Ġtranspar": 4861,
      "Ġbeings": 4862,
      "####": 4863,
      "odd": 4864,
      "reprene": 4865,
      "Ġalgorithm": 4866,
      "ĠThus": 4867,
      "Ġidentifying": 4868,
      "ĠCreate": 4869,
      "pling": 4870,
      "Ġlink": 4871,
      "Ġteachings": 4872,
      "isine": 4873,
      "Ġbelieved": 4874,
      "ĠStudy": 4875,
      "Ġtiss": 4876,
      "asion": 4877,
      "Ġfemale": 4878,
      "gment": 4879,
      "Ġstrange": 4880,
      "GBTQ": 4881,
      "ĠSk": 4882,
      "icted": 4883,
      "Ġopening": 4884,
      "Ġpoetry": 4885,
      "Ġproviders": 4886,
      "ĠMax": 4887,
      "unction": 4888,
      "Ġcontinuous": 4889,
      "abb": 4890,
      "Ġvac": 4891,
      "oll": 4892,
      "tial": 4893,
      "Ġsocio": 4894,
      "Ġafford": 4895,
      "Ġbirth": 4896,
      "Ġclassic": 4897,
      "Ġgent": 4898,
      "ĠWhy": 4899,
      "Ġsolely": 4900,
      "ĠAfrica": 4901,
      "iling": 4902,
      "ressive": 4903,
      "Ġpret": 4904,
      "ĠLily": 4905,
      "Ġrapidly": 4906,
      "Ġsought": 4907,
      "Ġspeech": 4908,
      "rain": 4909,
      "Ġargue": 4910,
      "Ġtransl": 4911,
      "Ġhosp": 4912,
      "ĠChinese": 4913,
      "icy": 4914,
      "ollow": 4915,
      "Ġlegacy": 4916,
      "otal": 4917,
      "Ġperforming": 4918,
      "ocol": 4919,
      "Ġrecords": 4920,
      "nic": 4921,
      "Ġrevolution": 4922,
      "Ġphenomena": 4923,
      "Ġmoral": 4924,
      "utic": 4925,
      "Ġhandle": 4926,
      "etric": 4927,
      "Ġwatching": 4928,
      "enses": 4929,
      "zy": 4930,
      "poses": 4931,
      "Ġwaves": 4932,
      "Ġcompetition": 4933,
      "Ġforget": 4934,
      "Ġinstructions": 4935,
      "ĠCase": 4936,
      "ĠBritish": 4937,
      "Ġcou": 4938,
      "ĠThroughout": 4939,
      "Ġdoctors": 4940,
      "Ġmusical": 4941,
      "der": 4942,
      "Ġofficial": 4943,
      "Ġflour": 4944,
      "Ġunl": 4945,
      "Ġsat": 4946,
      "Ġhun": 4947,
      "Ġequitable": 4948,
      "Ġinner": 4949,
      "Ġbud": 4950,
      "Ġvolun": 4951,
      "Ġtransfer": 4952,
      "Ġequality": 4953,
      "Ġsuppl": 4954,
      "ara": 4955,
      "Ġchec": 4956,
      "Ġgoods": 4957,
      "fit": 4958,
      "Ġhop": 4959,
      "ured": 4960,
      "Ġinnovations": 4961,
      "friend": 4962,
      "ĠAnalysis": 4963,
      "och": 4964,
      "Ġadminist": 4965,
      "Ġnation": 4966,
      "ĠNon": 4967,
      "ĠHigh": 4968,
      "Ġvill": 4969,
      "Ġwouldn": 4970,
      "Ġprivacy": 4971,
      "Ġcampaign": 4972,
      "ĠContemporary": 4973,
      "Ġmovie": 4974,
      "Ġhyd": 4975,
      "Moreover": 4976,
      "otic": 4977,
      "ching": 4978,
      "Ġprepare": 4979,
      "Ġworlds": 4980,
      "tile": 4981,
      "ĠBal": 4982,
      "Ġscenes": 4983,
      "Ġtac": 4984,
      "Ġranging": 4985,
      "Ġheavy": 4986,
      "Ġintersection": 4987,
      "Ġsea": 4988,
      "ned": 4989,
      "inks": 4990,
      "Ġreport": 4991,
      "Ġrate": 4992,
      "ĠIntegr": 4993,
      "Ġconsumption": 4994,
      "Ġdrug": 4995,
      "Ġtast": 4996,
      "Ġspect": 4997,
      "Ġhighlights": 4998,
      "ronic": 4999,
      "Ġcrafting": 5000,
      "Ġmarkets": 5001,
      "Ġsensitive": 5002,
      "Ġcelebrate": 5003,
      "Ġmyth": 5004,
      "Ġfabric": 5005,
      "book": 5006,
      "Ġconfron": 5007,
      "Ġstream": 5008,
      "Ġdreams": 5009,
      "Ġoverwhel": 5010,
      "Ġracial": 5011,
      "Ġsusp": 5012,
      "anges": 5013,
      "Ġfinally": 5014,
      "Ġillum": 5015,
      "Ġhers": 5016,
      "Ġowners": 5017,
      "Ġvs": 5018,
      "ĠFin": 5019,
      "Ġmolec": 5020,
      "ĠVis": 5021,
      "ĠPower": 5022,
      "Ġsmoothly": 5023,
      "Ġusage": 5024,
      "ups": 5025,
      "Ġlikely": 5026,
      "Ġwide": 5027,
      "Ġillustrate": 5028,
      "Ġapproximately": 5029,
      "Ġpurposes": 5030,
      "Ġachieving": 5031,
      "Ġvarying": 5032,
      "dis": 5033,
      "ĠBefore": 5034,
      "ĠLGBTQ": 5035,
      "Ġstrengths": 5036,
      "Ġalloc": 5037,
      "Ġslightly": 5038,
      "Un": 5039,
      "ĠPractice": 5040,
      "Ġobserv": 5041,
      "Ġexplo": 5042,
      "ĠHistory": 5043,
      "Ġwealth": 5044,
      "ĠGree": 5045,
      "Ġtapestry": 5046,
      "Ġtale": 5047,
      "Ġtrig": 5048,
      "Ġspeaking": 5049,
      "eath": 5050,
      "ĠBuilding": 5051,
      "Ġadult": 5052,
      "Ġselecting": 5053,
      "Ġindustries": 5054,
      "Ġlack": 5055,
      "Ġmiddle": 5056,
      "Ġtension": 5057,
      "])": 5058,
      "icting": 5059,
      "ĠChoose": 5060,
      "Ġcomprom": 5061,
      "ĠChristianity": 5062,
      "Ġgar": 5063,
      "Ġtrib": 5064,
      "Ġdemonstrated": 5065,
      "Ġcollect": 5066,
      "ĠWestern": 5067,
      "tices": 5068,
      "enges": 5069,
      "Ġblue": 5070,
      "ĠNational": 5071,
      "ĠLiter": 5072,
      "Ġcars": 5073,
      "Ġdedication": 5074,
      "Ġwebsites": 5075,
      "Ġhappening": 5076,
      "ĠLike": 5077,
      "Ġenter": 5078,
      "Ġdelicate": 5079,
      "Ġcater": 5080,
      "Ġneighborhood": 5081,
      "Ġhumor": 5082,
      "ĠIns": 5083,
      "Ġsimpl": 5084,
      "Ġevaluate": 5085,
      "Ġmeal": 5086,
      "Ġfrag": 5087,
      "Ġapplied": 5088,
      "ĠUS": 5089,
      "Ġexplain": 5090,
      "ĠWhether": 5091,
      "taining": 5092,
      "Ġphone": 5093,
      "Ġengineers": 5094,
      "Ġacts": 5095,
      "Ġassist": 5096,
      "Ġamount": 5097,
      "ux": 5098,
      "Ġsevere": 5099,
      "oyal": 5100,
      "Ġgenetic": 5101,
      "ĠSw": 5102,
      "ran": 5103,
      "Ġinternet": 5104,
      "Ġdeg": 5105,
      "Ġsubstanti": 5106,
      "Ġuncertain": 5107,
      "Ġgarden": 5108,
      "Ġsad": 5109,
      "Ġearth": 5110,
      "Ġorigins": 5111,
      "Ġprecious": 5112,
      "ĠCanada": 5113,
      "uls": 5114,
      "Ġunw": 5115,
      "Ġmir": 5116,
      "ĠFocus": 5117,
      "Ġoverl": 5118,
      "Ġturning": 5119,
      "ĠStudents": 5120,
      "Ġstands": 5121,
      "Ġisol": 5122,
      "iffer": 5123,
      "lear": 5124,
      "')": 5125,
      "Ġrecord": 5126,
      "Ġliqu": 5127,
      "Ġcloth": 5128,
      "Ġdriving": 5129,
      "elp": 5130,
      "Ġcatch": 5131,
      "Ġturns": 5132,
      "solving": 5133,
      "Ġactively": 5134,
      "ino": 5135,
      "Ġdiscoveries": 5136,
      "Ġmetal": 5137,
      "Ġpresented": 5138,
      "Ġdocuments": 5139,
      "Ġbad": 5140,
      "Ġdemonstrating": 5141,
      "Ġenhanced": 5142,
      "Ġpowers": 5143,
      "quality": 5144,
      "Ġcher": 5145,
      "Ġsubsequ": 5146,
      "Ġdish": 5147,
      "Ġentities": 5148,
      "Ġpredict": 5149,
      "Ġadversity": 5150,
      "overs": 5151,
      "Ġmarked": 5152,
      "Ġlemon": 5153,
      "Ġattach": 5154,
      "Ġpreparing": 5155,
      "Ġchance": 5156,
      "Ġtrauma": 5157,
      "Ġgas": 5158,
      "Ġstorage": 5159,
      "Ġaid": 5160,
      "Ġdou": 5161,
      "Ġseparate": 5162,
      "key": 5163,
      "ĠUtil": 5164,
      "era": 5165,
      "Ġnative": 5166,
      "Ġconsiderations": 5167,
      "Ġobjectives": 5168,
      "Ġrigorous": 5169,
      "Ġscene": 5170,
      "olic": 5171,
      "ype": 5172,
      "Ġletters": 5173,
      "place": 5174,
      "np": 5175,
      "yl": 5176,
      "Ġecosystems": 5177,
      "Ġadvances": 5178,
      "Ġexpans": 5179,
      "Ġcorpor": 5180,
      "Ġlocated": 5181,
      "Ġbelief": 5182,
      "Ġmemor": 5183,
      "Ġcompet": 5184,
      "Ġstanding": 5185,
      "ĠFiction": 5186,
      "ĠSchool": 5187,
      "Ġrecipes": 5188,
      "mar": 5189,
      "Py": 5190,
      "Ġcategories": 5191,
      "Ġblock": 5192,
      "ĠDevelopment": 5193,
      "asures": 5194,
      "ffective": 5195,
      "Ġsold": 5196,
      "ĠĠĠĠĠĠĠĠĠĠĠ": 5197,
      "Ġdone": 5198,
      "ĠInc": 5199,
      "Ġphilosophy": 5200,
      "Ġfaster": 5201,
      "Ġcoll": 5202,
      "Ġintim": 5203,
      "ratic": 5204,
      "iche": 5205,
      "Ġenduring": 5206,
      "Ġforming": 5207,
      "son": 5208,
      "Ġhoriz": 5209,
      "opping": 5210,
      "Ġherself": 5211,
      "Ġmanaged": 5212,
      "Ġquanti": 5213,
      "Ġtrain": 5214,
      "ĠImpact": 5215,
      "ographic": 5216,
      "Ġmere": 5217,
      "plement": 5218,
      "oding": 5219,
      "NA": 5220,
      "Ġgentle": 5221,
      "Ġspeak": 5222,
      "ram": 5223,
      "ĠSee": 5224,
      "Ġsuccessfully": 5225,
      "Ġstrive": 5226,
      "Ġfacts": 5227,
      "Ġhair": 5228,
      "ĠBlack": 5229,
      "ief": 5230,
      "Ġtoy": 5231,
      "Ġcultivating": 5232,
      "\")": 5233,
      "Ġdur": 5234,
      "Ġmastering": 5235,
      "Ġsites": 5236,
      "anish": 5237,
      "Ġshifts": 5238,
      "Ġsand": 5239,
      "Ġstrict": 5240,
      "umbled": 5241,
      "Ġrain": 5242,
      "Ġyouth": 5243,
      "Ġsafegu": 5244,
      "Ġevolved": 5245,
      "rite": 5246,
      "lecting": 5247,
      "Ġcommer": 5248,
      "arding": 5249,
      "Ġpray": 5250,
      "issions": 5251,
      "ulatory": 5252,
      "oint": 5253,
      "ĠAmericans": 5254,
      "Ġexperiencing": 5255,
      "Ġparticipation": 5256,
      "onomy": 5257,
      ":*": 5258,
      "ĠOb": 5259,
      "Ġgoverning": 5260,
      "Ġtotal": 5261,
      "ĠIntern": 5262,
      "ĠChrist": 5263,
      "Ġox": 5264,
      "ĠFuture": 5265,
      "ĠCultural": 5266,
      "Ġarguments": 5267,
      "Ġpromise": 5268,
      "Ġearn": 5269,
      "Ġmid": 5270,
      "Ġdimensions": 5271,
      "Â°": 5272,
      "cop": 5273,
      "tt": 5274,
      "Ġappeal": 5275,
      "alian": 5276,
      "estiv": 5277,
      "ĠJamie": 5278,
      "Ġexistence": 5279,
      "ĠĊ": 5280,
      "ags": 5281,
      "Ġmeditation": 5282,
      "riter": 5283,
      "Ġstrengthen": 5284,
      "aters": 5285,
      "Ġmission": 5286,
      "Ġequipped": 5287,
      "Ġmindfulness": 5288,
      "ĠLatin": 5289,
      "Ġwhereas": 5290,
      "Ġwear": 5291,
      "Ġappearance": 5292,
      "Ġmovies": 5293,
      "Ġparty": 5294,
      "Ġsweet": 5295,
      "Ġclothing": 5296,
      "Ġnewfound": 5297,
      "ĠEst": 5298,
      "Ġstereotypes": 5299,
      "Ġconfid": 5300,
      "Ġintroduced": 5301,
      "ðŁ": 5302,
      "Ġgrew": 5303,
      "stery": 5304,
      "Ġinvestigation": 5305,
      "Ġlinguistic": 5306,
      "Ġpun": 5307,
      "Ġdomin": 5308,
      "ĠImport": 5309,
      "ĠMark": 5310,
      "Ġbul": 5311,
      "Ġmaintenance": 5312,
      "Ġbow": 5313,
      "Ġsaying": 5314,
      "Ġattitudes": 5315,
      "Ġentreprene": 5316,
      "Ġflexibility": 5317,
      "ĠOrgan": 5318,
      "ĠRead": 5319,
      "After": 5320,
      "Ġcomplicated": 5321,
      "ompl": 5322,
      "Ġoccup": 5323,
      "data": 5324,
      "Ġnumpy": 5325,
      "uals": 5326,
      "Ġparalle": 5327,
      "Ġvent": 5328,
      "Ġstarts": 5329,
      "Ġshift": 5330,
      "Ġconstant": 5331,
      "Ġmanif": 5332,
      "Ġrhyth": 5333,
      "uate": 5334,
      "Ġintegrity": 5335,
      "ĠBre": 5336,
      "Ġtemperatures": 5337,
      "ĠHol": 5338,
      "ĠLearning": 5339,
      "points": 5340,
      "ĠIndia": 5341,
      "Ġfirm": 5342,
      "Ġrock": 5343,
      "exic": 5344,
      "Ġsignals": 5345,
      "Ġwalk": 5346,
      "Ġthrive": 5347,
      "Ġtips": 5348,
      "Ġcourt": 5349,
      "Ġpresence": 5350,
      "apeutic": 5351,
      "house": 5352,
      "Ġpark": 5353,
      "ĠAg": 5354,
      "ĠBudd": 5355,
      "ifies": 5356,
      "Ġwants": 5357,
      "Ġclub": 5358,
      "\\_": 5359,
      "Ġtraits": 5360,
      "ĠRole": 5361,
      "Ġalternatives": 5362,
      "ively": 5363,
      "Ġsurprise": 5364,
      "Ġenjoying": 5365,
      "Ġuns": 5366,
      "Ġtheories": 5367,
      "umes": 5368,
      "Ġcompar": 5369,
      "Ġsummary": 5370,
      "oral": 5371,
      "Ġtraffic": 5372,
      "ĠSupp": 5373,
      "Ġimplementation": 5374,
      "Ġfollows": 5375,
      "ĠApplications": 5376,
      "pping": 5377,
      "Ġhors": 5378,
      "Ġdelight": 5379,
      "throp": 5380,
      "ashion": 5381,
      "Ġhelpful": 5382,
      "Ġattribut": 5383,
      "Ġuniverse": 5384,
      "Ġmood": 5385,
      "Ġtrou": 5386,
      "Ġmarvel": 5387,
      "Ġtold": 5388,
      "onomic": 5389,
      "Ġfib": 5390,
      "Ġvisiting": 5391,
      "Ġacknowledging": 5392,
      "Ġprominent": 5393,
      "ĠDi": 5394,
      "Ġreplied": 5395,
      "Ġlasting": 5396,
      ")**": 5397,
      "ĠKing": 5398,
      "Ġflowers": 5399,
      "plt": 5400,
      "Ġsupply": 5401,
      "Ġbirds": 5402,
      "ĠThom": 5403,
      "Ġinvestment": 5404,
      "pet": 5405,
      "ĠLaw": 5406,
      "gyp": 5407,
      "Ġgeom": 5408,
      "Ġartwork": 5409,
      "enn": 5410,
      "Ġwitness": 5411,
      "dim": 5412,
      "Ġrepresentations": 5413,
      "oe": 5414,
      "Ġrecovery": 5415,
      "ĠKnow": 5416,
      "Ġtargeted": 5417,
      "Ġatmosphere": 5418,
      "Ġmountain": 5419,
      "ĠAppro": 5420,
      "Ġaccompl": 5421,
      "cultural": 5422,
      "onents": 5423,
      "Ġsuperher": 5424,
      "Ġattend": 5425,
      "ommod": 5426,
      "oples": 5427,
      "Ġwoman": 5428,
      "idents": 5429,
      "Ġaccessibility": 5430,
      "Ġtests": 5431,
      "Ġcollege": 5432,
      "Ġtow": 5433,
      "ask": 5434,
      "raft": 5435,
      "Ġhistories": 5436,
      "Ġoffered": 5437,
      "uses": 5438,
      "Ġwildlife": 5439,
      "riting": 5440,
      "Ġvariations": 5441,
      "breaking": 5442,
      "yd": 5443,
      "letes": 5444,
      "Ġtexture": 5445,
      "Ġcustomer": 5446,
      "Ġmotion": 5447,
      "Ġreinfor": 5448,
      "Ġthread": 5449,
      "Ġsoph": 5450,
      "urg": 5451,
      "ysical": 5452,
      "fortunately": 5453,
      "ĠSince": 5454,
      "Ġstages": 5455,
      "Ġparameters": 5456,
      "Ġchoosing": 5457,
      "Ġtaught": 5458,
      "Ġfeet": 5459,
      "ĠTips": 5460,
      "ĠRed": 5461,
      "Ġdisput": 5462,
      "acement": 5463,
      "anted": 5464,
      "Ġreput": 5465,
      "Ġbott": 5466,
      "Ġpaths": 5467,
      "Ġagreed": 5468,
      "Ġbeloved": 5469,
      "Ġabuse": 5470,
      "overn": 5471,
      "Ġdepth": 5472,
      "izz": 5473,
      "athering": 5474,
      "Ġaccurately": 5475,
      "anguage": 5476,
      "Ġsurve": 5477,
      "Ġexcellent": 5478,
      "aint": 5479,
      "thern": 5480,
      "Ġincome": 5481,
      "ĠChallenges": 5482,
      "ĠEnviron": 5483,
      "Ġbeneath": 5484,
      "ero": 5485,
      "Ġliber": 5486,
      "Ġlat": 5487,
      "Ġsurpris": 5488,
      "Ġslowly": 5489,
      "ĠContext": 5490,
      "Ġcomputing": 5491,
      "Ġcomics": 5492,
      "Ġbasics": 5493,
      "Ġtells": 5494,
      "asm": 5495,
      "oretical": 5496,
      "Ġbutter": 5497,
      "Ġarrived": 5498,
      "ycl": 5499,
      "Ġdisorder": 5500,
      "ĠAv": 5501,
      "ĠDep": 5502,
      "from": 5503,
      "Ġmouth": 5504,
      "Ġemerge": 5505,
      "Ġpal": 5506,
      "friendly": 5507,
      "Ġpiv": 5508,
      "Ġaffects": 5509,
      "Ġsell": 5510,
      "Ġadequ": 5511,
      "Ġaspiring": 5512,
      "Ġovercome": 5513,
      "ĠEgyp": 5514,
      "Ġimagination": 5515,
      "netic": 5516,
      "avigating": 5517,
      "Ġmal": 5518,
      "Ġcos": 5519,
      "Ġsales": 5520,
      "Ġniche": 5521,
      "SD": 5522,
      "Ġeat": 5523,
      "Ġframework": 5524,
      "Ġla": 5525,
      "enty": 5526,
      "nam": 5527,
      "ĠAnaly": 5528,
      "Ġinfluential": 5529,
      "Ġcommunic": 5530,
      "ĠFind": 5531,
      "Ġsophistic": 5532,
      "Ġemployees": 5533,
      "Ġaims": 5534,
      "Ġlooks": 5535,
      "Ġbol": 5536,
      "ifications": 5537,
      "Ġparticles": 5538,
      "Ġrecommend": 5539,
      "Ġcombined": 5540,
      "Ġdispl": 5541,
      "Ġpromotes": 5542,
      "Ġcolon": 5543,
      "ĠGreek": 5544,
      "Ġinsurance": 5545,
      "Ġcollaborative": 5546,
      "Ġpositions": 5547,
      "Ġmysteries": 5548,
      "odies": 5549,
      "Ġdisparities": 5550,
      "Ġstunning": 5551,
      "Ġdoors": 5552,
      "Ġamounts": 5553,
      "Ġpolicym": 5554,
      "Ġintricacies": 5555,
      "lands": 5556,
      "Ġcorner": 5557,
      "Ġque": 5558,
      "Ġclasses": 5559,
      "Ġanswers": 5560,
      "Ġhob": 5561,
      "osis": 5562,
      "Ġfriendship": 5563,
      "ailing": 5564,
      "Ġblocks": 5565,
      "Ġfunctional": 5566,
      "Ġreactions": 5567,
      "Ġpor": 5568,
      "Ġwise": 5569,
      "Ġrooted": 5570,
      "Ġfilm": 5571,
      "Ġdeepen": 5572,
      "Ġelement": 5573,
      "Ġprint": 5574,
      "ĠPat": 5575,
      "Ġmyself": 5576,
      "fficient": 5577,
      "ĠBuddh": 5578,
      "Ġcoast": 5579,
      "Ġfolk": 5580,
      "Ġcompl": 5581,
      "ĠRoman": 5582,
      "Ġfaces": 5583,
      "Ġsizes": 5584,
      "Ġendless": 5585,
      "igital": 5586,
      "Ġinterf": 5587,
      "Ġcourage": 5588,
      "Ġessence": 5589,
      "Ġversati": 5590,
      "Ġholding": 5591,
      "Ġaccounts": 5592,
      "Ġcrop": 5593,
      "Ġgovernance": 5594,
      "Ġpromising": 5595,
      "ierarch": 5596,
      "Ġrow": 5597,
      "ĠExam": 5598,
      "Ġtwist": 5599,
      "Ġdin": 5600,
      "Ġpartnerships": 5601,
      "Ġsubstantial": 5602,
      "Ġinfluencing": 5603,
      "ounting": 5604,
      "Ġlifesty": 5605,
      "lib": 5606,
      "Ġpet": 5607,
      "Ġsuggests": 5608,
      "Ġadvice": 5609,
      "ĠDel": 5610,
      "Ġsky": 5611,
      "Ġpreparation": 5612,
      "Ġdisapp": 5613,
      "ĠMexic": 5614,
      "Ġseeds": 5615,
      "Ġwonderful": 5616,
      "Ġtough": 5617,
      "Ġresolution": 5618,
      "pre": 5619,
      "Ġtopic": 5620,
      "Ġdecre": 5621,
      "Ġaccessible": 5622,
      "Ġsignal": 5623,
      "Ar": 5624,
      "Ġconsumers": 5625,
      "Ġresponsibilities": 5626,
      "ĠJour": 5627,
      "Ġpersever": 5628,
      "Ġbab": 5629,
      "Ġselection": 5630,
      "Ġking": 5631,
      "Ġhappiness": 5632,
      "ĠCollabor": 5633,
      "Ġdemonstrates": 5634,
      "Be": 5635,
      "Ġpsychology": 5636,
      "Ġhealthier": 5637,
      "Ġobserving": 5638,
      "Ġax": 5639,
      "Ġsides": 5640,
      "emb": 5641,
      "Ġheroes": 5642,
      "Ġharmon": 5643,
      "Ġsurroundings": 5644,
      "Ġcarbon": 5645,
      "Ġsett": 5646,
      "Ġreduces": 5647,
      "Ġbrand": 5648,
      "ĠTherefore": 5649,
      "Ġclassm": 5650,
      "umptions": 5651,
      "Ġtall": 5652,
      "Ġmarketing": 5653,
      "stood": 5654,
      "ait": 5655,
      "Ġsubsequent": 5656,
      "ĠDraw": 5657,
      "Ġvolunte": 5658,
      "osed": 5659,
      "ĠWork": 5660,
      "Ġstumbled": 5661,
      "Ġadaptability": 5662,
      "Ġexists": 5663,
      "Ġprotagon": 5664,
      "ĠEducation": 5665,
      "ĠEmbracing": 5666,
      "Ġshowing": 5667,
      "ĠGuid": 5668,
      "ĠSpecifically": 5669,
      "Ġtensions": 5670,
      "Ġple": 5671,
      "ĠIndian": 5672,
      "Ġalm": 5673,
      "Ġchoice": 5674,
      "ĠStrategies": 5675,
      "arsh": 5676,
      "Ġboo": 5677,
      "ĠTV": 5678,
      "Ġseeing": 5679,
      "Ġdesigners": 5680,
      "Ġreceived": 5681,
      "Ġraw": 5682,
      "Ġlinear": 5683,
      "Ġideal": 5684,
      "Ġoutd": 5685,
      "Ġstim": 5686,
      "ederal": 5687,
      "Ġrom": 5688,
      "icks": 5689,
      "Ġmember": 5690,
      "Ġdivine": 5691,
      "Ġchannels": 5692,
      "Ġleast": 5693,
      "piec": 5694,
      "Ġassessment": 5695,
      "discipl": 5696,
      "Ġneural": 5697,
      "Ġformed": 5698,
      "Ġnotes": 5699,
      "Ġhighly": 5700,
      "icial": 5701,
      "Ġdepend": 5702,
      "Ġopinions": 5703,
      "ticism": 5704,
      "Ġmeat": 5705,
      "Ġcooperation": 5706,
      "ĠDiffer": 5707,
      "ĠMat": 5708,
      "uh": 5709,
      "otion": 5710,
      "ĠCO": 5711,
      "Ġsubtle": 5712,
      "Ġpushing": 5713,
      "Ġtheoretical": 5714,
      "ĠHar": 5715,
      "Ġbrave": 5716,
      "ĠCity": 5717,
      "Ġexperim": 5718,
      "Ġconsult": 5719,
      "Ġaccommod": 5720,
      "Ġethnic": 5721,
      "Ġorganized": 5722,
      "Ġsurg": 5723,
      "Ġrecently": 5724,
      "ĠSystems": 5725,
      "ĠArti": 5726,
      "ĠHuman": 5727,
      "ighter": 5728,
      "Ġdiscourse": 5729,
      "Ġeconomy": 5730,
      "Ġcuisine": 5731,
      "Ġelectronic": 5732,
      "Ġbacter": 5733,
      "lean": 5734,
      "roud": 5735,
      "Ġsurvival": 5736,
      "Ġformal": 5737,
      "Ġgeneral": 5738,
      "Ġexcessive": 5739,
      "eries": 5740,
      "Ġavoiding": 5741,
      "Ġtang": 5742,
      "Ġindependent": 5743,
      "Ġinequality": 5744,
      "Ġgenuine": 5745,
      "Ġinterview": 5746,
      "gers": 5747,
      "ĠDoes": 5748,
      "ena": 5749,
      "Ġinhab": 5750,
      "Ġworksh": 5751,
      "Ġremained": 5752,
      "Ġdecor": 5753,
      "Ġthin": 5754,
      "Ġmixed": 5755,
      "Ġassumptions": 5756,
      "print": 5757,
      "Ġsix": 5758,
      "Ġsurfaces": 5759,
      "Ġdiscovering": 5760,
      "Ġvariable": 5761,
      "ĠTwo": 5762,
      "Ġrul": 5763,
      "Ġexplicit": 5764,
      "Ph": 5765,
      "Ġsunny": 5766,
      "Ġaf": 5767,
      "Ġweeks": 5768,
      "Ġvehicles": 5769,
      "Ġaddition": 5770,
      "Ġtrip": 5771,
      "Ġadvocating": 5772,
      "Ġgenres": 5773,
      "ĠMove": 5774,
      "Ġyield": 5775,
      "Ġdistribut": 5776,
      "Ġweb": 5777,
      "Ġpreventing": 5778,
      "ĠResp": 5779,
      "taking": 5780,
      "agers": 5781,
      "ogen": 5782,
      "Is": 5783,
      "Ġske": 5784,
      "ĠEd": 5785,
      "Ġutilize": 5786,
      "uous": 5787,
      "Ġpeers": 5788,
      "Ġinstruments": 5789,
      "Ġcapt": 5790,
      "Ġentirely": 5791,
      "ĠEl": 5792,
      "Ġoperating": 5793,
      "fiction": 5794,
      "apt": 5795,
      "fac": 5796,
      "Ġanswer": 5797,
      "ĠScience": 5798,
      "Ġtherapeutic": 5799,
      "Ġprompt": 5800,
      "ĠSub": 5801,
      "Ġroad": 5802,
      "ĠAct": 5803,
      "Ġpoor": 5804,
      "Ġreliable": 5805,
      "Ġemphasize": 5806,
      "erb": 5807,
      "ocking": 5808,
      "ĠDire": 5809,
      "Ġtask": 5810,
      "Ġbreaking": 5811,
      "Ġcha": 5812,
      "uality": 5813,
      "Ġexpanding": 5814,
      "Ġconstraints": 5815,
      "Ġvir": 5816,
      "ĠIde": 5817,
      "Ġcombines": 5818,
      "Ġrit": 5819,
      "ulties": 5820,
      "off": 5821,
      "Ġachievements": 5822,
      "Ġserious": 5823,
      "Ġmathematics": 5824,
      "Ġtreating": 5825,
      "mod": 5826,
      "Ġrelease": 5827,
      "Ġpivotal": 5828,
      "pread": 5829,
      "Ġrevealing": 5830,
      "Ġboard": 5831,
      "test": 5832,
      "Ġlocations": 5833,
      "Ġdisag": 5834,
      "ĠAnother": 5835,
      "Ġresonate": 5836,
      "Ġsem": 5837,
      "Ġdefined": 5838,
      "Ġexhibit": 5839,
      "Ġcontributed": 5840,
      "Ġsafely": 5841,
      "Ġremove": 5842,
      "ĠEth": 5843,
      "Ġinfluenced": 5844,
      "ĠSaf": 5845,
      "Ġarm": 5846,
      "Ġmuscles": 5847,
      "Ġtun": 5848,
      "ĠJapanese": 5849,
      "Ġinterpretations": 5850,
      "Ġcold": 5851,
      "Ġnothing": 5852,
      "Ġtechnical": 5853,
      "Ġcalm": 5854,
      "ĠBas": 5855,
      "Ġende": 5856,
      "Ġimmense": 5857,
      "atial": 5858,
      "ĠNumPy": 5859,
      "ĠBar": 5860,
      "ĠNet": 5861,
      "Ġreaching": 5862,
      "such": 5863,
      "Ġbright": 5864,
      "Ġhes": 5865,
      "ĠIdentify": 5866,
      "illed": 5867,
      "itivity": 5868,
      "Ġchick": 5869,
      "------------------------": 5870,
      "ĠDiscuss": 5871,
      "Ġnurt": 5872,
      "Ġexplaining": 5873,
      "AR": 5874,
      "Ġcontrast": 5875,
      "ĠImplement": 5876,
      "ortive": 5877,
      "Ġfighting": 5878,
      "Ġparticipating": 5879,
      "Ġselect": 5880,
      "Ġsalt": 5881,
      "Ġocean": 5882,
      "resent": 5883,
      "Ġsongs": 5884,
      "na": 5885,
      "Ġclinical": 5886,
      "Ġremote": 5887,
      "idespread": 5888,
      "Ġburn": 5889,
      "Ġresist": 5890,
      "pers": 5891,
      "Ġsuddenly": 5892,
      "ĠPri": 5893,
      "gi": 5894,
      "porting": 5895,
      "Ġminor": 5896,
      "Ġenhances": 5897,
      "Ġcomic": 5898,
      "Ġcomplet": 5899,
      "Ġflat": 5900,
      "uli": 5901,
      "Ġcompletely": 5902,
      "Ġimprovements": 5903,
      "Ġgene": 5904,
      "Ġconstitutes": 5905,
      "Ġfluid": 5906,
      "Ġfulf": 5907,
      "Ġpretty": 5908,
      "Ġordinary": 5909,
      "Ġtit": 5910,
      "Ġtackle": 5911,
      "Ġpeoples": 5912,
      "Ġcontains": 5913,
      "itting": 5914,
      "Ġbiases": 5915,
      "Ġrecon": 5916,
      "Ġcombine": 5917,
      "Ġfight": 5918,
      "Ġbed": 5919,
      "ensional": 5920,
      "plotlib": 5921,
      "Ġwidespread": 5922,
      "ĠFood": 5923,
      "Ġgradually": 5924,
      "Ġfruit": 5925,
      "Ġindependence": 5926,
      "ĠBenny": 5927,
      "Ġindustrial": 5928,
      "Ġauthority": 5929,
      "tious": 5930,
      "ĠStudies": 5931,
      "Ġdataset": 5932,
      "Ġtransformed": 5933,
      "Ġfilms": 5934,
      "Ġviews": 5935,
      "Rec": 5936,
      "Ġtransparency": 5937,
      "Ġchronic": 5938,
      "Ġagriculture": 5939,
      "Ġportray": 5940,
      "Ġshares": 5941,
      "Ġaccountability": 5942,
      "Ġerrors": 5943,
      "Ġphr": 5944,
      "ĠRecogn": 5945,
      "Ġgroundbreaking": 5946,
      "Ġfront": 5947,
      "ourses": 5948,
      "fying": 5949,
      "Ġglobe": 5950,
      "Ġdisciplines": 5951,
      "Ġsupports": 5952,
      "Ġadaptation": 5953,
      "forcement": 5954,
      "ĠFollow": 5955,
      "array": 5956,
      "Ġforest": 5957,
      "elihood": 5958,
      "Ġsum": 5959,
      "economic": 5960,
      "vis": 5961,
      "iveness": 5962,
      "enth": 5963,
      "using": 5964,
      "Ġdiscussed": 5965,
      "olitical": 5966,
      "ĠRem": 5967,
      "Ġconsistency": 5968,
      "Ġencounters": 5969,
      "Ġclassroom": 5970,
      "Ġdrawn": 5971,
      "Ġpolicymakers": 5972,
      "ĠMin": 5973,
      "Ġbelow": 5974,
      "Add": 5975,
      "Ġprices": 5976,
      "Ġpresents": 5977,
      "ĠCoun": 5978,
      "roc": 5979,
      "ocolate": 5980,
      "Ġminimal": 5981,
      "Ġotherwise": 5982,
      "utional": 5983,
      "Ġparent": 5984,
      "Ġinterpretation": 5985,
      "Ġremaining": 5986,
      "Ġtransformative": 5987,
      "opped": 5988,
      "Ġwalls": 5989,
      "Ġimper": 5990,
      "Ġdil": 5991,
      "omestic": 5992,
      "grad": 5993,
      "Ġbalanced": 5994,
      "ship": 5995,
      "Ġcolumn": 5996,
      "ĠProf": 5997,
      "Ġiconic": 5998,
      "ictional": 5999,
      "Ġclearly": 6000,
      "Ġequity": 6001,
      "overty": 6002,
      "ĠCri": 6003,
      "disciplinary": 6004,
      "faceted": 6005,
      "Ġjourneys": 6006,
      "Lastly": 6007,
      "Ġrot": 6008,
      "Ġproceed": 6009,
      "Ġenthusiasts": 6010,
      "Ġspend": 6011,
      "antum": 6012,
      "Ġsophisticated": 6013,
      "gn": 6014,
      "--------------------": 6015,
      "Ġconv": 6016,
      "Ġcrow": 6017,
      "ctive": 6018,
      "Ġdear": 6019,
      "ĠSign": 6020,
      "mp": 6021,
      "Ġ$$": 6022,
      "Ġentertainment": 6023,
      "Ġpand": 6024,
      "Ġacceptance": 6025,
      "ĠOut": 6026,
      "Ġcup": 6027,
      "Ġfine": 6028,
      "Ġprecise": 6029,
      "Ġnarrative": 6030,
      "Ġnames": 6031,
      "Ġcenters": 6032,
      "Ġphotography": 6033,
      "Ġovers": 6034,
      "Ġmonitor": 6035,
      "Ġextreme": 6036,
      "ference": 6037,
      "Ġperpet": 6038,
      "ĠMain": 6039,
      "Ġgeneration": 6040,
      "Ġerror": 6041,
      "Ġmuscle": 6042,
      "ĠTur": 6043,
      "Ġbudget": 6044,
      "overing": 6045,
      "Ġconduct": 6046,
      "Ġhierarch": 6047,
      "Ġmystery": 6048,
      "ĠUs": 6049,
      "ĠAsian": 6050,
      "Ġfairness": 6051,
      "Ġfactor": 6052,
      "Ġattending": 6053,
      "ĠAustr": 6054,
      "'d": 6055,
      "Pro": 6056,
      "Ġmap": 6057,
      "Ġforth": 6058,
      "ĠAlways": 6059,
      "ience": 6060,
      "de": 6061,
      "step": 6062,
      "ĠRob": 6063,
      "Ġstreet": 6064,
      "ĠAsia": 6065,
      "ĠPart": 6066,
      "related": 6067,
      "Ġsharp": 6068,
      "Ġkeeps": 6069,
      "Ġdifficulties": 6070,
      "Ġvideos": 6071,
      "Ġshowed": 6072,
      "Ġtried": 6073,
      "Ġsatisfaction": 6074,
      "ĠProv": 6075,
      "eta": 6076,
      "Ġsubstances": 6077,
      "Ġjump": 6078,
      "leg": 6079,
      "Ġroutine": 6080,
      "ĠEarly": 6081,
      "Ġnodd": 6082,
      "Ġroll": 6083,
      "Ġabstr": 6084,
      "Ġinjuries": 6085,
      "Ġecological": 6086,
      "Ġjobs": 6087,
      "ĠWrite": 6088,
      "Ġathletes": 6089,
      "Ġabsorb": 6090,
      "Ġclassmates": 6091,
      "inter": 6092,
      "Ġpaint": 6093,
      "ken": 6094,
      "Ġvoc": 6095,
      "Ġchanged": 6096,
      "Ġpopularity": 6097,
      "Ġsupportive": 6098,
      "ĠUnlike": 6099,
      "Ġwonders": 6100,
      "ime": 6101,
      "Ġfarmers": 6102,
      "iology": 6103,
      "Ġbrief": 6104,
      "actors": 6105,
      "Ġquiet": 6106,
      "Ġfoundational": 6107,
      "Ġethics": 6108,
      "ĠOh": 6109,
      "Ġbaking": 6110,
      "Ġoccurs": 6111,
      "Ġbeg": 6112,
      "Ġimagery": 6113,
      "ĠOverview": 6114,
      "Ġholistic": 6115,
      "Ġsunlight": 6116,
      "Ġinterested": 6117,
      "ĠDid": 6118,
      "Ġprice": 6119,
      "Ġcompetitive": 6120,
      "ĠSol": 6121,
      "Ġmoist": 6122,
      "Ġnurturing": 6123,
      "Ġdepression": 6124,
      "Ġsite": 6125,
      "inity": 6126,
      "Ġadequate": 6127,
      "ĠSpanish": 6128,
      "Ġeffectiveness": 6129,
      "Ġunderstood": 6130,
      "ĠBel": 6131,
      "Ġjournal": 6132,
      "Ġmusicians": 6133,
      "Ġexpressing": 6134,
      "Ġtut": 6135,
      "Ġwondering": 6136,
      "Ġstret": 6137,
      "Ġtransition": 6138,
      "herence": 6139,
      "Ġskilled": 6140,
      "Ġmini": 6141,
      "ressed": 6142,
      "ione": 6143,
      "aun": 6144,
      "Ġvig": 6145,
      "Ġpreviously": 6146,
      "backs": 6147,
      "Ġanticip": 6148,
      "Ġestablishing": 6149,
      "Ġcards": 6150,
      "ĠSelf": 6151,
      "Ġreform": 6152,
      "Ġthick": 6153,
      "Ġalthough": 6154,
      "Ġforg": 6155,
      "ulpt": 6156,
      "Ġderived": 6157,
      "Ġproud": 6158,
      "ĠAD": 6159,
      "pred": 6160,
      "AT": 6161,
      "ieval": 6162,
      "Ġbeginning": 6163,
      "Ġconsistently": 6164,
      "Ġbreathing": 6165,
      "omy": 6166,
      "Ġmilk": 6167,
      "Ġorient": 6168,
      "ĠSecond": 6169,
      "itor": 6170,
      "usiness": 6171,
      "Ġvisually": 6172,
      "Ġreflects": 6173,
      "arc": 6174,
      "mic": 6175,
      "Ġselling": 6176,
      "EM": 6177,
      "erative": 6178,
      "Ġnumer": 6179,
      "Ġproteins": 6180,
      "ĠEngland": 6181,
      "oving": 6182,
      "atit": 6183,
      "Ġedge": 6184,
      "Ġcombat": 6185,
      "Ġsafer": 6186,
      "vision": 6187,
      "Ġexempl": 6188,
      "Ġapproached": 6189,
      "Ġloyal": 6190,
      "verage": 6191,
      "Ġmotivation": 6192,
      "Ġmultifaceted": 6193,
      "Ġimmediately": 6194,
      "bility": 6195,
      "Ġcoin": 6196,
      "text": 6197,
      "Ġliquid": 6198,
      "Ġspir": 6199,
      "Ġunits": 6200,
      "Ġmatch": 6201,
      "Ġwidely": 6202,
      "Ġguiding": 6203,
      "Ġworkshops": 6204,
      "Ġparamount": 6205,
      "rolog": 6206,
      "Ġcomposition": 6207,
      "aven": 6208,
      "Ġversion": 6209,
      "Ġmuse": 6210,
      "ĠLearn": 6211,
      "jud": 6212,
      "Ġborn": 6213,
      "ĠIsra": 6214,
      "ĠEs": 6215,
      "Ġdecades": 6216,
      "can": 6217,
      "Ġmassive": 6218,
      "Ġbelonging": 6219,
      "Ġcomprehend": 6220,
      "Ġshowcasing": 6221,
      "uit": 6222,
      "ĠKore": 6223,
      "Ġdescribe": 6224,
      "Ġmot": 6225,
      "Ġmother": 6226,
      "riteria": 6227,
      "Ġmysterious": 6228,
      "Ġprotein": 6229,
      "ĠLastly": 6230,
      "Ġscript": 6231,
      "Ġcounsel": 6232,
      "ĠSounds": 6233,
      "('": 6234,
      "Ġdram": 6235,
      "Ġperformances": 6236,
      "Ġseems": 6237,
      "Ġelectricity": 6238,
      "ĠBack": 6239,
      "Ġorganizing": 6240,
      "Ġstring": 6241,
      "Ġvulnerable": 6242,
      "Ġmistakes": 6243,
      "occer": 6244,
      "Ġmale": 6245,
      "Ġbrush": 6246,
      "Ġampl": 6247,
      "Ġinvent": 6248,
      "Ġtheme": 6249,
      "Ġnoise": 6250,
      "Ġflo": 6251,
      "Ġplastic": 6252,
      "working": 6253,
      "Ġregulatory": 6254,
      "ĠLanguage": 6255,
      "Ġgathering": 6256,
      "Ġspending": 6257,
      "tw": 6258,
      "stream": 6259,
      "Ġunfor": 6260,
      "Ġdrive": 6261,
      "Ġconsciousness": 6262,
      "ĠOrig": 6263,
      "Ġgives": 6264,
      "ĠIslamic": 6265,
      "Ġperseverance": 6266,
      "Ġnutrients": 6267,
      "Ġpair": 6268,
      "dimensional": 6269,
      "ari": 6270,
      "Ġlegis": 6271,
      "Ġstars": 6272,
      "ĠProcess": 6273,
      "Ġemphasizes": 6274,
      "ĠSystem": 6275,
      "Ġdistances": 6276,
      "Ġshel": 6277,
      "Ġpollution": 6278,
      "Ġcandid": 6279,
      "En": 6280,
      "Ġlighting": 6281,
      "Ġintegral": 6282,
      "Ġnurs": 6283,
      "Ġfinger": 6284,
      "_{": 6285,
      "Ġstuff": 6286,
      "resh": 6287,
      "Ġaware": 6288,
      "------------------------------------": 6289,
      "Ġfashion": 6290,
      "Ġvector": 6291,
      "ĠFound": 6292,
      "Ġobserve": 6293,
      "ques": 6294,
      "Ġunus": 6295,
      "Ġoption": 6296,
      "Ġelev": 6297,
      "Ġpoverty": 6298,
      "otes": 6299,
      "Ġphotos": 6300,
      "oys": 6301,
      "ĠEstablish": 6302,
      "Ġgeographical": 6303,
      "inning": 6304,
      "istry": 6305,
      "Ġech": 6306,
      "Ġtur": 6307,
      "Ġevaluating": 6308,
      "Ġincluded": 6309,
      "Ġreligions": 6310,
      "ĠTake": 6311,
      "Ġproductivity": 6312,
      "Ġpursuing": 6313,
      "apers": 6314,
      "Ġkinds": 6315,
      "Ġfiles": 6316,
      "Ġcontrovers": 6317,
      "Ġsupplies": 6318,
      "Ġrepresented": 6319,
      "Expl": 6320,
      "Ġwhis": 6321,
      "Ġhearing": 6322,
      "Ġplayer": 6323,
      "roll": 6324,
      "Ġorganiz": 6325,
      "apped": 6326,
      "Ġsacred": 6327,
      "Ġgathered": 6328,
      "ĠClass": 6329,
      "atitude": 6330,
      "Ġencountered": 6331,
      "rat": 6332,
      "Ġmemorable": 6333,
      "Ġclaims": 6334,
      "Ġcampaigns": 6335,
      "aul": 6336,
      ".âĢĿ": 6337,
      "erves": 6338,
      "Ġedges": 6339,
      "Ġstructural": 6340,
      "Ġeld": 6341,
      "Ġaccomp": 6342,
      "Ġutilizing": 6343,
      "Ġsections": 6344,
      "ĠLittle": 6345,
      "Ġlimits": 6346,
      "oking": 6347,
      "ĠGre": 6348,
      "Ġphenomenon": 6349,
      "Ġunn": 6350,
      "rete": 6351,
      "Ġweap": 6352,
      "ĠInternational": 6353,
      "Ġelim": 6354,
      "Ġobserved": 6355,
      "Ġcollecting": 6356,
      "Ġraised": 6357,
      "Ġunderp": 6358,
      "ĠNever": 6359,
      "ĠYork": 6360,
      "frac": 6361,
      "Ġlights": 6362,
      "Ġhabitats": 6363,
      "Ġgest": 6364,
      "Ġnat": 6365,
      "Ġwave": 6366,
      "ĠConf": 6367,
      "Ġreb": 6368,
      "olve": 6369,
      "Ġeco": 6370,
      "uk": 6371,
      "Ġevaluation": 6372,
      "Ġrepe": 6373,
      "Ġintense": 6374,
      "Ġregulation": 6375,
      "mark": 6376,
      "Life": 6377,
      "ĠEngaging": 6378,
      "Ġimmune": 6379,
      "Ġcorrectly": 6380,
      "oning": 6381,
      "ĠDigital": 6382,
      "Ġshowcase": 6383,
      "Ġpersonality": 6384,
      "Ġobservations": 6385,
      "Ġgaming": 6386,
      "ĠWill": 6387,
      "Ġdoctor": 6388,
      "Ġpreservation": 6389,
      "plication": 6390,
      "Ġblend": 6391,
      "Ġcriticism": 6392,
      "Ġcompeting": 6393,
      "Ġtrav": 6394,
      "Ġcrafts": 6395,
      "Ġequally": 6396,
      "Ġvict": 6397,
      "ĠYes": 6398,
      "Ġorganisms": 6399,
      "Ġcast": 6400,
      "ĠMic": 6401,
      "ĠPsych": 6402,
      "Ġexpected": 6403,
      "Ġthird": 6404,
      "ĠGood": 6405,
      "Ġscenario": 6406,
      "Sh": 6407,
      "Well": 6408,
      "Ġformat": 6409,
      "rooms": 6410,
      "Ġfestiv": 6411,
      "Ġadvocate": 6412,
      "Ġrelaxation": 6413,
      "Ġinvesting": 6414,
      "asive": 6415,
      "edding": 6416,
      "Ġprove": 6417,
      "Ġ(\"": 6418,
      "alse": 6419,
      "Ġagents": 6420,
      "Ġdead": 6421,
      "Ġadopting": 6422,
      "Ġfrequency": 6423,
      "Ġoccasion": 6424,
      "Ġconsumer": 6425,
      "Ġactors": 6426,
      "Ġargument": 6427,
      "Ġoperation": 6428,
      "gent": 6429,
      "Ġmerely": 6430,
      "ĠBet": 6431,
      "ĠMag": 6432,
      "abel": 6433,
      "Ġproducing": 6434,
      "iblical": 6435,
      "venue": 6436,
      "Ġcivilizations": 6437,
      "inates": 6438,
      "ĠEqu": 6439,
      "till": 6440,
      "Ġadds": 6441,
      "Ġadh": 6442,
      "Ġlinked": 6443,
      "Ġproperly": 6444,
      "Ġaccomplish": 6445,
      "Ġassets": 6446,
      "ket": 6447,
      "Ġlabels": 6448,
      "Ġraise": 6449,
      "otional": 6450,
      "aved": 6451,
      "amiliar": 6452,
      "Ġpul": 6453,
      "ĠServ": 6454,
      "Ġgirl": 6455,
      "Ġhesit": 6456,
      "Ġkitch": 6457,
      "Ġsolar": 6458,
      "Ġwebsite": 6459,
      "Ġcurr": 6460,
      "Ġscre": 6461,
      "Ġmanifest": 6462,
      "Ġdeal": 6463,
      "ĠSou": 6464,
      "Ġneuro": 6465,
      "Ġnutrition": 6466,
      "Ġforever": 6467,
      "Ġcontrac": 6468,
      "Ġstewards": 6469,
      "Ġplaced": 6470,
      "Ġstores": 6471,
      "Ġwel": 6472,
      "Ġbird": 6473,
      "Ġsuggested": 6474,
      "Ġcompare": 6475,
      "Ġfewer": 6476,
      "Ġrice": 6477,
      "omb": 6478,
      "Ġfunds": 6479,
      "Ġfunctionality": 6480,
      "ĠFrance": 6481,
      "ĠNavigating": 6482,
      "omantic": 6483,
      "IS": 6484,
      "ĠArab": 6485,
      "obal": 6486,
      "Ġdirection": 6487,
      "Ġreached": 6488,
      "\",": 6489,
      "ette": 6490,
      "kes": 6491,
      "Ġapps": 6492,
      "ĠPost": 6493,
      "Ġunusual": 6494,
      "Our": 6495,
      "Ġcollaborate": 6496,
      "Ġoutl": 6497,
      "Ġcommitted": 6498,
      "Ġuseful": 6499,
      "Ġcelebrating": 6500,
      "oting": 6501,
      "Ġtracking": 6502,
      "Ġdisagre": 6503,
      "rific": 6504,
      "ĠStory": 6505,
      "ffee": 6506,
      "Ġrare": 6507,
      "ĠUnfortunately": 6508,
      "Ġimmediate": 6509,
      "ĠMore": 6510,
      "Ġcozy": 6511,
      "Ġstruggling": 6512,
      "Ġhurt": 6513,
      "Ġcovered": 6514,
      "Ġstick": 6515,
      "uating": 6516,
      "Ġavailability": 6517,
      "Ġrecognized": 6518,
      "Ġdelving": 6519,
      "That": 6520,
      "Ġagency": 6521,
      "Ġownership": 6522,
      "Ġoptimization": 6523,
      "Ġdescrip": 6524,
      "Ġbiological": 6525,
      "uation": 6526,
      "Ġwash": 6527,
      "Ġtactics": 6528,
      "iability": 6529,
      "Ġscale": 6530,
      "Ġdetection": 6531,
      "Ġdu": 6532,
      "Ġviewers": 6533,
      "Ġsensitivity": 6534,
      "Ġclust": 6535,
      "racy": 6536,
      "Ġpartner": 6537,
      "Ġeffect": 6538,
      "ĠAng": 6539,
      "ĠPlay": 6540,
      "CA": 6541,
      "Ġfolks": 6542,
      "Ġstaff": 6543,
      "abet": 6544,
      "Ġrural": 6545,
      "point": 6546,
      "Ġvivid": 6547,
      "Ġdomestic": 6548,
      "Ġdeli": 6549,
      "Ġcurric": 6550,
      "Ġsoccer": 6551,
      "Ġborders": 6552,
      "ygen": 6553,
      "Ġign": 6554,
      "Ġmodeling": 6555,
      "ĠSym": 6556,
      "Ġchain": 6557,
      "ĠOften": 6558,
      "ĠChild": 6559,
      "erie": 6560,
      "Ġprofic": 6561,
      "osition": 6562,
      "Ġsystemic": 6563,
      "ĠMind": 6564,
      "Ġleader": 6565,
      "oir": 6566,
      "Ġarrangements": 6567,
      "ĠVal": 6568,
      "Ġexplores": 6569,
      "Ġmixture": 6570,
      "atable": 6571,
      "Ġteen": 6572,
      "fare": 6573,
      "Ġban": 6574,
      "MS": 6575,
      "uci": 6576,
      "ĠStand": 6577,
      "Ġtissue": 6578,
      "ticul": 6579,
      "Ġcontrolling": 6580,
      "Ġperceptions": 6581,
      "Ġhaz": 6582,
      "Ġemphasis": 6583,
      "Ġbread": 6584,
      "ishes": 6585,
      "Ġcrime": 6586,
      "ĠGeor": 6587,
      "rote": 6588,
      "Ġband": 6589,
      "ĠTheory": 6590,
      "Ġorganic": 6591,
      "ĠRo": 6592,
      "Ġentrepreneurs": 6593,
      "Ġeggs": 6594,
      "Ġheightened": 6595,
      "issance": 6596,
      "Ġvisitors": 6597,
      "Ġuncertainty": 6598,
      "urers": 6599,
      "Ġindex": 6600,
      "Ġsculpt": 6601,
      "Ġdesire": 6602,
      "ĠĠĠĠĠĠĠĠĠĠĠĠĠĠĠĠ": 6603,
      "Ġsnipp": 6604,
      "Ġvit": 6605,
      "ĠMem": 6606,
      "Ġsmiled": 6607,
      "ĠSoci": 6608,
      "Ġarticles": 6609,
      "Ġbringing": 6610,
      "lig": 6611,
      "Ġcriteria": 6612,
      "ĠMuslim": 6613,
      "Ġsport": 6614,
      "coh": 6615,
      "roph": 6616,
      "ĠBegin": 6617,
      "ĠProper": 6618,
      "min": 6619,
      "Ġequations": 6620,
      "ĠIniti": 6621,
      "Ġchocolate": 6622,
      "Ġconsists": 6623,
      "Ġthrow": 6624,
      "undred": 6625,
      "Ġdelivery": 6626,
      "lers": 6627,
      "}{": 6628,
      "Ġvic": 6629,
      "ĠTher": 6630,
      "ĠTechnology": 6631,
      "arted": 6632,
      "Ġhousing": 6633,
      "Ġcommercial": 6634,
      "ĠContin": 6635,
      "ĠQue": 6636,
      "Ġrealize": 6637,
      "Ġdeals": 6638,
      "PS": 6639,
      "ĠApplying": 6640,
      "Ġprecision": 6641,
      "Ġmigration": 6642,
      "Ġlot": 6643,
      "Ġnodded": 6644,
      "Ġelectrical": 6645,
      "Ġreward": 6646,
      "Ġmaximum": 6647,
      "Ġexpert": 6648,
      "If": 6649,
      "arrow": 6650,
      "Ġdominant": 6651,
      "Ġmoves": 6652,
      "ĠLiterature": 6653,
      "Ġmasterpiec": 6654,
      "Ġclues": 6655,
      "raf": 6656,
      "Ġoptimize": 6657,
      "ĠRevolution": 6658,
      "ĠMul": 6659,
      "ecessary": 6660,
      "Ġalmost": 6661,
      "ription": 6662,
      "Ġliteracy": 6663,
      "ĠMedic": 6664,
      "Ġfictional": 6665,
      "Ġstriking": 6666,
      "ĠCap": 6667,
      "Ġinterpre": 6668,
      "enders": 6669,
      "'.": 6670,
      "efs": 6671,
      "Ġ{": 6672,
      "Ġpages": 6673,
      "Ġnuances": 6674,
      "ĠProgr": 6675,
      "gal": 6676,
      "table": 6677,
      "ĠEncouraging": 6678,
      "Ġdisabilities": 6679,
      "Ġcapturing": 6680,
      "ĠPersonal": 6681,
      "Ġmeticul": 6682,
      "Ġspl": 6683,
      "Ġfrustr": 6684,
      "Ġsubs": 6685,
      "onics": 6686,
      "Ġperceived": 6687,
      "____": 6688,
      "Ġromantic": 6689,
      "Ġfacilitating": 6690,
      "Ġagencies": 6691,
      "Ġindeed": 6692,
      "Am": 6693,
      "Ġproposed": 6694,
      "ĠRights": 6695,
      "Ġconfident": 6696,
      "ĠBible": 6697,
      "Ġinclusion": 6698,
      "ĠStay": 6699,
      "Ġevolve": 6700,
      "scale": 6701,
      "ĠWomen": 6702,
      "Ġwaters": 6703,
      "ĠWithin": 6704,
      "ĠChristians": 6705,
      "Ġnuc": 6706,
      "Ġfilter": 6707,
      "ĠTraditional": 6708,
      "ĠFamiliar": 6709,
      "Ġrespective": 6710,
      "ĠGreen": 6711,
      "Ġharmonious": 6712,
      "Ġchances": 6713,
      "Ġsitting": 6714,
      "Ġlemonade": 6715,
      "Ġemail": 6716,
      "Ġreferred": 6717,
      "Ġrecipe": 6718,
      "ĠSl": 6719,
      "ĠDay": 6720,
      "Ġsquare": 6721,
      "Ġbatt": 6722,
      "Ġrelying": 6723,
      "plom": 6724,
      "Ġgrace": 6725,
      "ĠForm": 6726,
      "Ġtrick": 6727,
      "ĠMaya": 6728,
      "He": 6729,
      "ĠEastern": 6730,
      "Just": 6731,
      "ĠArch": 6732,
      "Ġexpansion": 6733,
      "Cl": 6734,
      "Ġterritories": 6735,
      "Ġcredit": 6736,
      "alk": 6737,
      "eem": 6738,
      "Ġthoroughly": 6739,
      "Ġconcentr": 6740,
      "Ġfacilities": 6741,
      "ools": 6742,
      "free": 6743,
      "erts": 6744,
      "Ġsubject": 6745,
      "Ġcalls": 6746,
      "ĠAccess": 6747,
      "ogle": 6748,
      "Ġraising": 6749,
      "Ġsauce": 6750,
      "ĠJu": 6751,
      "ĠPrep": 6752,
      "Ġresidents": 6753,
      "Ġadvancing": 6754,
      "Ġinteractive": 6755,
      "Ġsick": 6756,
      "icking": 6757,
      "Ġunfamiliar": 6758,
      "ĠCommunication": 6759,
      "ĠExc": 6760,
      "ĠPrin": 6761,
      "Ġviewpoints": 6762,
      "ceptional": 6763,
      "iter": 6764,
      "Ġclothes": 6765,
      "Ġlifestyle": 6766,
      "Ġsubstance": 6767,
      "Ġcareers": 6768,
      "Ġprobability": 6769,
      "ĠInv": 6770,
      "Ġcommonly": 6771,
      "ta": 6772,
      "Ġtimeless": 6773,
      "Ġunfold": 6774,
      "ashing": 6775,
      "Ġcloud": 6776,
      "Ġspices": 6777,
      "ĠWest": 6778,
      "Ġpersonalized": 6779,
      "math": 6780,
      "Ġharsh": 6781,
      "--------------------------------------------": 6782,
      "Ġletter": 6783,
      "Ġpip": 6784,
      "Ġentails": 6785,
      "flow": 6786,
      "Ġinhabit": 6787,
      "ĠImportance": 6788,
      "Ġtrouble": 6789,
      "Ġyes": 6790,
      "Ġneighbors": 6791,
      "cont": 6792,
      "Ġcues": 6793,
      "Ġautonomy": 6794,
      "azz": 6795,
      "Ġinvestors": 6796,
      "Ġdisputes": 6797,
      "ES": 6798,
      "Ġrituals": 6799,
      "ĠAge": 6800,
      "arant": 6801,
      "AS": 6802,
      "Ġhind": 6803,
      "ĠEmily": 6804,
      "ĠYet": 6805,
      "Ġfarming": 6806,
      "(\"": 6807,
      "itize": 6808,
      "Ġ<": 6809,
      "ĠEns": 6810,
      "Ġimmersive": 6811,
      "rees": 6812,
      "top": 6813,
      "Ġyounger": 6814,
      "ĠGovern": 6815,
      "Ġthoughtful": 6816,
      "Ġshifting": 6817,
      "Ġsummer": 6818,
      "uccess": 6819,
      "Ġrecre": 6820,
      "Ġload": 6821,
      "parts": 6822,
      "Ġfat": 6823,
      "?!": 6824,
      "ĠBusiness": 6825,
      "Ġsuffering": 6826,
      "uris": 6827,
      "ĠEnvironmental": 6828,
      "Ġforests": 6829,
      "Ġdevelopers": 6830,
      "Ġcontrolled": 6831,
      "Ġqual": 6832,
      "natural": 6833,
      "Ġshed": 6834,
      "Today": 6835,
      "oons": 6836,
      "abul": 6837,
      "ĠTest": 6838,
      "ĠGermany": 6839,
      "Ġinjury": 6840,
      "Ġtom": 6841,
      "Ġadopt": 6842,
      "ĠTry": 6843,
      "Ġwrote": 6844,
      "Ġlaughter": 6845,
      "ĠGerman": 6846,
      "pace": 6847,
      "Ġtreasures": 6848,
      "Ġ$\\": 6849,
      "Ġuniversal": 6850,
      "Ġsour": 6851,
      "Ġhousehold": 6852,
      "Ġwindow": 6853,
      "Ġfriendships": 6854,
      "Ġtraveling": 6855,
      "Ġphysically": 6856,
      "Ġadapting": 6857,
      "Ġintroducing": 6858,
      "Ġchaos": 6859,
      "Ġfantasy": 6860,
      "orship": 6861,
      "Ġabstract": 6862,
      "Ġholid": 6863,
      "storm": 6864,
      "Ġblending": 6865,
      "Ġenjoyable": 6866,
      "ĠEmpire": 6867,
      "puts": 6868,
      "idity": 6869,
      "ias": 6870,
      "Ġcorresponding": 6871,
      "Em": 6872,
      "ĠWater": 6873,
      "Ġexceptional": 6874,
      "Ġchicken": 6875,
      "ĠBeh": 6876,
      "Ġoperate": 6877,
      "ĠPort": 6878,
      "Ġcoping": 6879,
      "Ġalive": 6880,
      "Ġhundred": 6881,
      "Ġswim": 6882,
      "ĠEconom": 6883,
      "Ġdoor": 6884,
      "Ġnaturally": 6885,
      "tism": 6886,
      "Ġoneself": 6887,
      "ĠBec": 6888,
      "ersonal": 6889,
      "ocols": 6890,
      "ĠList": 6891,
      "Ġphysics": 6892,
      "aud": 6893,
      "igur": 6894,
      "Ġprevention": 6895,
      "Ġtrusted": 6896,
      "rie": 6897,
      "ĠRelations": 6898,
      "Ġgenerally": 6899,
      "Ġmarine": 6900,
      "Ġtum": 6901,
      "Ġclassical": 6902,
      "Ġhero": 6903,
      "Ġsocioeconomic": 6904,
      "Ġinvolvement": 6905,
      "itarian": 6906,
      "iven": 6907,
      "iture": 6908,
      "Ġsample": 6909,
      "Ġhypoth": 6910,
      "Ġagreements": 6911,
      "Ġlosing": 6912,
      "ĠCivil": 6913,
      "Ġexh": 6914,
      "riage": 6915,
      "eren": 6916,
      "ĠDiv": 6917,
      "imal": 6918,
      "Ġmisu": 6919,
      "ĠAddressing": 6920,
      "ello": 6921,
      "gener": 6922,
      "ĠVisual": 6923,
      "Ġmanufacturing": 6924,
      "========": 6925,
      "Ġcriminal": 6926,
      "Ġgaps": 6927,
      "uddenly": 6928,
      "Ġiron": 6929,
      "Ġimmigr": 6930,
      "unk": 6931,
      "Ġchildhood": 6932,
      "Ġemployment": 6933,
      "Ġcharge": 6934,
      "Ġspatial": 6935,
      "Ġhit": 6936,
      "ĠOpen": 6937,
      "Ġpredictions": 6938,
      "lements": 6939,
      "Ġcoffee": 6940,
      "Ġbigger": 6941,
      "Ġversions": 6942,
      "ĠCreating": 6943,
      "Ġsamples": 6944,
      "ĠDem": 6945,
      "Ġtransforming": 6946,
      "Ġbatter": 6947,
      "disc": 6948,
      "Ġleveraging": 6949,
      "ĠStories": 6950,
      "ĠTreat": 6951,
      "ĠðŁ": 6952,
      "ĠPlace": 6953,
      "Ġattract": 6954,
      "Ġpublished": 6955,
      "Ad": 6956,
      "road": 6957,
      "oses": 6958,
      "Ġdetermining": 6959,
      "Ġfitness": 6960,
      "Ġmindful": 6961,
      "Ġflu": 6962,
      "Ġpreval": 6963,
      "Ġshad": 6964,
      "oven": 6965,
      "Ġfold": 6966,
      "venues": 6967,
      "Ġappreciating": 6968,
      "owned": 6969,
      "Ġthriving": 6970,
      "Ġfederal": 6971,
      "Ġaesthetics": 6972,
      "([": 6973,
      "ĠPot": 6974,
      "abulary": 6975,
      "Ġinvestigate": 6976,
      "Ġcryst": 6977,
      "Ġcreators": 6978,
      "Ġbacteria": 6979,
      "rum": 6980,
      "Ġgrown": 6981,
      "Ġimportantly": 6982,
      "Ġnewly": 6983,
      "ĠComb": 6984,
      "Ġprol": 6985,
      "Ġprotective": 6986,
      "Ġsnippet": 6987,
      "CE": 6988,
      "Ġbreaks": 6989,
      "ĠBeing": 6990,
      "ek": 6991,
      "Ġsacrific": 6992,
      "Ġrewards": 6993,
      "During": 6994,
      "Ġcaught": 6995,
      "Some": 6996,
      "sters": 6997,
      "Ġoxygen": 6998,
      "Ġcheese": 6999,
      "Ġbutton": 7000,
      "ulates": 7001,
      "Ġphase": 7002,
      "Me": 7003,
      "Ġsnow": 7004,
      "Ġillness": 7005,
      "ĠMethod": 7006,
      "Ġagree": 7007,
      "clud": 7008,
      "Ġrestaur": 7009,
      "Ġcounterparts": 7010,
      "eras": 7011,
      "Ġclar": 7012,
      "Ġsequence": 7013,
      "Ġpresentation": 7014,
      "bit": 7015,
      "iological": 7016,
      "ĠModel": 7017,
      "Ġmoved": 7018,
      "Ġproduced": 7019,
      "ĠItalian": 7020,
      "xic": 7021,
      "Ġpow": 7022,
      "eles": 7023,
      "Ġmigr": 7024,
      "Ġwarr": 7025,
      "Ġlean": 7026,
      "roup": 7027,
      "Ġemploying": 7028,
      "Ġdelightful": 7029,
      "Ġhospit": 7030,
      "uity": 7031,
      "Ġconstantly": 7032,
      "ĠPay": 7033,
      "Ġquantum": 7034,
      "Ġmobile": 7035,
      "ĠGet": 7036,
      "class": 7037,
      "Ġphilosophical": 7038,
      "Ġrever": 7039,
      "Ġinterplay": 7040,
      "Ġdisparate": 7041,
      "Ġincreases": 7042,
      "Ġcontainer": 7043,
      "Ġtech": 7044,
      "Ġfans": 7045,
      "emy": 7046,
      "Ġherbs": 7047,
      "ĠSal": 7048,
      "rin": 7049,
      "Ġcollections": 7050,
      "ĠMal": 7051,
      "ĠUniversity": 7052,
      "Ġmedieval": 7053,
      "Ġroutines": 7054,
      "amin": 7055,
      "Ġcerti": 7056,
      "Ġsensors": 7057,
      "ĠPerform": 7058,
      "ongrat": 7059,
      "Ġdangerous": 7060,
      "ĠPractices": 7061,
      "ĠFre": 7062,
      "Ġhearts": 7063,
      "Ġdebate": 7064,
      "Ġexpenses": 7065,
      "Ġcomparing": 7066,
      "Ġtip": 7067,
      "rog": 7068,
      "ĠLong": 7069,
      "ĠMusic": 7070,
      "ĠMost": 7071,
      "yses": 7072,
      "pective": 7073,
      "Ġcomplement": 7074,
      "Ġnumerical": 7075,
      "exual": 7076,
      "mented": 7077,
      "Ġbranch": 7078,
      "ĠConvers": 7079,
      "Ġkitchen": 7080,
      "utive": 7081,
      "Ġmetaph": 7082,
      "ched": 7083,
      "Ġvictim": 7084,
      "ongratulations": 7085,
      "down": 7086,
      "osa": 7087,
      "Ġunlock": 7088,
      "Ġnan": 7089,
      "Ġdistinctive": 7090,
      "Ġrelatable": 7091,
      "Ġdatab": 7092,
      "Ġadoles": 7093,
      "otherapy": 7094,
      "Ġmaps": 7095,
      "Ġpassing": 7096,
      "asters": 7097,
      "ĠYe": 7098,
      "Ġarms": 7099,
      "emes": 7100,
      "----------": 7101,
      "Ġaccompan": 7102,
      "ĠMo": 7103,
      "Ġcriti": 7104,
      "ye": 7105,
      "entists": 7106,
      "Ġenthusiasm": 7107,
      "Ġadvocacy": 7108,
      "Ġadministr": 7109,
      "pson": 7110,
      "Ġtalents": 7111,
      "ĠCentral": 7112,
      "Ġjudgment": 7113,
      "max": 7114,
      "ĠTom": 7115,
      "Ġidentified": 7116,
      "ĠRussia": 7117,
      "acerb": 7118,
      "Ġriver": 7119,
      "Ġvess": 7120,
      "Ġdefining": 7121,
      "Ġbank": 7122,
      "Ġforced": 7123,
      "Ġreduction": 7124,
      "Ġselected": 7125,
      "ĠEv": 7126,
      "enaissance": 7127,
      "ĠAut": 7128,
      "Ġpassionate": 7129,
      "Ġnecessitates": 7130,
      "!)": 7131,
      "ga": 7132,
      "Ġexacerb": 7133,
      "Ġpage": 7134,
      "yle": 7135,
      "Ġversus": 7136,
      "Ġrespectful": 7137,
      "Ġmitigate": 7138,
      "Ġcleaning": 7139,
      "ĠMaria": 7140,
      "Ġsuit": 7141,
      "orph": 7142,
      "Ġtutorial": 7143,
      "Ġpersistent": 7144,
      "ĠAvoid": 7145,
      "AI": 7146,
      "Ġprosper": 7147,
      "Ġmanipulation": 7148,
      "ĠSpirit": 7149,
      "Ġyog": 7150,
      "Ġempowers": 7151,
      "worth": 7152,
      "Ġcooked": 7153,
      "Ġvariety": 7154,
      "Ġgarlic": 7155,
      "Ġrelative": 7156,
      "Ġwinter": 7157,
      "CT": 7158,
      "Ġcodes": 7159,
      "ested": 7160,
      "Cre": 7161,
      "Ġpaying": 7162,
      "Ġbreathtaking": 7163,
      "Ġoral": 7164,
      "tes": 7165,
      "Ġmeanings": 7166,
      "Ġast": 7167,
      "ĠPop": 7168,
      "Ġintegrated": 7169,
      "ĠGuidelines": 7170,
      "ete": 7171,
      "pped": 7172,
      "ĠCulture": 7173,
      "Ġcombinations": 7174,
      "Ġprotocols": 7175,
      "Ġtreats": 7176,
      "Ġstead": 7177,
      "Ġcamera": 7178,
      "Ġdough": 7179,
      "Ġadvantage": 7180,
      "Ġaftern": 7181,
      "ĠSupport": 7182,
      "Ġbalancing": 7183,
      "Ġgenerated": 7184,
      "Ġspreading": 7185,
      "ĠRegularly": 7186,
      "bing": 7187,
      "aping": 7188,
      "Ġdistingu": 7189,
      "ĠEval": 7190,
      "Ġdistress": 7191,
      "Ġchemicals": 7192,
      "greg": 7193,
      "Ġhyper": 7194,
      "Ġsoldiers": 7195,
      "Ġgrav": 7196,
      "load": 7197,
      "Ġgrapple": 7198,
      "Ġrabb": 7199,
      "clusive": 7200,
      "Ġauthenticity": 7201,
      "agues": 7202,
      "Ġextended": 7203,
      "oil": 7204,
      "Ġarchitectural": 7205,
      "erving": 7206,
      "Ġconfront": 7207,
      "From": 7208,
      "theless": 7209,
      "Ġindicate": 7210,
      "ĠSetting": 7211,
      "ĠCor": 7212,
      "Ġauthorities": 7213,
      "ĠPark": 7214,
      "Ġencouraged": 7215,
      "ĠJud": 7216,
      "oken": 7217,
      "Ġgod": 7218,
      "ĠGoogle": 7219,
      "Ġmaximize": 7220,
      "ĠProm": 7221,
      "Ġbuying": 7222,
      "ĠRenaissance": 7223,
      "Ġromance": 7224,
      "Ġvisualize": 7225,
      "Ġvigil": 7226,
      "Ġemissions": 7227,
      "umph": 7228,
      "Ġtherm": 7229,
      "Ġagreement": 7230,
      "ĠUnion": 7231,
      "omin": 7232,
      "rices": 7233,
      "Ġtransformations": 7234,
      "Ġgratitude": 7235,
      "Ġconducted": 7236,
      "met": 7237,
      "Ġplenty": 7238,
      "Ġsimilarities": 7239,
      "Ġscatter": 7240,
      "bra": 7241,
      "Ġmillion": 7242,
      "Ġgirls": 7243,
      "anes": 7244,
      "Ġconsent": 7245,
      "size": 7246,
      "Ġstem": 7247,
      "Ġgrounded": 7248,
      "gender": 7249,
      "Ġmedications": 7250,
      "olut": 7251,
      "Ġaudio": 7252,
      "ij": 7253,
      "Ġdomains": 7254,
      "Ġradiation": 7255,
      "Ġeconomics": 7256,
      "iform": 7257,
      "ste": 7258,
      "pted": 7259,
      "drop": 7260,
      "Pl": 7261,
      "ĠChange": 7262,
      "att": 7263,
      "Ġcategory": 7264,
      "Ġbegins": 7265,
      "ĠEnter": 7266,
      "Ġimpressive": 7267,
      "Ġdrop": 7268,
      "wood": 7269,
      "Ġbattle": 7270,
      "ifts": 7271,
      "AP": 7272,
      "Ġsurrounded": 7273,
      "ascular": 7274,
      "ĠAbs": 7275,
      "Ġanthrop": 7276,
      "Ġwearing": 7277,
      "='": 7278,
      "Ġequation": 7279,
      "Sc": 7280,
      "wing": 7281,
      "Ġsmartph": 7282,
      "Ġinvestments": 7283,
      "Ġflexible": 7284,
      "Ġorientation": 7285,
      "Ġstreets": 7286,
      "oric": 7287,
      "ĠIsland": 7288,
      "Ġshown": 7289,
      "ĠPal": 7290,
      "Ġparks": 7291,
      "Ġathle": 7292,
      "ĠCommunity": 7293,
      "Ġdelivering": 7294,
      "Ġperfectly": 7295,
      "Ġbiblical": 7296,
      "Ġnarrow": 7297,
      "arking": 7298,
      "ĠThanks": 7299,
      "jective": 7300,
      "Ġstatements": 7301,
      "Ġcycle": 7302,
      "Ġbaby": 7303,
      "Ġgrass": 7304,
      "Ġcash": 7305,
      "Ġacting": 7306,
      "Ġhuge": 7307,
      "Ġseamlessly": 7308,
      "Ġdecl": 7309,
      "Ġpeaceful": 7310,
      "Ġparad": 7311,
      "ĠAssess": 7312,
      "ilemm": 7313,
      "Ġrati": 7314,
      "Ġpose": 7315,
      "Ġmoisture": 7316,
      "Ġradio": 7317,
      "Ġintended": 7318,
      "cohol": 7319,
      "Ġanalyses": 7320,
      "Ġhonor": 7321,
      "pled": 7322,
      "Ġobtain": 7323,
      "Ġpepper": 7324,
      "ĠOther": 7325,
      "Le": 7326,
      "Ġhouses": 7327,
      "Ġempir": 7328,
      "Ġweaknesses": 7329,
      "Ġdilig": 7330,
      "oves": 7331,
      "ww": 7332,
      "Ġdiscipline": 7333,
      "Ġped": 7334,
      "Ġcohes": 7335,
      "Ġlikelihood": 7336,
      "Ġdiplom": 7337,
      "iances": 7338,
      "Ġmotor": 7339,
      "Ġconfusion": 7340,
      "ĠAncient": 7341,
      "Ġsend": 7342,
      "ĠJack": 7343,
      "Ġjoining": 7344,
      "Ġadjustments": 7345,
      "dep": 7346,
      "ecurity": 7347,
      "ĠPublic": 7348,
      "Ġbiology": 7349,
      "ĠPrepare": 7350,
      "olf": 7351,
      "Ġrelief": 7352,
      "Ġrefuge": 7353,
      "Ġorganizational": 7354,
      "Ġnerv": 7355,
      "Ġexplorers": 7356,
      "ĠAlso": 7357,
      "Ġshop": 7358,
      "ien": 7359,
      "Ġaverage": 7360,
      "Ġtire": 7361,
      "Ġpond": 7362,
      "train": 7363,
      "iency": 7364,
      "Ġmeasuring": 7365,
      "ensor": 7366,
      "Ġfears": 7367,
      "ooked": 7368,
      "Ġaccident": 7369,
      "exist": 7370,
      "Ġadaptations": 7371,
      "Ġafternoon": 7372,
      "Ġbiod": 7373,
      "Ġreceiving": 7374,
      "Ġcommand": 7375,
      "bies": 7376,
      "cons": 7377,
      "omfort": 7378,
      "Ġarrays": 7379,
      "Ġoffice": 7380,
      "Ġrecommendations": 7381,
      "Ġbeneficial": 7382,
      "ĠHind": 7383,
      "Ġdialogues": 7384,
      "Ġdouble": 7385,
      "ĠNext": 7386,
      "Ġgenerating": 7387,
      "ĠMaking": 7388,
      "Ġconventions": 7389,
      "Ġancestors": 7390,
      "Ġbottom": 7391,
      "Ġconstruct": 7392,
      "Ġcyber": 7393,
      "Ġperception": 7394,
      "Ġwarfare": 7395,
      "ĠHey": 7396,
      "Ġjuris": 7397,
      "Ġfacial": 7398,
      "ĠDo": 7399,
      "crib": 7400,
      "Ġpassage": 7401,
      "ĠOthers": 7402,
      "Ġconfidently": 7403,
      "ĠFe": 7404,
      "Ġsucceed": 7405,
      "ĠTypes": 7406,
      "Ġseeks": 7407,
      "Ġoverwhelming": 7408,
      "ossible": 7409,
      "Ġaddiction": 7410,
      "Ġstewardship": 7411,
      "ĠEmerg": 7412,
      "Ġelect": 7413,
      "Ġitem": 7414,
      "Ġupdates": 7415,
      "Ġchose": 7416,
      "Ġconducting": 7417,
      "Col": 7418,
      "Ġround": 7419,
      "Ġcarrying": 7420,
      "ĠFun": 7421,
      "atric": 7422,
      "Ġwarmth": 7423,
      "Ġreminder": 7424,
      "Ġtargeting": 7425,
      "mentation": 7426,
      "Ġparameter": 7427,
      "ĠIsrael": 7428,
      "Ġcombination": 7429,
      "Ġsuperhero": 7430,
      "ĠNevertheless": 7431,
      "Ġweren": 7432,
      "urring": 7433,
      "ĠInsp": 7434,
      "lets": 7435,
      "Ġmorning": 7436,
      "Ġmanipulate": 7437,
      "Ġrevealed": 7438,
      "aker": 7439,
      "Ġintroduction": 7440,
      "Ġclient": 7441,
      "irations": 7442,
      "avery": 7443,
      "Ġpione": 7444,
      "Ġteeth": 7445,
      "arad": 7446,
      "Ġisolation": 7447,
      "atching": 7448,
      "Ġcompassionate": 7449,
      "Ġguided": 7450,
      "Course": 7451,
      "Ġcas": 7452,
      "pan": 7453,
      "Ġbill": 7454,
      "ĠChurch": 7455,
      "Ġregression": 7456,
      "allow": 7457,
      "Ġrespecting": 7458,
      "Ġtables": 7459,
      "omic": 7460,
      "ĠOnline": 7461,
      "Ġstood": 7462,
      "Ġfunding": 7463,
      "oma": 7464,
      "inc": 7465,
      "ĠInves": 7466,
      "ĠRet": 7467,
      "Ġfancy": 7468,
      "Ġintr": 7469,
      "Ġcomputational": 7470,
      "Ġunderscore": 7471,
      "'m": 7472,
      "Ġtea": 7473,
      "rest": 7474,
      "Ġhorm": 7475,
      "Ġspirits": 7476,
      "Ġdisturb": 7477,
      "Ġobjective": 7478,
      "Ġconstructing": 7479,
      "OS": 7480,
      "Ġemotionally": 7481,
      "ĠJohnson": 7482,
      "DS": 7483,
      "ĠUnder": 7484,
      "ĠBrit": 7485,
      "Ġdism": 7486,
      "Ġbrains": 7487,
      "nings": 7488,
      "ĠCath": 7489,
      "ĠEngine": 7490,
      "Ġquestioning": 7491,
      "Ġappealing": 7492,
      "Mod": 7493,
      "iliation": 7494,
      "Ġagricultural": 7495,
      "Ġembedd": 7496,
      "ificent": 7497,
      "Ġnonfiction": 7498,
      "ĠPrepar": 7499,
      "Ġhabitat": 7500,
      "Ġstable": 7501,
      "Ġreveals": 7502,
      "riad": 7503,
      "tically": 7504,
      "Ġgave": 7505,
      "roscop": 7506,
      "ĠGlobal": 7507,
      "ube": 7508,
      "Ġstored": 7509,
      "ĠOwn": 7510,
      "ĠSuccess": 7511,
      "Ġgrappling": 7512,
      "Ġcompati": 7513,
      "oung": 7514,
      "ĠAssoci": 7515,
      "power": 7516,
      "Ġtransactions": 7517,
      "Ġsaving": 7518,
      "anches": 7519,
      "state": 7520,
      "Ġbrown": 7521,
      "Ġcin": 7522,
      "Ġbias": 7523,
      "Ġimplemented": 7524,
      "brid": 7525,
      "Ġrealizing": 7526,
      "Ġunnecessary": 7527,
      "Ġinstruction": 7528,
      "Ġtrend": 7529,
      "Ġimagined": 7530,
      "olutely": 7531,
      "Ġvocabulary": 7532,
      "uests": 7533,
      "Ġexplicitly": 7534,
      "Ġvehicle": 7535,
      "Ġversatile": 7536,
      "isely": 7537,
      "Ġdisability": 7538,
      "Ġboost": 7539,
      "rome": 7540,
      "ault": 7541,
      "Ġpaintings": 7542,
      "Ġadver": 7543,
      "abetes": 7544,
      "Ġfingers": 7545,
      "real": 7546,
      "Ġfilling": 7547,
      "ĠGrad": 7548,
      "ĠIdentity": 7549,
      "Ġbridge": 7550,
      "itely": 7551,
      "Ġdate": 7552,
      "Ġdietary": 7553,
      "Ġobservation": 7554,
      "Ġstatement": 7555,
      "Ġbike": 7556,
      "Ġsparked": 7557,
      "lin": 7558,
      "âĢĵ": 7559,
      "Ġench": 7560,
      "ĠMaterial": 7561,
      "Ġopenly": 7562,
      "Ġcopy": 7563,
      "Ġincredibly": 7564,
      "ĠSpace": 7565,
      "Ġinflamm": 7566,
      "Ġlatest": 7567,
      "Ġbiodiversity": 7568,
      "Ġsurgery": 7569,
      "Ġfinance": 7570,
      "ĠDefining": 7571,
      "Ġendeavors": 7572,
      "Ġvalued": 7573,
      "Ġcrops": 7574,
      "nov": 7575,
      "Ġgolden": 7576,
      "Ġdiscomfort": 7577,
      "Ġpuzzle": 7578,
      "Ġunderscores": 7579,
      "Ġtaxes": 7580,
      "Ġdinner": 7581,
      "Ġcorporate": 7582,
      "ĠDefin": 7583,
      "ĠEngage": 7584,
      "olved": 7585,
      "ĠAllow": 7586,
      "Ġtransmission": 7587,
      "Ġmagnificent": 7588,
      "ĠThose": 7589,
      "Ġteamwork": 7590,
      "Ġenjoyed": 7591,
      "Ġmyriad": 7592,
      "Ġinven": 7593,
      "ĠEgypt": 7594,
      "Ġtransitions": 7595,
      "Ġsexuality": 7596,
      "ĠOl": 7597,
      "Ġacadem": 7598,
      "Ġbot": 7599,
      "Ġmixing": 7600,
      "Ġadherence": 7601,
      "anship": 7602,
      "Ġlaunch": 7603,
      "ĠLim": 7604,
      "Ġgrid": 7605,
      "roductive": 7606,
      "Ġattacks": 7607,
      "Ġcompliance": 7608,
      "Ġaqu": 7609,
      "Ġtriumph": 7610,
      "elfare": 7611,
      "ĠThompson": 7612,
      "ĠSun": 7613,
      "Ġstone": 7614,
      "Ġexplan": 7615,
      "Ġopens": 7616,
      "iam": 7617,
      "atever": 7618,
      "inding": 7619,
      "Ġrelate": 7620,
      "ergies": 7621,
      "Ġbra": 7622,
      "ĠDNA": 7623,
      "Ġjoined": 7624,
      "Ġtheater": 7625,
      "Ġcaring": 7626,
      "Ġvacc": 7627,
      "Ġmac": 7628,
      "Ġinviting": 7629,
      "ella": 7630,
      "Ġcycles": 7631,
      "ĠCE": 7632,
      "Ġvolume": 7633,
      "erals": 7634,
      "Ġreinforcing": 7635,
      "Ġplacing": 7636,
      "Ġrivers": 7637,
      "arming": 7638,
      "Ġrough": 7639,
      "ĠState": 7640,
      "Ġuncom": 7641,
      "Ġcontract": 7642,
      "Ġaside": 7643,
      "ieties": 7644,
      "Ġempath": 7645,
      "Ġsupernatural": 7646,
      "claim": 7647,
      "night": 7648,
      "ĠHarm": 7649,
      "sum": 7650,
      "Ġskep": 7651,
      ".)": 7652,
      "Ġpresenting": 7653,
      "Ġstro": 7654,
      "Ġfinds": 7655,
      "Ġeleg": 7656,
      "Ġsugges": 7657,
      "aze": 7658,
      "Ġillnesses": 7659,
      "ĠMovement": 7660,
      "ĠMicro": 7661,
      "fast": 7662,
      "mind": 7663,
      "Ġfather": 7664,
      "Ġrestrictions": 7665,
      "ĠExample": 7666,
      "Ġsolidarity": 7667,
      "Ġdetermined": 7668,
      "ĠAuth": 7669,
      "Ġhaven": 7670,
      "ĠRich": 7671,
      "that": 7672,
      "fortable": 7673,
      "ĠDoc": 7674,
      "Ġoutcome": 7675,
      "Ġbattles": 7676,
      "ĠOld": 7677,
      "Ġgiant": 7678,
      "Ġreporting": 7679,
      "Ġacquis": 7680,
      "Ġmissing": 7681,
      "Ġease": 7682,
      "Ġpharm": 7683,
      "Ġconstructive": 7684,
      "//": 7685,
      "ĠRespons": 7686,
      "rame": 7687,
      "Ġdilemm": 7688,
      "cy": 7689,
      "ĠDrawing": 7690,
      "Ġimaging": 7691,
      "Ġwilling": 7692,
      "ĠDist": 7693,
      "ipe": 7694,
      "amps": 7695,
      "arter": 7696,
      "ĠOper": 7697,
      "Ġshopping": 7698,
      "Ġmoti": 7699,
      "Ġhandy": 7700,
      "ĠConnection": 7701,
      "ĠEvent": 7702,
      "Ġtalented": 7703,
      "ammy": 7704,
      "Ġtrained": 7705,
      "Ġbowl": 7706,
      "ĠMich": 7707,
      "ĠMia": 7708,
      "Ġimpl": 7709,
      "Ġroutes": 7710,
      "Ġsearching": 7711,
      "ao": 7712,
      "ographies": 7713,
      "Ġpride": 7714,
      "pha": 7715,
      "Ġboy": 7716,
      "rown": 7717,
      "Ġfirsthand": 7718,
      "Ġstock": 7719,
      "edia": 7720,
      "Ġisland": 7721,
      "Ġapplicable": 7722,
      "Ġastr": 7723,
      "Ġfut": 7724,
      "position": 7725,
      "Ġweights": 7726,
      "Ġindependently": 7727,
      "Ġhighlighted": 7728,
      "Ġtempor": 7729,
      "Ġallev": 7730,
      "Ġhonest": 7731,
      "ounced": 7732,
      "Ġquest": 7733,
      "Ġkid": 7734,
      "Ġpassions": 7735,
      "Ġdegree": 7736,
      "Ġswitch": 7737,
      "ĠFriend": 7738,
      "Ġvillage": 7739,
      "Ġguarant": 7740,
      "Ind": 7741,
      "Ġempowering": 7742,
      "Ġrealistic": 7743,
      "itude": 7744,
      "Ġreturned": 7745,
      "ĠIdentifying": 7746,
      "Ġassessments": 7747,
      "Ġexperiments": 7748,
      "Ġchurch": 7749,
      "ĠUnderstand": 7750,
      "ato": 7751,
      "Ġfunctioning": 7752,
      "Ġindicates": 7753,
      "Ġtasty": 7754,
      "Ġregim": 7755,
      "Ġlosses": 7756,
      "Ġprayer": 7757,
      "Ġgrains": 7758,
      "Ġcourses": 7759,
      "Ġeight": 7760,
      "ocate": 7761,
      "Ġcups": 7762,
      "Ġprejud": 7763,
      "Ġseamless": 7764,
      "ucid": 7765,
      "Ġconfigur": 7766,
      "ĠExploration": 7767,
      "Ġenforcement": 7768,
      "Ġsettle": 7769,
      "AD": 7770,
      "Ġtraject": 7771,
      "ishment": 7772,
      "lity": 7773,
      "Ġwire": 7774,
      "Ġembedded": 7775,
      "trans": 7776,
      "Ġorganize": 7777,
      "ER": 7778,
      "araderie": 7779,
      "Ġpuzzles": 7780,
      "Ġmetrics": 7781,
      "App": 7782,
      "Ġdetective": 7783,
      "Ġstatistics": 7784,
      "Ġcreature": 7785,
      "ĠAltern": 7786,
      "Ġqueer": 7787,
      "Ġracism": 7788,
      "ĠPo": 7789,
      "Ġfluct": 7790,
      "Ġtalent": 7791,
      "gments": 7792,
      "Ġnotion": 7793,
      "Ġwatched": 7794,
      "Ġformer": 7795,
      "antic": 7796,
      "ĠDifferent": 7797,
      "Ġrecycl": 7798,
      "Ġhobbies": 7799,
      "Ġdomain": 7800,
      "Ġinstalled": 7801,
      "ustain": 7802,
      "Ġinterviews": 7803,
      "illa": 7804,
      "Ġpeer": 7805,
      "Ġlic": 7806,
      "Ġshoes": 7807,
      "Ġgear": 7808,
      "ĠParticip": 7809,
      "Ġcookies": 7810,
      "date": 7811,
      "portion": 7812,
      "ĠCharacter": 7813,
      "Guid": 7814,
      "Ġdiction": 7815,
      "ĠRedd": 7816,
      "Ġweapons": 7817,
      "Ġample": 7818,
      "auss": 7819,
      "Ġemergency": 7820,
      "ĠGold": 7821,
      "lore": 7822,
      "ĠSuddenly": 7823,
      "discovery": 7824,
      "ĠConsiderations": 7825,
      "Ġcamaraderie": 7826,
      "ĠApproach": 7827,
      "Ġchat": 7828,
      "ĠImpro": 7829,
      "ĠMor": 7830,
      "Ġloyalty": 7831,
      "Ġglance": 7832,
      "Ġloud": 7833,
      "Ġaccum": 7834,
      "Ġaggress": 7835,
      "Ġdogs": 7836,
      "ĠAbout": 7837,
      "ĠReading": 7838,
      "Ġoutdoor": 7839,
      "ĠCul": 7840,
      "Ġidentification": 7841,
      "Ġdepart": 7842,
      "face": 7843,
      "aith": 7844,
      "Ġtourism": 7845,
      "ummy": 7846,
      "Ġdro": 7847,
      "ĠFil": 7848,
      "Ġprem": 7849,
      "Ġcerem": 7850,
      "ĠRelev": 7851,
      "Ġprofiles": 7852,
      "Ġallevi": 7853,
      "Ġmonth": 7854,
      "kay": 7855,
      "ĠBo": 7856,
      "Ġglobally": 7857,
      "ĠTip": 7858,
      "dri": 7859,
      "gredients": 7860,
      "Ġpressures": 7861,
      "Ġdetect": 7862,
      "Ġconvert": 7863,
      "angle": 7864,
      "arious": 7865,
      "umpy": 7866,
      "Ġcrisis": 7867,
      "Ġadoption": 7868,
      "Ġmagnetic": 7869,
      "Ġmedication": 7870,
      "ĠAdvent": 7871,
      "Ġavenues": 7872,
      "ĠPress": 7873,
      "ĠControl": 7874,
      "Ġhundreds": 7875,
      "level": 7876,
      "Ã¡": 7877,
      "zed": 7878,
      "Ġtight": 7879,
      "Ġmobility": 7880,
      "zer": 7881,
      "df": 7882,
      "Ġsmile": 7883,
      "Ġtargets": 7884,
      "Ġecosystem": 7885,
      "Ġneut": 7886,
      "Ġharnessing": 7887,
      "ĠThough": 7888,
      "ĠTer": 7889,
      "essor": 7890,
      "Ġcherished": 7891,
      "Ġchecks": 7892,
      "Ġlegend": 7893,
      "Es": 7894,
      "ĠFactors": 7895,
      "Ġpregn": 7896,
      "Ġintensity": 7897,
      "Ġpenc": 7898,
      "Ġacid": 7899,
      "Ġdestr": 7900,
      "Ġreviews": 7901,
      "illy": 7902,
      "Ġinhabitants": 7903,
      "Ġlaid": 7904,
      "ĠHold": 7905,
      "word": 7906,
      "tible": 7907,
      "omial": 7908,
      "Ġmechanics": 7909,
      "usc": 7910,
      "Ġsuggesting": 7911,
      "redient": 7912,
      "ĠSuper": 7913,
      "Ġextend": 7914,
      "alia": 7915,
      "Ġpig": 7916,
      "Ġrefining": 7917,
      "ĠNature": 7918,
      "Ġformats": 7919,
      "Ġcompleting": 7920,
      "Ġbranches": 7921,
      "box": 7922,
      "Ġlose": 7923,
      "Ġtone": 7924,
      "Ġpric": 7925,
      "Ġmodes": 7926,
      "Ġbridges": 7927,
      "ĠQues": 7928,
      "Ġtelev": 7929,
      "Ġnearly": 7930,
      "ĠWriting": 7931,
      "Ġbasket": 7932,
      "sm": 7933,
      "ferences": 7934,
      "igm": 7935,
      "Ġwooden": 7936,
      "Ġecho": 7937,
      "Ġtangible": 7938,
      "Ġdatasets": 7939,
      "lor": 7940,
      "Ġrub": 7941,
      "oviet": 7942,
      "Ġdistant": 7943,
      "Ġrenowned": 7944,
      "Ġwall": 7945,
      "ĠSte": 7946,
      "Ġmolecules": 7947,
      "ticultural": 7948,
      "Ġputting": 7949,
      "Ġadaptive": 7950,
      "Hist": 7951,
      "Ġalignment": 7952,
      "ĠEss": 7953,
      "Ġopened": 7954,
      "gettable": 7955,
      "Ġven": 7956,
      "ĠBody": 7957,
      "ĠPlan": 7958,
      "Ġlegs": 7959,
      "Ġrocks": 7960,
      "axis": 7961,
      "Ġmeets": 7962,
      "num": 7963,
      "pty": 7964,
      "Ġspoken": 7965,
      "VID": 7966,
      "Ġprofit": 7967,
      "Ġparallels": 7968,
      "edy": 7969,
      "ĠRecent": 7970,
      "manship": 7971,
      "Ġsentences": 7972,
      "Ġgast": 7973,
      "ĠHelp": 7974,
      "Ġappears": 7975,
      "Ġaccel": 7976,
      "Ġsession": 7977,
      "Ġreports": 7978,
      "Ġtherapies": 7979,
      "Se": 7980,
      "`:": 7981,
      "Ġposes": 7982,
      "Ġguides": 7983,
      "ĠDev": 7984,
      "ĠSuppose": 7985,
      "Ġempirical": 7986,
      "anda": 7987,
      "Ġexpanded": 7988,
      "Ġgardening": 7989,
      "Ġsafeguarding": 7990,
      "ĠCool": 7991,
      "Ġloop": 7992,
      "Ġdoll": 7993,
      "Ġmarks": 7994,
      "ĠBritain": 7995,
      "Ġhunting": 7996,
      "Ġcardi": 7997,
      "Ġhistoric": 7998,
      "bor": 7999,
      "gets": 8000,
      "Ġpit": 8001,
      "illance": 8002,
      "ĠHum": 8003,
      "Ġalcohol": 8004,
      "Ġgardens": 8005,
      "Ġunt": 8006,
      "Ġtransmit": 8007,
      "Ġfurn": 8008,
      "Ġdescriptions": 8009,
      "ĠDeveloping": 8010,
      "ND": 8011,
      "ĠLuc": 8012,
      "Ġeverywhere": 8013,
      "Ġclarity": 8014,
      "Ġconfirm": 8015,
      "Ġpursuits": 8016,
      "Ġune": 8017,
      "Ġcalculated": 8018,
      "nel": 8019,
      "Ġimmigration": 8020,
      "Ġsentence": 8021,
      "Ġride": 8022,
      "Ġrefine": 8023,
      "Ġcircles": 8024,
      "estim": 8025,
      "Ġreplace": 8026,
      "ĠCour": 8027,
      "ĠBi": 8028,
      "gebra": 8029,
      "Ġallocation": 8030,
      "Ġupdate": 8031,
      "iblings": 8032,
      "ĠNeed": 8033,
      "thetic": 8034,
      "aked": 8035,
      "ĠInvestig": 8036,
      "Ġrenewed": 8037,
      "Ġgramm": 8038,
      "ictive": 8039,
      "Ġrend": 8040,
      "Ġposed": 8041,
      "Ġpec": 8042,
      "iforn": 8043,
      "Ġanymore": 8044,
      "Ġoven": 8045,
      "Ġscal": 8046,
      "Ġmeetings": 8047,
      "Ġpropag": 8048,
      "Ġlung": 8049,
      "Ġcompens": 8050,
      "Cont": 8051,
      "Cons": 8052,
      "facts": 8053,
      "ĠTherapy": 8054,
      "Ġfur": 8055,
      "Ġruns": 8056,
      "Ġspots": 8057,
      "through": 8058,
      "ĠJames": 8059,
      "log": 8060,
      "Ġcontempl": 8061,
      "Ġbrill": 8062,
      "abs": 8063,
      "tility": 8064,
      "ĠDirections": 8065,
      "Ġaspirations": 8066,
      "ague": 8067,
      "ĠComple": 8068,
      "Ġdemocratic": 8069,
      "Ġproficiency": 8070,
      "Ġspr": 8071,
      "Ġreasoning": 8072,
      "Ġcoc": 8073,
      "Ġflood": 8074,
      "Ġplate": 8075,
      "ĠCanadian": 8076,
      "Ġtreasure": 8077,
      "Ġactivism": 8078,
      "Ġbold": 8079,
      "Ġadopted": 8080,
      "ĠBra": 8081,
      "Ġmort": 8082,
      "ĠMix": 8083,
      "Ġoblig": 8084,
      "ĠIndeed": 8085,
      "ĠIndust": 8086,
      "ĠActiv": 8087,
      "ius": 8088,
      "Ġresponsibly": 8089,
      "Ġexecution": 8090,
      "Ġemergence": 8091,
      "books": 8092,
      "minded": 8093,
      "Ġflash": 8094,
      "Ġtranscend": 8095,
      "Ġunwanted": 8096,
      "Ġaffordable": 8097,
      "Congratulations": 8098,
      "Ġtoler": 8099,
      "rogen": 8100,
      "ĠRelig": 8101,
      "Ġcompromising": 8102,
      "Ġlistened": 8103,
      "Ġcovering": 8104,
      "Ġspirituality": 8105,
      "ĠBalancing": 8106,
      "Ġbone": 8107,
      "Ġaloud": 8108,
      "Ġjurisd": 8109,
      "Ġburd": 8110,
      "ĠVe": 8111,
      "Over": 8112,
      "Ġuniqu": 8113,
      "Ġwelfare": 8114,
      "Ġmechanical": 8115,
      "Ġol": 8116,
      "Ġencompasses": 8117,
      "Ġhorizons": 8118,
      "itors": 8119,
      "Ġmythology": 8120,
      "Ġunforgettable": 8121,
      "Ġdefense": 8122,
      "fied": 8123,
      "ĠMrs": 8124,
      "Ġcompositions": 8125,
      "ĠJourney": 8126,
      "gans": 8127,
      "Ġinterpersonal": 8128,
      "trig": 8129,
      "Ġborrow": 8130,
      "Ġcourts": 8131,
      "Ġsin": 8132,
      "Ġcoding": 8133,
      "Ġreminded": 8134,
      "Ġgaining": 8135,
      "Ġmotifs": 8136,
      "Ġaesthetic": 8137,
      "utter": 8138,
      "ĠYoung": 8139,
      "Ġneur": 8140,
      "Ġmeasurements": 8141,
      "Ġpaid": 8142,
      "CD": 8143,
      "Ġformula": 8144,
      "ML": 8145,
      "Ġprivile": 8146,
      "Ġwine": 8147,
      "Ġcategor": 8148,
      "Ġlunch": 8149,
      "Ġestate": 8150,
      "Ġimpossible": 8151,
      "Ġzero": 8152,
      "Ġeconomies": 8153,
      "Ġdrugs": 8154,
      "Ġtele": 8155,
      "ĠViet": 8156,
      "Ġstatistical": 8157,
      "Ġchecking": 8158,
      "Ġachieved": 8159,
      "Ġreference": 8160,
      "Ġentry": 8161,
      "ĠDav": 8162,
      "isk": 8163,
      "ĠGraph": 8164,
      "Ġfailure": 8165,
      "awareness": 8166,
      "Ġbones": 8167,
      "umin": 8168,
      "Ġmotivations": 8169,
      "Ġvulnerability": 8170,
      "ĠPac": 8171,
      "ĠObs": 8172,
      "Ġrecommended": 8173,
      "ĠMary": 8174,
      "ander": 8175,
      "Ġsati": 8176,
      "Ġraises": 8177,
      "Ġfertile": 8178,
      "Ġexploitation": 8179,
      "ĠCr": 8180,
      "Ġmolecular": 8181,
      "away": 8182,
      "ĠGrow": 8183,
      "Ġdemocracy": 8184,
      "Ġroads": 8185,
      "Ġmorality": 8186,
      "Ġâ": 8187,
      "ĠIr": 8188,
      "tains": 8189,
      "ologist": 8190,
      "ĠDet": 8191,
      "Ġhorse": 8192,
      "Ġadverse": 8193,
      "Ġuncomfortable": 8194,
      "Ġrepair": 8195,
      "ception": 8196,
      "ser": 8197,
      "Ġadjusting": 8198,
      "AC": 8199,
      "Ġcrimes": 8200,
      "etit": 8201,
      "Ġevening": 8202,
      "Ġadministration": 8203,
      "ĠLead": 8204,
      "Ġcolleagues": 8205,
      "intage": 8206,
      "ptions": 8207,
      "ĠMedical": 8208,
      "usive": 8209,
      "Ġintu": 8210,
      "ĠFost": 8211,
      "Ġacknowledge": 8212,
      "Ġcoastal": 8213,
      "Ġscore": 8214,
      "Ġcart": 8215,
      "ĠRom": 8216,
      "ĠImplementing": 8217,
      "Ġasser": 8218,
      "aval": 8219,
      "Ġpin": 8220,
      "ĠCOVID": 8221,
      "Ġsuscep": 8222,
      "Ġadapted": 8223,
      "ĠAtt": 8224,
      "eal": 8225,
      "comp": 8226,
      "iff": 8227,
      "Ġprinciple": 8228,
      "Ġangles": 8229,
      "ĠCaliforn": 8230,
      "ka": 8231,
      "Ġimmun": 8232,
      "Ġsectors": 8233,
      "Ġdegrees": 8234,
      "Ġguests": 8235,
      "Ġideologies": 8236,
      "Ġties": 8237,
      "Ġevoke": 8238,
      "Ġabund": 8239,
      "Ġrenewable": 8240,
      "Ġnone": 8241,
      "Ġpoem": 8242,
      "Ġdesires": 8243,
      "ĠShould": 8244,
      "Ġtomorrow": 8245,
      "ĠFamily": 8246,
      "ruption": 8247,
      "Ġfreely": 8248,
      "Ġrhythm": 8249,
      "ĠSy": 8250,
      "words": 8251,
      "list": 8252,
      "ematic": 8253,
      "Ġtribes": 8254,
      "ĠFamiliarize": 8255,
      "Ġelder": 8256,
      "irms": 8257,
      "Ġnuclear": 8258,
      "Ġfairly": 8259,
      "Ġcomment": 8260,
      "asty": 8261,
      "Ġlegacies": 8262,
      "Ġfinished": 8263,
      "Ġunfair": 8264,
      "Ġspoke": 8265,
      "Ġiter": 8266,
      "ĠOffer": 8267,
      "ĠUr": 8268,
      "Ġresilient": 8269,
      "Ġschedules": 8270,
      "Ġoppression": 8271,
      "Ġanalytics": 8272,
      "ĠSoviet": 8273,
      "My": 8274,
      "lections": 8275,
      "Ġpursuit": 8276,
      "Ġreader": 8277,
      "Ġbear": 8278,
      "Im": 8279,
      "Ġoccurred": 8280,
      "iders": 8281,
      "tral": 8282,
      "Ġconcrete": 8283,
      "Ġingredient": 8284,
      "Ġterrain": 8285,
      "Ġhuh": 8286,
      "Ġspeakers": 8287,
      "Ġmastery": 8288,
      "ambling": 8289,
      "ĠHome": 8290,
      "Ġembod": 8291,
      "Firstly": 8292,
      "Ġpizz": 8293,
      "ĠFour": 8294,
      "Ġmilest": 8295,
      "Ġprosperity": 8296,
      "obi": 8297,
      "\"?": 8298,
      "Ġsupported": 8299,
      "Ġlocally": 8300,
      "Ġexperimenting": 8301,
      "Ġunknown": 8302,
      "ployment": 8303,
      "Ġhardware": 8304,
      "Ġmarriage": 8305,
      "host": 8306,
      "Ġmountains": 8307,
      "RI": 8308,
      "efits": 8309,
      "Ġslavery": 8310,
      "Ġpathways": 8311,
      "ĠExactly": 8312,
      "Ġminerals": 8313,
      "Ġepis": 8314,
      "Ġdefinitions": 8315,
      "Cur": 8316,
      "Ġmodifications": 8317,
      "Ġattempts": 8318,
      "Ġhospitals": 8319,
      "Ġpreferred": 8320,
      "Ġdistrac": 8321,
      "ĠMexico": 8322,
      "Ġstrengthens": 8323,
      "Ġphotographs": 8324,
      "quis": 8325,
      "Ġwherein": 8326,
      "ĠRussian": 8327,
      "Ġarising": 8328,
      "Ġchefs": 8329,
      "Ġorigin": 8330,
      "Ġhards": 8331,
      "Ġbackdrop": 8332,
      "giene": 8333,
      "Ġrecall": 8334,
      "Ġbag": 8335,
      "generational": 8336,
      "uations": 8337,
      "ĠVietnam": 8338,
      "ĠCarl": 8339,
      "Ġdress": 8340,
      "Ġstir": 8341,
      "ora": 8342,
      "Ġsiblings": 8343,
      "Ġlocals": 8344,
      "Ġcycl": 8345,
      "evolving": 8346,
      "ĠAir": 8347,
      "Ġchamp": 8348,
      "Ġrevenue": 8349,
      "Ġlas": 8350,
      "ava": 8351,
      "Ġvisualization": 8352,
      "Ġspanning": 8353,
      "Ġcelebration": 8354,
      "ĠPhot": 8355,
      "Ġplt": 8356,
      "Ġtomat": 8357,
      "Ġrepeated": 8358,
      "iph": 8359,
      "umps": 8360,
      "ÃŃ": 8361,
      "Ġdancing": 8362,
      "Ġends": 8363,
      "Ġarmed": 8364,
      "ĠSpain": 8365,
      "ĠRepresent": 8366,
      "ĠRiver": 8367,
      "stone": 8368,
      "Ġmethodologies": 8369,
      "ĠItaly": 8370,
      "eding": 8371,
      "imate": 8372,
      "Ġmatrices": 8373,
      "Ġmand": 8374,
      "Ġgifts": 8375,
      "Ġcommunal": 8376,
      "Ġparallel": 8377,
      "^{": 8378,
      "Ġdrama": 8379,
      "Ġtitles": 8380,
      "Ġanalytical": 8381,
      "ĠMach": 8382,
      "Ġelucid": 8383,
      "Ġlawy": 8384,
      "Ġscores": 8385,
      "weight": 8386,
      "ĠBetween": 8387,
      "ĠGeorge": 8388,
      "Ġtrials": 8389,
      "\".": 8390,
      "Ġclay": 8391,
      "Ġtrading": 8392,
      "ĠHand": 8393,
      "ĠInteraction": 8394,
      "Ġvan": 8395,
      "ĠCompar": 8396,
      "-------------------------------": 8397,
      "Ġsequences": 8398,
      "Ġmisunderstand": 8399,
      "made": 8400,
      "ĠEnh": 8401,
      "rosp": 8402,
      "Ġnob": 8403,
      "Ġartifacts": 8404,
      "Ġdiabetes": 8405,
      "ĠInnov": 8406,
      "ateful": 8407,
      "ĠCooking": 8408,
      "Based": 8409,
      "ciples": 8410,
      "Ġdriven": 8411,
      "uliar": 8412,
      "Ġrej": 8413,
      "Ġship": 8414,
      "[:": 8415,
      "Ġrelies": 8416,
      "Ġplots": 8417,
      "Ġconqu": 8418,
      "Ġstorm": 8419,
      "ĠSafety": 8420,
      "Ġcollected": 8421,
      "\":": 8422,
      "Ġfu": 8423,
      "Ġstruggled": 8424,
      "Ġattributes": 8425,
      "Ġcandidates": 8426,
      "ulum": 8427,
      "gl": 8428,
      "Ġprotagonists": 8429,
      "ED": 8430,
      "Ġglobalization": 8431,
      "eteenth": 8432,
      "Ġdisagreements": 8433,
      "Ġdisaster": 8434,
      "icture": 8435,
      "ĠLever": 8436,
      "Ġpermission": 8437,
      "Ġrevel": 8438,
      "emble": 8439,
      "Ġteaches": 8440,
      "Ġpowder": 8441,
      "Ġfemin": 8442,
      "ĠEffective": 8443,
      "Ġcurve": 8444,
      "Ġquantities": 8445,
      "Ġdrink": 8446,
      "Ġsinging": 8447,
      "Ġbrighter": 8448,
      "ĠScot": 8449,
      "Ġinfection": 8450,
      "Ġdiagnostic": 8451,
      "ĠEventually": 8452,
      "mas": 8453,
      "Ġciv": 8454,
      "Ġcomplications": 8455,
      "ila": 8456,
      "ado": 8457,
      "Ġprecisely": 8458,
      "esome": 8459,
      "Ġannual": 8460,
      "aunting": 8461,
      "uting": 8462,
      "Ġsover": 8463,
      "Ġtelling": 8464,
      "Ġfixed": 8465,
      "Ġsovereign": 8466,
      "fol": 8467,
      "ificance": 8468,
      "Ġlogic": 8469,
      "Ġmiles": 8470,
      "Ġpeculiar": 8471,
      "Ġbroken": 8472,
      "Ġstrang": 8473,
      "Ġdilemmas": 8474,
      "ĠInformation": 8475,
      "Ġaging": 8476,
      "Ġsensory": 8477,
      "ĠLo": 8478,
      "Ġunderm": 8479,
      "ĠAnti": 8480,
      "ĠCheck": 8481,
      "Ġcoe": 8482,
      "Ġexposed": 8483,
      "Ġgad": 8484,
      "Ġangle": 8485,
      "elry": 8486,
      "Ġreliability": 8487,
      "Ġfly": 8488,
      "Sp": 8489,
      "Ġ:": 8490,
      "Ġfalls": 8491,
      "ĠConversely": 8492,
      "Ġ==": 8493,
      "ĠSharing": 8494,
      "Ġpoems": 8495,
      "Ġlifel": 8496,
      "ĠCalifornia": 8497,
      "Ġpandemic": 8498,
      "irect": 8499,
      "Ġattempting": 8500,
      "model": 8501,
      "marks": 8502,
      "Ġperm": 8503,
      "Ġfoss": 8504,
      "Ġscary": 8505,
      "Ġdirections": 8506,
      "onies": 8507,
      "Ġcritics": 8508,
      "Ġjew": 8509,
      "estic": 8510,
      "ĠBased": 8511,
      "Ġdisplays": 8512,
      "Ġempowerment": 8513,
      "Ġbath": 8514,
      "Ġmeaningfully": 8515,
      "ĠMulti": 8516,
      "Ġgestures": 8517,
      "Ġevenly": 8518,
      "Ġtrop": 8519,
      "opolitical": 8520,
      "Ġfloor": 8521,
      "Ġod": 8522,
      "Ġdeciding": 8523,
      "ĠTraining": 8524,
      "Wor": 8525,
      "Ġfell": 8526,
      "Ġreconc": 8527,
      "olism": 8528,
      "Ġwalked": 8529,
      "Ġreass": 8530,
      "Ġterritory": 8531,
      "abil": 8532,
      "yal": 8533,
      "pens": 8534,
      "etheless": 8535,
      "Ġinflammation": 8536,
      "Ġreinforce": 8537,
      "Ġstit": 8538,
      "Ġdensity": 8539,
      "Ġorgans": 8540,
      "values": 8541,
      "Ġwet": 8542,
      "ĠImm": 8543,
      "Ġexperimentation": 8544,
      "function": 8545,
      "aust": 8546,
      "bec": 8547,
      "Exploring": 8548,
      "tire": 8549,
      "inger": 8550,
      "Ġdental": 8551,
      "Ġbags": 8552,
      "Ġprompting": 8553,
      "Ġattached": 8554,
      "Ġtelevision": 8555,
      "Ġcontrols": 8556,
      "ria": 8557,
      "anged": 8558,
      "ĠSpecial": 8559,
      "ĠLu": 8560,
      "Ġautomatically": 8561,
      "Ġfiber": 8562,
      "predict": 8563,
      "ĠShow": 8564,
      "Ġcompetit": 8565,
      "Ġsector": 8566,
      "Ġtor": 8567,
      "ĠUtilizing": 8568,
      "ya": 8569,
      "Ġadj": 8570,
      "Ġconcentration": 8571,
      "agog": 8572,
      "ares": 8573,
      "Ġrobots": 8574,
      "://": 8575,
      "igma": 8576,
      "Ġdegrad": 8577,
      "Ġdates": 8578,
      "Ġzones": 8579,
      "Ġcrypt": 8580,
      "Ġappar": 8581,
      "uro": 8582,
      "$,": 8583,
      "ĠPacific": 8584,
      "Ġopinion": 8585,
      "Ġsket": 8586,
      "ĠComput": 8587,
      "Ġlush": 8588,
      "ĠLegal": 8589,
      "Ġdust": 8590,
      "Ġdescribed": 8591,
      "Ġcompute": 8592,
      "thes": 8593,
      "field": 8594,
      "They": 8595,
      "eeling": 8596,
      "aver": 8597,
      "Ġextends": 8598,
      "Unit": 8599,
      "Ġintertw": 8600,
      "Ġfolklore": 8601,
      "ront": 8602,
      "Ġinteracting": 8603,
      "ĠSoon": 8604,
      "Ġyellow": 8605,
      "Ġwindows": 8606,
      "Ġtastes": 8607,
      "idation": 8608,
      "Ġdivide": 8609,
      "ĠDiscovering": 8610,
      "Ġancestral": 8611,
      "ĠOrigins": 8612,
      "Ġrush": 8613,
      "ĠReflect": 8614,
      "Ġbrainstorm": 8615,
      "Ġhazards": 8616,
      "Ġtimely": 8617,
      "Ġrealism": 8618,
      "Ġdw": 8619,
      "Ġwars": 8620,
      "path": 8621,
      "Ġstones": 8622,
      "Ġtriggers": 8623,
      "Ġdamaged": 8624,
      "Ġguard": 8625,
      "Cs": 8626,
      "thesis": 8627,
      "Ġuniform": 8628,
      "olon": 8629,
      "Ġjuice": 8630,
      "ĠSally": 8631,
      "Ġbite": 8632,
      "Ġcoverage": 8633,
      "Ġsudden": 8634,
      "Ġpool": 8635,
      "which": 8636,
      "ini": 8637,
      "Ġwriter": 8638,
      "ĠPaul": 8639,
      "istan": 8640,
      "Ġadolesc": 8641,
      "ĠTurn": 8642,
      "ĠFunction": 8643,
      "Ġson": 8644,
      "Ġexpressed": 8645,
      "Of": 8646,
      "Many": 8647,
      "ĠGiven": 8648,
      "Ġprotagonist": 8649,
      "Ġpolice": 8650,
      "Ġprotected": 8651,
      "eping": 8652,
      "Ġsurge": 8653,
      "Ġsufficient": 8654,
      "Ġcybers": 8655,
      "onym": 8656,
      "Ġglim": 8657,
      "ĠLove": 8658,
      "wl": 8659,
      "Ġmisunderstandings": 8660,
      "----------------------------------------": 8661,
      "Ġsavings": 8662,
      "gs": 8663,
      "Ġoperational": 8664,
      "Ġrect": 8665,
      "Ġunlike": 8666,
      "Ġhospital": 8667,
      "ĠActivity": 8668,
      "Ġmitigating": 8669,
      "cos": 8670,
      "Ġvisibility": 8671,
      "Ġsatell": 8672,
      "ĠEnergy": 8673,
      "uted": 8674,
      "Ġnegatively": 8675,
      "Ġcircle": 8676,
      "Ġthoughtfully": 8677,
      "ĠUtilize": 8678,
      "Ġtirelessly": 8679,
      "Ġdisasters": 8680,
      "Ġmode": 8681,
      "Ġsolace": 8682,
      "Ġveter": 8683,
      "Ġbusy": 8684,
      "imil": 8685,
      "Ġboxes": 8686,
      "Ġpron": 8687,
      "pret": 8688,
      "Ġyummy": 8689,
      "ĠCompan": 8690,
      "ĠJuvenile": 8691,
      "ĠSelect": 8692,
      "ltr": 8693,
      "ĠST": 8694,
      "Ġremoving": 8695,
      "Ġstrengthening": 8696,
      "Ġcontracts": 8697,
      "Ġintegrate": 8698,
      "Ġrows": 8699,
      "Ġanxious": 8700,
      "esteem": 8701,
      "Ġsuperior": 8702,
      "cel": 8703,
      "Ġneighboring": 8704,
      "ĠCross": 8705,
      "arks": 8706,
      "ĠRome": 8707,
      "Ġfantas": 8708,
      "Ġnodes": 8709,
      "Ġharder": 8710,
      "Ġnervous": 8711,
      "erved": 8712,
      "Ġreproductive": 8713,
      "Ġlegislation": 8714,
      "everal": 8715,
      "Ġloving": 8716,
      "entral": 8717,
      "Ġtwists": 8718,
      "Ġinterdisciplinary": 8719,
      "Ġreaction": 8720,
      "Guideline": 8721,
      "Ġdefinition": 8722,
      "Ġbiom": 8723,
      "Ġoverwhelmed": 8724,
      "Ġtissues": 8725,
      "Gr": 8726,
      "iking": 8727,
      "Ġpriorities": 8728,
      "Ġvessels": 8729,
      "Ġeffic": 8730,
      "Ġfought": 8731,
      "Ġimposed": 8732,
      "ĠInstit": 8733,
      "ĠDefinition": 8734,
      "rical": 8735,
      "Ref": 8736,
      "Ġrepeti": 8737,
      "Ġpoly": 8738,
      "Ġsurvive": 8739,
      "ĠCalc": 8740,
      "Ps": 8741,
      "Ġluck": 8742,
      "Ġbrilliant": 8743,
      "Ġoffic": 8744,
      "Ġprioritize": 8745,
      "ON": 8746,
      "aped": 8747,
      "Ġawesome": 8748,
      "ĠStart": 8749,
      "Ġforec": 8750,
      "Ġgun": 8751,
      "Ġtoxic": 8752,
      "Ġfirmly": 8753,
      "Ġhappier": 8754,
      "ocation": 8755,
      "depth": 8756,
      "Ġdelib": 8757,
      "Ġfle": 8758,
      "ĠSum": 8759,
      "Ġburge": 8760,
      "ĠCy": 8761,
      "ĠHindu": 8762,
      "Ġcalculations": 8763,
      "Ġsenti": 8764,
      "Ġreputation": 8765,
      "ĠEvolution": 8766,
      "Ġbudd": 8767,
      "des": 8768,
      "Ġcauti": 8769,
      "ĠCS": 8770,
      "ĠKorean": 8771,
      "Ġclever": 8772,
      "Ġclassification": 8773,
      "Ġrespectively": 8774,
      "['": 8775,
      "ĠMet": 8776,
      "Ġgatherings": 8777,
      "Ġturb": 8778,
      "aussian": 8779,
      "rams": 8780,
      "Ġpoets": 8781,
      "mean": 8782,
      "Ġdepends": 8783,
      "ifting": 8784,
      "Ġaccidents": 8785,
      "Ġswimming": 8786,
      "Ġcontainers": 8787,
      "body": 8788,
      "ece": 8789,
      "Ġcontinuity": 8790,
      "Ġ>": 8791,
      "Ġtravels": 8792,
      "----------------------------------": 8793,
      "ĠExplore": 8794,
      "Ġstruck": 8795,
      "Ġburgeoning": 8796,
      "Ġacquisition": 8797,
      "ripts": 8798,
      "Ġunderwater": 8799,
      "ticing": 8800,
      "Ġjoint": 8801,
      "ancies": 8802,
      "Ġtrail": 8803,
      "ĠOpportun": 8804,
      "Ġportion": 8805,
      "soft": 8806,
      "atoes": 8807,
      "ndrome": 8808,
      "plicity": 8809,
      "aws": 8810,
      "ĠConstr": 8811,
      "Ġplanned": 8812,
      "theast": 8813,
      "Ġclosed": 8814,
      "ĠScientists": 8815,
      "Ġofficials": 8816,
      "ĠSignificance": 8817,
      "value": 8818,
      "Ġstrike": 8819,
      "Ġsoul": 8820,
      "ĠElectr": 8821,
      "Ġcaptured": 8822,
      "ĠEr": 8823,
      "Ġwisely": 8824,
      "AAAA": 8825,
      "Ġdescribing": 8826,
      "ĠUpon": 8827,
      "ynomial": 8828,
      "cluding": 8829,
      "Ġages": 8830,
      "vals": 8831,
      "ravel": 8832,
      "matrix": 8833,
      "Ġschedule": 8834,
      "irtual": 8835,
      "Ġdivided": 8836,
      "fig": 8837,
      "Ġnecessarily": 8838,
      "ulent": 8839,
      "Ġdiag": 8840,
      "preced": 8841,
      "Ġheal": 8842,
      "Ġgenes": 8843,
      "Ġbanks": 8844,
      "Ġpayment": 8845,
      "Ġhoping": 8846,
      "Ġtrial": 8847,
      "ĠSkills": 8848,
      "Ġicon": 8849,
      "Ġcompounds": 8850,
      "ĠRecognizing": 8851,
      "Ġvel": 8852,
      "Ġnin": 8853,
      "tersection": 8854,
      "Ġpurs": 8855,
      "precedented": 8856,
      "ĠPolitical": 8857,
      "Ġhistorians": 8858,
      "Ġworship": 8859,
      "ulative": 8860,
      "reshold": 8861,
      "Ġcareg": 8862,
      "ouds": 8863,
      "Ġempty": 8864,
      "ĠYeah": 8865,
      "Ġtraced": 8866,
      "ĠSil": 8867,
      "clusions": 8868,
      "ĠEmbrace": 8869,
      "Ġflying": 8870,
      "entieth": 8871,
      "ĠLocal": 8872,
      "Ġinstrument": 8873,
      "aution": 8874,
      "Ġfeminist": 8875,
      "ref": 8876,
      "Ġaccounting": 8877,
      "Ġcomfortably": 8878,
      "Ġimmigrants": 8879,
      "ĠRest": 8880,
      "Ġfacets": 8881,
      "ĠPolicy": 8882,
      "Ġprime": 8883,
      "Ġcameras": 8884,
      "band": 8885,
      "ĠWould": 8886,
      "Ġpurchasing": 8887,
      "Ġstays": 8888,
      "ĠReddit": 8889,
      "Ġcoordination": 8890,
      "Ġimpair": 8891,
      "colonial": 8892,
      "Ġamongst": 8893,
      "Ġthreads": 8894,
      "Ġescal": 8895,
      "building": 8896,
      "Ġlux": 8897,
      "Ġarticle": 8898,
      "Ġthinkers": 8899,
      "AM": 8900,
      "Ġmanual": 8901,
      "izer": 8902,
      "shape": 8903,
      "ĠFirstly": 8904,
      "urr": 8905,
      "Ġunprecedented": 8906,
      "Ġcolonialism": 8907,
      "Ġanger": 8908,
      "Ġretention": 8909,
      "Ġeagerly": 8910,
      "Ġprinting": 8911,
      "emade": 8912,
      "year": 8913,
      "Ġflows": 8914,
      "Ġsurviv": 8915,
      "no": 8916,
      "ĠLand": 8917,
      "Ġstig": 8918,
      "Ġfro": 8919,
      "Ġhurd": 8920,
      "Ġaltered": 8921,
      "Ġfurniture": 8922,
      "pip": 8923,
      "organ": 8924,
      "uten": 8925,
      "ĠBook": 8926,
      "Ġperformed": 8927,
      "Ġintention": 8928,
      "Ġcrowd": 8929,
      "Ġinterpreting": 8930,
      "Ġescape": 8931,
      "Ġbub": 8932,
      "Ġexcel": 8933,
      "Ġclubs": 8934,
      "learn": 8935,
      "Ġconstitute": 8936,
      "ĠPan": 8937,
      "habilit": 8938,
      "Ġminimum": 8939,
      "Ġextensive": 8940,
      "lighten": 8941,
      "Ġcrises": 8942,
      "aired": 8943,
      "Ġcelebrated": 8944,
      "Ġdestination": 8945,
      "Ġcarries": 8946,
      "Ġcataly": 8947,
      "outer": 8948,
      "Ġlimiting": 8949,
      "Ġenchanting": 8950,
      "Ġdispos": 8951,
      "Ġnavigation": 8952,
      "Ġresulted": 8953,
      "ĠChildren": 8954,
      "Ġscrut": 8955,
      "orically": 8956,
      "Ġtherapists": 8957,
      "ĠExamining": 8958,
      "Ġopt": 8959,
      "Ġculturally": 8960,
      "Ġran": 8961,
      "erness": 8962,
      "ĠMexican": 8963,
      "Recent": 8964,
      "Ġaffirm": 8965,
      "Ġalgebra": 8966,
      "Ġfan": 8967,
      "Ġbullying": 8968,
      "Ġpreced": 8969,
      "Ġmetab": 8970,
      "Op": 8971,
      "Ġnutrient": 8972,
      "eph": 8973,
      "Ġsurveillance": 8974,
      "Ġprevalent": 8975,
      "Ġproj": 8976,
      "ham": 8977,
      "Ġambig": 8978,
      "ĠMental": 8979,
      "ĠSure": 8980,
      "Ġcompromise": 8981,
      "Ġcounts": 8982,
      "ĠWind": 8983,
      "ĠVer": 8984,
      "trigued": 8985,
      "Ġsending": 8986,
      "olute": 8987,
      "Ġaer": 8988,
      "airy": 8989,
      "Ġinnoc": 8990,
      "part": 8991,
      "Ġbuck": 8992,
      "Ġrobot": 8993,
      "ĠTools": 8994,
      "Ġracing": 8995,
      "Ġnur": 8996,
      "ĠLine": 8997,
      "ael": 8998,
      "Ġcoexist": 8999,
      "ĠHarmony": 9000,
      "Ġneither": 9001,
      "Ġrobo": 9002,
      "Ġefficacy": 9003,
      "ardless": 9004,
      "Ġindicating": 9005,
      "uffici": 9006,
      "Ġwarmly": 9007,
      "ĠSustain": 9008,
      "ĠMac": 9009,
      "iki": 9010,
      "name": 9011,
      "Ġsurprising": 9012,
      "Ġended": 9013,
      "you": 9014,
      "ĠWorks": 9015,
      "ynamics": 9016,
      "Ġpure": 9017,
      "Ġpanels": 9018,
      "Ġpitch": 9019,
      "Ġreflected": 9020,
      "Ġattack": 9021,
      "Ġcrafted": 9022,
      "ĠPresent": 9023,
      "Ġentering": 9024,
      "ĠCatholic": 9025,
      "Ġdeter": 9026,
      "Ġreliance": 9027,
      "Ġhorses": 9028,
      "Ġdemanding": 9029,
      "Ġsen": 9030,
      "ĠPresident": 9031,
      "Ġfort": 9032,
[...]
