{
  "version": "1.0",
  "truncation": null,
  "padding": null,
  "added_tokens": [
    {
      "id": 0,
      "content": "<|endoftext|>",
      "single_word": false,
      "lstrip": false,
      "rstrip": false,
      "normalized": false,
      "special": true
    }
  ],
  "normalizer": null,
  "pre_tokenizer": {
    "type": "Sequence",
    "pretokenizers": [
      {
        "type": "Digits",
        "individual_digits": true
      },
      {
        "type": "ByteLevel",
        "add_prefix_space": false,
        "trim_offsets": true,
        "use_regex": true
      }
    ]
  },
  "post_processor": null,
  "decoder": {
    "type": "ByteLevel",
    "add_prefix_space": true,
    "trim_offsets": true,
    "use_regex": true
  },
  "model": {
    "type": "BPE",
    "dropout": null,
    "unk_token": null,
    "continuing_subword_prefix": null,
    "end_of_word_suffix": null,
    "fuse_unk": false,
    "byte_fallback": false,
    "ignore_merges": false,
    "vocab": {
      "<|endoftext|>": 0,
      "!": 1,
      "\"": 2,
      "#": 3,
      "$": 4,
      "%": 5,
      "&": 6,
      "'": 7,
      "(": 8,
      ")": 9,
      "*": 10,
      "+": 11,
      ",": 12,
      "-": 13,
      ".": 14,
      "/": 15,
      "0": 16,
      "1": 17,
      "2": 18,
      "3": 19,
      "4": 20,
      "5": 21,
      "6": 22,
      "7": 23,
      "8": 24,
      "9": 25,
      ":": 26,
      ";": 27,
      "<": 28,
      "=": 29,
      ">": 30,
      "?": 31,
      "@": 32,
      "A": 33,
      "B": 34,
      "C": 35,
      "D": 36,
      "E": 37,
      "F": 38,
      "G": 39,
      "H": 40,
      "I": 41,
      "J": 42,
      "K": 43,
      "L": 44,
      "M": 45,
      "N": 46,
      "O": 47,
      "P": 48,
      "Q": 49,
      "R": 50,
      "S": 51,
      "T": 52,
      "U": 53,
      "V": 54,
      "W": 55,
      "X": 56,
      "Y": 57,
      "Z": 58,
      "[": 59,
      "\\": 60,
      "]": 61,
      "^": 62,
      "_": 63,
      "`": 64,
      "a": 65,
      "b": 66,
      "c": 67,
      "d": 68,
      "e": 69,
      "f": 70,
      "g": 71,
      "h": 72,
      "i": 73,
      "j": 74,
      "k": 75,
      "l": 76,
      "m": 77,
      "n": 78,
      "o": 79,
      "p": 80,
      "q": 81,
      "r": 82,
      "s": 83,
      "t": 84,
      "u": 85,
      "v": 86,
      "w": 87,
      "x": 88,
      "y": 89,
      "z": 90,
      "{": 91,
      "|": 92,
      "}": 93,
      "~": 94,
      "¡": 95,
      "¢": 96,
      "£": 97,
      "¤": 98,
      "¥": 99,
      "¦": 100,
      "§": 101,
      "¨": 102,
      "©": 103,
      "ª": 104,
      "«": 105,
      "¬": 106,
      "®": 107,
      "¯": 108,
      "°": 109,
      "±": 110,
      "²": 111,
      "³": 112,
      "´": 113,
      "µ": 114,
      "¶": 115,
      "·": 116,
      "¸": 117,
      "¹": 118,
      "º": 119,
      "»": 120,
      "¼": 121,
      "½": 122,
      "¾": 123,
      "¿": 124,
      "À": 125,
      "Á": 126,
      "Â": 127,
      "Ã": 128,
      "Ä": 129,
      "Å": 130,
      "Æ": 131,
      "Ç": 132,
      "È": 133,
      "É": 134,
      "Ê": 135,
      "Ë": 136,
      "Ì": 137,
      "Í": 138,
      "Î": 139,
      "Ï": 140,
      "Ð": 141,
      "Ñ": 142,
      "Ò": 143,
      "Ó": 144,
      "Ô": 145,
      "Õ": 146,
      "Ö": 147,
      "×": 148,
      "Ø": 149,
      "Ù": 150,
      "Ú": 151,
      "Û": 152,
      "Ü": 153,
      "Ý": 154,
      "Þ": 155,
      "ß": 156,
      "à": 157,
      "á": 158,
      "â": 159,
      "ã": 160,
      "ä": 161,
      "å": 162,
      "æ": 163,
      "ç": 164,
      "è": 165,
      "é": 166,
      "ê": 167,
      "ë": 168,
      "ì": 169,
      "í": 170,
      "î": 171,
      "ï": 172,
      "ð": 173,
      "ñ": 174,
      "ò": 175,
      "ó": 176,
      "ô": 177,
      "õ": 178,
      "ö": 179,
      "÷": 180,
      "ø": 181,
      "ù": 182,
      "ú": 183,
      "û": 184,
      "ü": 185,
      "ý": 186,
      "þ": 187,
      "ÿ": 188,
      "Ā": 189,
      "ā": 190,
      "Ă": 191,
      "ă": 192,
      "Ą": 193,
      "ą": 194,
      "Ć": 195,
      "ć": 196,
      "Ĉ": 197,
      "ĉ": 198,
      "Ċ": 199,
      "ċ": 200,
      "Č": 201,
      "č": 202,
      "Ď": 203,
      "ď": 204,
      "Đ": 205,
      "đ": 206,
      "Ē": 207,
      "ē": 208,
      "Ĕ": 209,
      "ĕ": 210,
      "Ė": 211,
      "ė": 212,
      "Ę": 213,
      "ę": 214,
      "Ě": 215,
      "ě": 216,
      "Ĝ": 217,
      "ĝ": 218,
      "Ğ": 219,
      "ğ": 220,
      "Ġ": 221,
      "ġ": 222,
      "Ģ": 223,
      "ģ": 224,
      "Ĥ": 225,
      "ĥ": 226,
      "Ħ": 227,
      "ħ": 228,
      "Ĩ": 229,
      "ĩ": 230,
      "Ī": 231,
      "ī": 232,
      "Ĭ": 233,
      "ĭ": 234,
      "Į": 235,
      "į": 236,
      "İ": 237,
      "ı": 238,
      "Ĳ": 239,
      "ĳ": 240,
      "Ĵ": 241,
      "ĵ": 242,
      "Ķ": 243,
      "ķ": 244,
      "ĸ": 245,
      "Ĺ": 246,
      "ĺ": 247,
      "Ļ": 248,
      "ļ": 249,
      "Ľ": 250,
      "ľ": 251,
      "Ŀ": 252,
      "ŀ": 253,
      "Ł": 254,
      "ł": 255,
      "Ń": 256,
      "Ġt": 257,
      "Ġa": 258,
      "he": 259,
      "in": 260,
      "re": 261,
      "on": 262,
      "er": 263,
      "Ġthe": 264,
      "Ġs": 265,
      "at": 266,
      "nd": 267,
      "or": 268,
      "Ġc": 269,
      "es": 270,
      "en": 271,
      "Ġw": 272,
      "is": 273,
      "an": 274,
      "Ġo": 275,
      "it": 276,
      "al": 277,
      "ing": 278,
      "Ġp": 279,
      "Ġf": 280,
      "ou": 281,
      "Ġb": 282,
      "Ġand": 283,
      "Ġm": 284,
      "ed": 285,
      "Ġin": 286,
      "ar": 287,
      "Ġto": 288,
      "Ġof": 289,
      "ion": 290,
      "ic": 291,
      "Ġd": 292,
      "le": 293,
      "ro": 294,
      "as": 295,
      "Ġh": 296,
      "ent": 297,
      "Ġe": 298,
      "ct": 299,
      "Ġth": 300,
      "om": 301,
      "Ġre": 302,
      "ve": 303,
      "il": 304,
      "st": 305,
      "Ġl": 306,
      "et": 307,
      "ĠT": 308,
      "Ġn": 309,
      "id": 310,
      "ol": 311,
      "Ġy": 312,
      "Ġg": 313,
      "ig": 314,
      "Ġis": 315,
      "el": 316,
      "im": 317,
      "us": 318,
      "am": 319,
      "ch": 320,
      "ce": 321,
      "ow": 322,
      "ĠI": 323,
      "ation": 324,
      "ĠS": 325,
      "ut": 326,
      "Ġfor": 327,
      "Ġyou": 328,
      "ot": 329,
      "ĠA": 330,
      "Ġst": 331,
      "ra": 332,
      "||": 333,
      "Ġbe": 334,
      "ers": 335,
      "ly": 336,
      "Ġon": 337,
      "ur": 338,
      "ĠC": 339,
      "Ġthat": 340,
      "ir": 341,
      "ist": 342,
      "ay": 343,
      "ith": 344,
      "ad": 345,
      "her": 346,
      "Ġpro": 347,
      "ul": 348,
      "un": 349,
      "Ġ||": 350,
      "if": 351,
      "Ġwith": 352,
      "Ġal": 353,
      "âĢ": 354,
      "Ġas": 355,
      "ver": 356,
      "Ġcon": 357,
      "Ġor": 358,
      "se": 359,
      "ĠThe": 360,
      "Ġan": 361,
      "ant": 362,
      "te": 363,
      "ĠM": 364,
      "ag": 365,
      "Ġit": 366,
      "Ġ(": 367,
      "ess": 368,
      "pe": 369,
      "ate": 370,
      "Ġex": 371,
      "ĠH": 372,
      "ment": 373,
      "ĠP": 374,
      "ri": 375,
      "Ġmo": 376,
      "ke": 377,
      "Ġare": 378,
      "ss": 379,
      "ĠB": 380,
      "Ġhe": 381,
      "Ġwh": 382,
      "ab": 383,
      "Ġsu": 384,
      "ld": 385,
      "ter": 386,
      "igh": 387,
      "Ġcom": 388,
      "qu": 389,
      "Ġcan": 390,
      "ive": 391,
      "th": 392,
      "Ġv": 393,
      "iv": 394,
      "op": 395,
      "ies": 396,
      "ity": 397,
      "'s": 398,
      "Ġde": 399,
      "fe": 400,
      "est": 401,
      "Ġwas": 402,
      "ure": 403,
      "Ġwe": 404,
      "..": 405,
      "ĠW": 406,
      "ac": 407,
      "ill": 408,
      "um": 409,
      "and": 410,
      "ĠĠ": 411,
      "oc": 412,
      "Ġus": 413,
      "Ġch": 414,
      "em": 415,
      "ain": 416,
      "pp": 417,
      "od": 418,
      "rom": 419,
      "ĠD": 420,
      "ight": 421,
      "ĠL": 422,
      "all": 423,
      "ĠF": 424,
      "Ġse": 425,
      "ĠR": 426,
      "Ġne": 427,
      "ud": 428,
      "ren": 429,
      "ort": 430,
      "ial": 431,
      "Ġyour": 432,
      "xt": 433,
      "end": 434,
      "ction": 435,
      "Ġ\"": 436,
      "ould": 437,
      "ĠE": 438,
      "Ġfrom": 439,
      "Ġle": 440,
      "Ġby": 441,
      "ust": 442,
      "Ġat": 443,
      "Ġha": 444,
      "art": 445,
      "ĠĊ": 446,
      "Ġr": 447,
      "Ġsh": 448,
      "of": 449,
      "pl": 450,
      "ser": 451,
      "pt": 452,
      "Ġk": 453,
      "ide": 454,
      "ome": 455,
      "ĠG": 456,
      "ĠN": 457,
      "os": 458,
      "Ġpl": 459,
      "iz": 460,
      "Ġen": 461,
      "Ġtheir": 462,
      "out": 463,
      "Ġwor": 464,
      "ak": 465,
      "ign": 466,
      "our": 467,
      "red": 468,
      "ge": 469,
      "Ġim": 470,
      "Ġab": 471,
      "ĠâĢ": 472,
      "per": 473,
      "rou": 474,
      "ber": 475,
      "og": 476,
      "ther": 477,
      "ĠJ": 478,
      "ie": 479,
      "Ġhave": 480,
      "Ġad": 481,
      "age": 482,
      "ip": 483,
      "ard": 484,
      "Ġu": 485,
      "Ġmore": 486,
      "text": 487,
      "ĠTh": 488,
      "ĠO": 489,
      "ine": 490,
      "ore": 491,
      "ical": 492,
      "ions": 493,
      "User": 494,
      "act": 495,
      "ations": 496,
      "gh": 497,
      "Ġcomp": 498,
      "Ġte": 499,
      "Ġinc": 500,
      "du": 501,
      "ich": 502,
      "ell": 503,
      "Ġme": 504,
      "The": 505,
      "ake": 506,
      "Ġnot": 507,
      "orm": 508,
      "ces": 509,
      "ru": 510,
      "|>": 511,
      "endof": 512,
      "endoftext": 513,
      "<|": 514,
      "ach": 515,
      "ence": 516,
      "so": 517,
      "Ġthis": 518,
      "ast": 519,
      "ok": 520,
      "able": 521,
      "ult": 522,
      "istant": 523,
      "ame": 524,
      "ance": 525,
      "ind": 526,
      "to": 527,
      "Ġ-": 528,
      "cc": 529,
      "ack": 530,
      "Ġthey": 531,
      "Ass": 532,
      "Ġ=": 533,
      "ĠU": 534,
      "Assistant": 535,
      "Ġun": 536,
      "Ġimp": 537,
      "ue": 538,
      "Ġfe": 539,
      "ans": 540,
      "nt": 541,
      "Ġwhe": 542,
      "ated": 543,
      "ne": 544,
      "ap": 545,
      "ary": 546,
      "Ġalso": 547,
      "Ġhas": 548,
      "Ġj": 549,
      "ong": 550,
      "ime": 551,
      "ry": 552,
      "Ġres": 553,
      "....": 554,
      "rit": 555,
      "res": 556,
      "feren": 557,
      "ia": 558,
      "Ġcl": 559,
      "Ġman": 560,
      "vel": 561,
      "Ġher": 562,
      "ĠIt": 563,
      "ice": 564,
      "Ġabout": 565,
      "low": 566,
      "ep": 567,
      "ous": 568,
      "av": 569,
      "form": 570,
      "ĠIn": 571,
      "ĠK": 572,
      "ĠThis": 573,
      "ase": 574,
      "ib": 575,
      "reat": 576,
      "Ġar": 577,
      "Ġcont": 578,
      "are": 579,
      "Ġother": 580,
      "Ġwill": 581,
      "Ġwhich": 582,
      "ĠHe": 583,
      "Ġsome": 584,
      "ang": 585,
      "ish": 586,
      "ory": 587,
      "ook": 588,
      "Ġpo": 589,
      "ors": 590,
      "ress": 591,
      "ĠY": 592,
      "Ġbut": 593,
      "Ġout": 594,
      "\":": 595,
      "ual": 596,
      "Ġdo": 597,
      "mer": 598,
      "Ġpe": 599,
      "one": 600,
      "ace": 601,
      "Ġwork": 602,
      "Ġdis": 603,
      "ass": 604,
      "Ġthem": 605,
      "Ġhis": 606,
      "ail": 607,
      "Ġgo": 608,
      "lp": 609,
      "âĢĻ": 610,
      "Ġli": 611,
      "**": 612,
      "ian": 613,
      "ire": 614,
      "ition": 615,
      "ile": 616,
      "Ġspe": 617,
      "Ġhelp": 618,
      "Ġqu": 619,
      "ount": 620,
      "int": 621,
      "ople": 622,
      "ect": 623,
      "ents": 624,
      "Ġev": 625,
      "Ġsc": 626,
      "ĠâĢĶ": 627,
      "Ġprov": 628,
      "Ġtra": 629,
      "Ġhow": 630,
      "lud": 631,
      "Ġsp": 632,
      "ific": 633,
      "Ġwho": 634,
      "Ġhad": 635,
      "Ġapp": 636,
      "Ġone": 637,
      "Ġro": 638,
      "now": 639,
      "ord": 640,
      "ound": 641,
      "Ġup": 642,
      "ĠSt": 643,
      "Ġper": 644,
      "ark": 645,
      "amp": 646,
      "Ġ|": 647,
      "ments": 648,
      "Ġsuch": 649,
      "Ġem": 650,
      "ric": 651,
      "ings": 652,
      "ff": 653,
      "ater": 654,
      "ĠĠĠĠ": 655,
      "Ġmy": 656,
      "Ġadd": 657,
      "ck": 658,
      "Ġshe": 659,
      "ild": 660,
      "ost": 661,
      "ear": 662,
      "Ġinclud": 663,
      "|-": 664,
      "les": 665,
      "Ġtime": 666,
      "Ġall": 667,
      "ub": 668,
      "Ġpart": 669,
      "ates": 670,
      "Ġdes": 671,
      "Ġcomm": 672,
      "Ġinto": 673,
      "Ġits": 674,
      "we": 675,
      "Ġwere": 676,
      "Ġcould": 677,
      "ĠV": 678,
      "ens": 679,
      "ĠCh": 680,
      "Ġpeople": 681,
      "ond": 682,
      "ities": 683,
      "ays": 684,
      "ree": 685,
      "Ġind": 686,
      "Ġover": 687,
      "Ġrec": 688,
      "Ġlike": 689,
      "ite": 690,
      "Ġdif": 691,
      "very": 692,
      "Ġmake": 693,
      "ose": 694,
      "Ġwould": 695,
      "Ġany": 696,
      "Ġif": 697,
      "Ġacc": 698,
      "Ġ\\": 699,
      "Ġ$": 700,
      "Ġrel": 701,
      "ful": 702,
      "fect": 703,
      "ally": 704,
      "Ġnew": 705,
      "nder": 706,
      "ph": 707,
      "Ġpre": 708,
      "Ġser": 709,
      "Ġsy": 710,
      "Ġuse": 711,
      "Ġnum": 712,
      "Ġneed": 713,
      "ject": 714,
      "elf": 715,
      "Ġcol": 716,
      "ob": 717,
      "Ġbet": 718,
      "wn": 719,
      "ative": 720,
      "Ġbec": 721,
      "ll": 722,
      "ata": 723,
      "erson": 724,
      "rough": 725,
      "Ġso": 726,
      "lic": 727,
      "irst": 728,
      "right": 729,
      "Ġknow": 730,
      "unction": 731,
      ").": 732,
      "Ġcre": 733,
      "ood": 734,
      "ram": 735,
      "get": 736,
      "Ġtr": 737,
      "oy": 738,
      "Ġact": 739,
      "ons": 740,
      "Ġoff": 741,
      "ari": 742,
      "tern": 743,
      "col": 744,
      "Ġexper": 745,
      "stem": 746,
      "erm": 747,
      "ely": 748,
      "ath": 749,
      "ience": 750,
      "Ġthere": 751,
      "use": 752,
      "ks": 753,
      "ility": 754,
      "Ġcons": 755,
      "ics": 756,
      "Ġthese": 757,
      "ts": 758,
      "In": 759,
      "ough": 760,
      "olog": 761,
      "bs": 762,
      "Ġtw": 763,
      "Ġprodu": 764,
      "meric": 765,
      "cess": 766,
      "Ġspec": 767,
      "ating": 768,
      "urn": 769,
      "ise": 770,
      "\",": 771,
      "ef": 772,
      "Ġused": 773,
      "ove": 774,
      "Ġdifferen": 775,
      "ys": 776,
      "als": 777,
      "ov": 778,
      "Ġ+": 779,
      "hip": 780,
      "),": 781,
      "ĠCan": 782,
      "Ġunder": 783,
      "aking": 784,
      "Ġmay": 785,
      "ures": 786,
      "ased": 787,
      "Ġwhat": 788,
      "arch": 789,
      "velop": 790,
      "Ġwhen": 791,
      "Ġstud": 792,
      "old": 793,
      "ĠWh": 794,
      "Ġalign": 795,
      "__": 796,
      "Ġbeen": 797,
      "Ġag": 798,
      "Ġsa": 799,
      "........": 800,
      "Ġeach": 801,
      "Ġval": 802,
      "Ġinv": 803,
      "ife": 804,
      "ange": 805,
      "Ġstr": 806,
      "Ġplay": 807,
      "Ġfunction": 808,
      "Ġthrough": 809,
      "row": 810,
      "arn": 811,
      "gan": 812,
      "Ġthan": 813,
      "Ġfirst": 814,
      "Ġour": 815,
      "ize": 816,
      "round": 817,
      "Ġra": 818,
      "ular": 819,
      "ink": 820,
      "rib": 821,
      "Ġmany": 822,
      "color": 823,
      "Ġph": 824,
      "ffect": 825,
      "Ġkm": 826,
      "ĠHow": 827,
      "gcolor": 828,
      "ient": 829,
      "lect": 830,
      "Ġdet": 831,
      "=#": 832,
      "ick": 833,
      "pport": 834,
      "ade": 835,
      "ty": 836,
      "ract": 837,
      "Ġdata": 838,
      "ced": 839,
      "Ġperson": 840,
      "Ġbgcolor": 841,
      "ĠUn": 842,
      "orn": 843,
      "Ġset": 844,
      "ential": 845,
      "chn": 846,
      "ily": 847,
      "Ġwhere": 848,
      "ween": 849,
      "Ġsm": 850,
      "Ġform": 851,
      "eth": 852,
      "hes": 853,
      "gg": 854,
      "ten": 855,
      "Ġke": 856,
      "ng": 857,
      "hed": 858,
      "Ġam": 859,
      "Ġinte": 860,
      "Ġpr": 861,
      "Ġprovide": 862,
      "merican": 863,
      "its": 864,
      "ting": 865,
      "oth": 866,
      "Ġmed": 867,
      "Ġbu": 868,
      "Ġbetween": 869,
      "Ġdevelop": 870,
      "hen": 871,
      "Ġtwo": 872,
      "ption": 873,
      "Ġinform": 874,
      "port": 875,
      "Ġco": 876,
      "uring": 877,
      "Ġyear": 878,
      "Re": 879,
      "pect": 880,
      "own": 881,
      "ollow": 882,
      "Ġshould": 883,
      "tain": 884,
      "ict": 885,
      "Ġpol": 886,
      "ues": 887,
      "fter": 888,
      "ited": 889,
      "Ġinter": 890,
      "Ġfl": 891,
      "ower": 892,
      "ational": 893,
      "Ġsign": 894,
      "Ġchar": 895,
      "Ġdifferent": 896,
      "Ġsoc": 897,
      "Ġdec": 898,
      "ible": 899,
      "Ġget": 900,
      "Ġusing": 901,
      "ample": 902,
      "Ġnumber": 903,
      "ident": 904,
      "Âł": 905,
      "gy": 906,
      "'t": 907,
      "Ġprog": 908,
      "ĠYou": 909,
      "Ġvari": 910,
      "ener": 911,
      "ĠThey": 912,
      "alth": 913,
      "Ġtrans": 914,
      "ĠâĢĵ": 915,
      "Ġcall": 916,
      "Ġno": 917,
      "Ġsystem": 918,
      "Ġexpl": 919,
      "Ġfollow": 920,
      "ied": 921,
      "Ġwell": 922,
      "Ġfind": 923,
      "Ġcommun": 924,
      "Ġ**": 925,
      "Ġbl": 926,
      "ider": 927,
      "Ġlead": 928,
      "ved": 929,
      "Ġtechn": 930,
      "Ġreg": 931,
      "Ġmost": 932,
      "ward": 933,
      "Ġwrit": 934,
      "Ġ.": 935,
      "ferences": 936,
      "Ġmod": 937,
      "any": 938,
      "{\"": 939,
      "iss": 940,
      "the": 941,
      "ble": 942,
      "ork": 943,
      "ew": 944,
      "ving": 945,
      "iqu": 946,
      "ec": 947,
      "Ġway": 948,
      "Ġcreate": 949,
      "Ġint": 950,
      "ious": 951,
      "âĢĵ": 952,
      "Ġrem": 953,
      "ctions": 954,
      "Ġstart": 955,
      "Ġsec": 956,
      "Ġinst": 957,
      "land": 958,
      "up": 959,
      "Ġworld": 960,
      "iness": 961,
      "ause": 962,
      "fore": 963,
      "Ġhigh": 964,
      "ars": 965,
      "cy": 966,
      "ices": 967,
      "ever": 968,
      "roup": 969,
      "Ġass": 970,
      "Ġty": 971,
      "ĠShe": 972,
      "Ġdisc": 973,
      "other": 974,
      "ustom": 975,
      "Ġret": 976,
      "Ġinformation": 977,
      "ness": 978,
      "eng": 979,
      "ality": 980,
      "mber": 981,
      "vie": 982,
      "Ġcomple": 983,
      "fefe": 984,
      "Ġloc": 985,
      "ax": 986,
      "Ġlife": 987,
      "aw": 988,
      "Ġsk": 989,
      "Ġart": 990,
      "put": 991,
      "Ġsim": 992,
      "Ġeffect": 993,
      "Ġback": 994,
      "Ġob": 995,
      "stand": 996,
      "ized": 997,
      "Ġlist": 998,
      "--": 999,
      "Ġfeel": 1000,
      "Ġdist": 1001,
      "Ġfam": 1002,
      "Ġmin": 1003,
      "ural": 1004,
      "resent": 1005,
      "Ġ'": 1006,
      "Ġpoint": 1007,
      "Ġmade": 1008,
      "ines": 1009,
      "ision": 1010,
      "ution": 1011,
      "ives": 1012,
      "omm": 1013,
      "dition": 1014,
      "ivid": 1015,
      "ves": 1016,
      "ĠIf": 1017,
      "References": 1018,
      "Ġgreat": 1019,
      "Ġatt": 1020,
      "Ġwant": 1021,
      "Ġwebs": 1022,
      "Ġjust": 1023,
      "Ġonly": 1024,
      "ivers": 1025,
      "ional": 1026,
      "Ġsee": 1027,
      "Ġlearn": 1028,
      "ont": 1029,
      "Ġrequ": 1030,
      "Ġprocess": 1031,
      "Ġconc": 1032,
      "rest": 1033,
      "Ġmem": 1034,
      "ages": 1035,
      "Ġown": 1036,
      "Ġthen": 1037,
      "Ġexp": 1038,
      "Ġsur": 1039,
      "Ġexample": 1040,
      "Ġread": 1041,
      "Ġcustom": 1042,
      "Ġbus": 1043,
      "ology": 1044,
      "led": 1045,
      "Ġprogram": 1046,
      "Ġeng": 1047,
      "ĠAs": 1048,
      "Ġhealth": 1049,
      "ex": 1050,
      "iven": 1051,
      "uc": 1052,
      "Ġwhile": 1053,
      "Ġins": 1054,
      "ĠFor": 1055,
      "IN": 1056,
      "lish": 1057,
      "Ġlong": 1058,
      "EA": 1059,
      "Ġproduct": 1060,
      "Ġche": 1061,
      "Ġsocial": 1062,
      "Ġteam": 1063,
      "Ġdesign": 1064,
      "ĠWhat": 1065,
      "Ġgu": 1066,
      "Ġlook": 1067,
      "ĠSoc": 1068,
      "ature": 1069,
      "Ġevery": 1070,
      "Ġgroup": 1071,
      "Ġinf": 1072,
      "cri": 1073,
      "arg": 1074,
      "ĠAd": 1075,
      ".<|": 1076,
      "io": 1077,
      "ĠAl": 1078,
      "Ġfin": 1079,
      "Ġide": 1080,
      "Ġcreat": 1081,
      "ather": 1082,
      "Ġcharact": 1083,
      "Ġshow": 1084,
      "ft": 1085,
      "Ġincluding": 1086,
      "iet": 1087,
      "ĠAmerican": 1088,
      "oot": 1089,
      "ify": 1090,
      "Ġeven": 1091,
      ".\"": 1092,
      "Ġac": 1093,
      "Ġmain": 1094,
      "Ġsub": 1095,
      "cial": 1096,
      "Ġplan": 1097,
      "Ġappro": 1098,
      "ĠWe": 1099,
      "Ġx": 1100,
      "Ġcur": 1101,
      "ool": 1102,
      "riend": 1103,
      "Ġimport": 1104,
      "Ġcount": 1105,
      "Ġsupport": 1106,
      "ins": 1107,
      "pr": 1108,
      "akes": 1109,
      "Ġhim": 1110,
      "ruct": 1111,
      "ven": 1112,
      "Ġpot": 1113,
      "bers": 1114,
      "raph": 1115,
      "Ġmat": 1116,
      "itive": 1117,
      "ien": 1118,
      "Ġvis": 1119,
      "ier": 1120,
      "ĠDe": 1121,
      "âĢĿ": 1122,
      "Ġafter": 1123,
      "Ġsol": 1124,
      "Ġca": 1125,
      "Ġmark": 1126,
      "ms": 1127,
      "Ġfound": 1128,
      "imes": 1129,
      "Ġ`": 1130,
      "ists": 1131,
      "Ġmus": 1132,
      "ense": 1133,
      "Ġwater": 1134,
      "ix": 1135,
      "Ġsmall": 1136,
      "Ġprovid": 1137,
      "Ġimpact": 1138,
      "Ġed": 1139,
      "self": 1140,
      "Ġspecific": 1141,
      "Ġimpro": 1142,
      "ince": 1143,
      "ner": 1144,
      "Ġent": 1145,
      "Ġref": 1146,
      "ples": 1147,
      "Ġredu": 1148,
      "Ġequ": 1149,
      "Ġanal": 1150,
      "Ġpa": 1151,
      "ning": 1152,
      "Ġquest": 1153,
      "Ġpos": 1154,
      "Ġunderstand": 1155,
      "Ġallow": 1156,
      "ffic": 1157,
      "Ġtake": 1158,
      "com": 1159,
      "Ġhand": 1160,
      "Ġadv": 1161,
      "uss": 1162,
      "Ġpop": 1163,
      "ths": 1164,
      "ode": 1165,
      "Ġgener": 1166,
      "Ġaut": 1167,
      "con": 1168,
      "uch": 1169,
      "ired": 1170,
      "iel": 1171,
      "Ġreal": 1172,
      "ĠRe": 1173,
      "ern": 1174,
      "Ġresult": 1175,
      "ug": 1176,
      "rent": 1177,
      "Ġday": 1178,
      "Ġend": 1179,
      "Ġsignific": 1180,
      "Ġyears": 1181,
      "ock": 1182,
      "Ġdire": 1183,
      "Ġbusiness": 1184,
      "Ġorgan": 1185,
      "ĠPro": 1186,
      "iron": 1187,
      "read": 1188,
      "ran": 1189,
      "Ġmight": 1190,
      "Ġresp": 1191,
      "ĠAn": 1192,
      "ds": 1193,
      "Ġincre": 1194,
      "rand": 1195,
      "Ġbeing": 1196,
      "Ġav": 1197,
      "Ġpower": 1198,
      "ccess": 1199,
      "Ġ[": 1200,
      "els": 1201,
      "Ġbefore": 1202,
      "ring": 1203,
      "Ġcle": 1204,
      "lement": 1205,
      "ash": 1206,
      "ability": 1207,
      "Ġrep": 1208,
      "Ġboth": 1209,
      "ĠLe": 1210,
      "Ġpartic": 1211,
      "Ġthink": 1212,
      "ĠAr": 1213,
      "Ġexperience": 1214,
      "Ġconf": 1215,
      "Ġtext": 1216,
      "pend": 1217,
      "Ġfact": 1218,
      "Ġcare": 1219,
      "Ġinclude": 1220,
      "Ġdoes": 1221,
      "iving": 1222,
      "Ġess": 1223,
      "oh": 1224,
      "Ġdid": 1225,
      "ames": 1226,
      "Th": 1227,
      "ah": 1228,
      "Ġstory": 1229,
      "der": 1230,
      "ling": 1231,
      "ights": 1232,
      "Ġexam": 1233,
      "Ġproject": 1234,
      "Ġener": 1235,
      "angu": 1236,
      "Ġrelations": 1237,
      "ites": 1238,
      "Ġoften": 1239,
      "Ġrese": 1240,
      "Ġbel": 1241,
      "cept": 1242,
      "Ġposs": 1243,
      "ale": 1244,
      "Ġdown": 1245,
      "ocus": 1246,
      "arm": 1247,
      "cing": 1248,
      "Ġconsider": 1249,
      "Ġbuild": 1250,
      "ants": 1251,
      "Ġprof": 1252,
      "vers": 1253,
      "Ġchild": 1254,
      "ique": 1255,
      "val": 1256,
      "Ġve": 1257,
      "ining": 1258,
      "viron": 1259,
      "ources": 1260,
      "ism": 1261,
      "Ġduring": 1262,
      "Ġaround": 1263,
      "Ġgrow": 1264,
      "Ġcent": 1265,
      "ases": 1266,
      "Ġcor": 1267,
      "Ġenergy": 1268,
      "ividual": 1269,
      "Ġdetail": 1270,
      "EAR": 1271,
      "Ġpat": 1272,
      "Ġchall": 1273,
      "Ġmarket": 1274,
      "alk": 1275,
      "line": 1276,
      "Ġserv": 1277,
      "az": 1278,
      "ral": 1279,
      "Ġrelationship": 1280,
      "Ġcar": 1281,
      "Ġprom": 1282,
      "ublic": 1283,
      "tle": 1284,
      "Ġment": 1285,
      "Ġreturn": 1286,
      "ĠHere": 1287,
      "Ġtool": 1288,
      "Ġbecause": 1289,
      "orro": 1290,
      "Ġbir": 1291,
      "Ġpar": 1292,
      "Ġclass": 1293,
      "ĠNew": 1294,
      "ĠLIN": 1295,
      "oun": 1296,
      "ĠSocorro": 1297,
      "ggest": 1298,
      "ĠLINEAR": 1299,
      "chool": 1300,
      "Ġcult": 1301,
      "ĠSh": 1302,
      "Ġinterest": 1303,
      "Ġsame": 1304,
      "ically": 1305,
      "Ġmaking": 1306,
      "Ġdef": 1307,
      "Ġmon": 1308,
      "Ġpur": 1309,
      "Ġap": 1310,
      "lease": 1311,
      "Ġhist": 1312,
      "ization": 1313,
      "................": 1314,
      "be": 1315,
      "Ġsuccess": 1316,
      "ave": 1317,
      "Ġgood": 1318,
      "Ġperform": 1319,
      "Ġenviron": 1320,
      "lev": 1321,
      "Ġfew": 1322,
      "Ġsignificant": 1323,
      "Ġindividual": 1324,
      "Ġthough": 1325,
      "Ġpract": 1326,
      "Ġsuggest": 1327,
      "Ġpotential": 1328,
      "'re": 1329,
      "ason": 1330,
      "ually": 1331,
      "Ġpass": 1332,
      "Ġknown": 1333,
      "Ġbeh": 1334,
      "Ġlet": 1335,
      "Ġproble": 1336,
      "und": 1337,
      "Ġest": 1338,
      "ĠĠĠ": 1339,
      "Ġbook": 1340,
      "Ġeas": 1341,
      "Ġagain": 1342,
      "Ġself": 1343,
      "}}": 1344,
      "ries": 1345,
      "way": 1346,
      "Ġvalue": 1347,
      "Ġkey": 1348,
      "Ġsom": 1349,
      "pro": 1350,
      "ĠHowever": 1351,
      "ĠUnited": 1352,
      "Ġfocus": 1353,
      "ĠâĢľ": 1354,
      "til": 1355,
      "ills": 1356,
      "over": 1357,
      "Ġident": 1358,
      "ets": 1359,
      "Ġconne": 1360,
      "ted": 1361,
      "Ġcost": 1362,
      "ital": 1363,
      "par": 1364,
      "ined": 1365,
      "Ġhum": 1366,
      "ertain": 1367,
      "ĠThese": 1368,
      "Ġlangu": 1369,
      "Ġens": 1370,
      "Ġtry": 1371,
      "ute": 1372,
      "Ġchang": 1373,
      "Ġsal": 1374,
      "ple": 1375,
      "Ġben": 1376,
      "por": 1377,
      "Ġdirect": 1378,
      "ball": 1379,
      "Ġtop": 1380,
      "Ġaccess": 1381,
      "de": 1382,
      "vent": 1383,
      "**:": 1384,
      "Ġfamily": 1385,
      "Ġop": 1386,
      "Ġmuch": 1387,
      "au": 1388,
      "Ġmusic": 1389,
      "Ġfollowing": 1390,
      "\":\"": 1391,
      "view": 1392,
      "Ġbest": 1393,
      "cription": 1394,
      "Ġenvironment": 1395,
      "Ġgiven": 1396,
      "Ġsum": 1397,
      "Ġ<": 1398,
      "des": 1399,
      "man": 1400,
      "____": 1401,
      "ploy": 1402,
      "Ġmet": 1403,
      "ĠĠĠĠĠĠĠĠ": 1404,
      "ared": 1405,
      "ron": 1406,
      "Ġsent": 1407,
      ".,": 1408,
      "``": 1409,
      "Ġopt": 1410,
      "ouse": 1411,
      "Ġbo": 1412,
      "Ġplace": 1413,
      "day": 1414,
      "ethod": 1415,
      "ours": 1416,
      "Ġstate": 1417,
      "atch": 1418,
      "Ġthose": 1419,
      "work": 1420,
      "ieve": 1421,
      "Ġdel": 1422,
      "Ġfriend": 1423,
      "Ġtyp": 1424,
      "ips": 1425,
      "'m": 1426,
      "ways": 1427,
      "Ġtri": 1428,
      "ering": 1429,
      "ior": 1430,
      "lu": 1431,
      "Ġlevel": 1432,
      "Ġpersonal": 1433,
      "Ġsaid": 1434,
      "li": 1435,
      "ĠSp": 1436,
      "Ġcharacter": 1437,
      "ank": 1438,
      "Ġterm": 1439,
      "Ġimportant": 1440,
      "Ġvery": 1441,
      "##": 1442,
      "Ġmust": 1443,
      "Ġimprove": 1444,
      "Ġresearch": 1445,
      "ret": 1446,
      "Ġgl": 1447,
      "Ġinvol": 1448,
      ",\"": 1449,
      "Ġtest": 1450,
      "ĠEng": 1451,
      "arly": 1452,
      "Ġinteg": 1453,
      "ories": 1454,
      "mat": 1455,
      "Ġemot": 1456,
      "Ġthree": 1457,
      "):": 1458,
      "ately": 1459,
      "sw": 1460,
      "Ġsense": 1461,
      "Ġext": 1462,
      "Ġcontin": 1463,
      "Ġsing": 1464,
      "Ġuntil": 1465,
      "ĠAnd": 1466,
      "air": 1467,
      "type": 1468,
      "Ġcity": 1469,
      "Ġbre": 1470,
      "ateg": 1471,
      "Ġsecond": 1472,
      "Ġactiv": 1473,
      "ĠThere": 1474,
      "Ġright": 1475,
      "ĠStates": 1476,
      "Ġchalleng": 1477,
      "Ġconst": 1478,
      "Ġ{": 1479,
      "Ġexamples": 1480,
      "agement": 1481,
      "Ġmedia": 1482,
      "Ġaud": 1483,
      "rap": 1484,
      "aterial": 1485,
      "Ġcr": 1486,
      "ody": 1487,
      "name": 1488,
      "gether": 1489,
      "Ġtogether": 1490,
      "ĠEm": 1491,
      "ĠTo": 1492,
      "cul": 1493,
      "aging": 1494,
      "ober": 1495,
      "sp": 1496,
      "ross": 1497,
      "Ġcho": 1498,
      "rop": 1499,
      "Ġstep": 1500,
      "Ġ/": 1501,
      "Ġhome": 1502,
      "Ġcompany": 1503,
      "Ġ*": 1504,
      "cl": 1505,
      "ables": 1506,
      "reen": 1507,
      "Ġdevelopment": 1508,
      "Ġwebsites": 1509,
      "Ġcomplex": 1510,
      "oid": 1511,
      "Ġeffective": 1512,
      "ĠBy": 1513,
      "Ġlanguage": 1514,
      "Ġbenef": 1515,
      "Other": 1516,
      "ients": 1517,
      "Ġjob": 1518,
      "Ġmethod": 1519,
      "ote": 1520,
      "Ġcal": 1521,
      "Ġname": 1522,
      "ument": 1523,
      "Ġtas": 1524,
      "aut": 1525,
      "Ġunique": 1526,
      "Ġmult": 1527,
      "tal": 1528,
      "Ġcalled": 1529,
      "Ġmean": 1530,
      "Ġbased": 1531,
      "Ġnow": 1532,
      "Ġgive": 1533,
      "ĠCon": 1534,
      "fefefe": 1535,
      "ĠInd": 1536,
      "Ġstill": 1537,
      "here": 1538,
      "ope": 1539,
      "Ġdeath": 1540,
      "new": 1541,
      "Ġsever": 1542,
      "Ġkeep": 1543,
      "utes": 1544,
      "ray": 1545,
      "Ġindust": 1546,
      "Ġchange": 1547,
      "Ġpri": 1548,
      "Ġrest": 1549,
      "iversity": 1550,
      "ication": 1551,
      "Ġpolit": 1552,
      "ull": 1553,
      "Ġsound": 1554,
      "ĠQ": 1555,
      "ĠBe": 1556,
      "aj": 1557,
      "inal": 1558,
      "Ġgr": 1559,
      "Ġstudents": 1560,
      "Ġphys": 1561,
      "ury": 1562,
      "Ġstand": 1563,
      "ield": 1564,
      "ething": 1565,
      "Ġhapp": 1566,
      "Ġsure": 1567,
      "sc": 1568,
      "arge": 1569,
      "ina": 1570,
      "Ġele": 1571,
      "Ġless": 1572,
      "ton": 1573,
      "yle": 1574,
      "Ġfood": 1575,
      "Ġlocal": 1576,
      "Ġcontent": 1577,
      "ats": 1578,
      "ann": 1579,
      "Ġbro": 1580,
      "ĠSc": 1581,
      "less": 1582,
      "Ġland": 1583,
      "Ġdep": 1584,
      "Ġwithout": 1585,
      "Ġdem": 1586,
      "Ġach": 1587,
      "itions": 1588,
      "Ġmaterial": 1589,
      "Ġfil": 1590,
      "Ġdri": 1591,
      "Ġseveral": 1592,
      "\",\"": 1593,
      "As": 1594,
      "Ġ{\"": 1595,
      "iver": 1596,
      "Ġopen": 1597,
      "Ġiss": 1598,
      "atures": 1599,
      "Ġlight": 1600,
      "ery": 1601,
      ">>": 1602,
      "Ġarea": 1603,
      "Ġschool": 1604,
      "atural": 1605,
      "Ġdon": 1606,
      "Ġinvest": 1607,
      "ohn": 1608,
      "Ġfoot": 1609,
      "Ġpossible": 1610,
      "sh": 1611,
      "inc": 1612,
      "Ġfac": 1613,
      "rol": 1614,
      "ression": 1615,
      "Ġcommunity": 1616,
      "ystem": 1617,
      "ney": 1618,
      "Ġuser": 1619,
      "Ġrun": 1620,
      "orld": 1621,
      "Ġstudy": 1622,
      "ograph": 1623,
      "outh": 1624,
      "Ġel": 1625,
      "Ġ&": 1626,
      "ination": 1627,
      "Ġpresent": 1628,
      "ructure": 1629,
      "ek": 1630,
      "ished": 1631,
      "ĠZ": 1632,
      "ĠBut": 1633,
      "err": 1634,
      "by": 1635,
      "'ll": 1636,
      "oft": 1637,
      "Ġseries": 1638,
      "Ġpositive": 1639,
      "Ġgra": 1640,
      "ĠPl": 1641,
      "yn": 1642,
      "Ġoper": 1643,
      "Ġothers": 1644,
      "Ġappe": 1645,
      "Ġair": 1646,
      "ency": 1647,
      "Ġmind": 1648,
      "Ġtre": 1649,
      "Ġsit": 1650,
      "Ġaddition": 1651,
      "Ġlo": 1652,
      "Ġensure": 1653,
      "?<|": 1654,
      "Ġline": 1655,
      "Ġprofess": 1656,
      "Ġbirths": 1657,
      "ĠIs": 1658,
      "Ġsomething": 1659,
      "ze": 1660,
      "ems": 1661,
      "Ġalways": 1662,
      "ape": 1663,
      "Ġhere": 1664,
      "Ġestab": 1665,
      "Ġquestion": 1666,
      "Ġmove": 1667,
      "Ġanother": 1668,
      "ysis": 1669,
      "Ã©": 1670,
      "ware": 1671,
      "ese": 1672,
      "Ġbetter": 1673,
      "Ġenc": 1674,
      "ĠUse": 1675,
      "Ġlit": 1676,
      "abor": 1677,
      "Ġcomb": 1678,
      "Ġeduc": 1679,
      "Ġvarious": 1680,
      "ians": 1681,
      "ĠMay": 1682,
      "Ġtotal": 1683,
      "ik": 1684,
      "Ġtell": 1685,
      "Ġexperien": 1686,
      "Ġelect": 1687,
      "Ġskills": 1688,
      "Ġinflu": 1689,
      "'ve": 1690,
      "me": 1691,
      "Ġlove": 1692,
      "Ġneeds": 1693,
      "eb": 1694,
      "Ġlim": 1695,
      "description": 1696,
      "ĠEx": 1697,
      "Ġsl": 1698,
      "Ġemploy": 1699,
      "Ġtype": 1700,
      ");": 1701,
      "Ġwithin": 1702,
      "Ġold": 1703,
      "Ġprote": 1704,
      "gin": 1705,
      "arget": 1706,
      "ots": 1707,
      "Ġstat": 1708,
      "Ġcommon": 1709,
      "Ġobject": 1710,
      "Ġapproach": 1711,
      "ains": 1712,
      "Ġlast": 1713,
      "Ġproper": 1714,
      "ĠAt": 1715,
      "back": 1716,
      "Ġrole": 1717,
      "ator": 1718,
      "lo": 1719,
      "Ġbecome": 1720,
      "Ġlarge": 1721,
      "ilities": 1722,
      "ulation": 1723,
      "ards": 1724,
      "oring": 1725,
      "iety": 1726,
      "Ġnext": 1727,
      "cer": 1728,
      "orth": 1729,
      "arr": 1730,
      "wards": 1731,
      "conom": 1732,
      "Ġinput": 1733,
      "Ġcurrent": 1734,
      "Ġcap": 1735,
      "Ġessential": 1736,
      "ĠSe": 1737,
      "Ġwebsite": 1738,
      "ium": 1739,
      "ead": 1740,
      "ĠCol": 1741,
      "âĢĶ": 1742,
      "ĠCom": 1743,
      "ĠJan": 1744,
      "Ġtechnology": 1745,
      "Ġturn": 1746,
      "ĠOn": 1747,
      "Ġcase": 1748,
      "Ġmil": 1749,
      "ream": 1750,
      "Ġcour": 1751,
      "son": 1752,
      "American": 1753,
      "Ġdra": 1754,
      "St": 1755,
      "Ġleft": 1756,
      "sy": 1757,
      "Ġansw": 1758,
      "tool": 1759,
      "urther": 1760,
      "tend": 1761,
      "Ġtoo": 1762,
      "Ġtru": 1763,
      "Ġrange": 1764,
      "Ġways": 1765,
      "Ġ#": 1766,
      "ĠCl": 1767,
      "ĠWhen": 1768,
      "Ġdetails": 1769,
      "Ġwom": 1770,
      "Ġable": 1771,
      "pportun": 1772,
      "bo": 1773,
      "Ġdev": 1774,
      "Ġsong": 1775,
      "Ġideas": 1776,
      "fra": 1777,
      "une": 1778,
      "for": 1779,
      "Ġgame": 1780,
      "co": 1781,
      "Ġbehav": 1782,
      "ush": 1783,
      "Ġapplic": 1784,
      "Ġthings": 1785,
      "iation": 1786,
      "Ġmovie": 1787,
      "Ġhistory": 1788,
      "Ġhuman": 1789,
      "crib": 1790,
      "Ġexplore": 1791,
      "Ġvalues": 1792,
      "hor": 1793,
      "Ġopportun": 1794,
      "Ġaudience": 1795,
      "rodu": 1796,
      "Ġareas": 1797,
      "vern": 1798,
      "ogn": 1799,
      "Ġpain": 1800,
      "Ġpublic": 1801,
      "Ġwriting": 1802,
      "orpor": 1803,
      "How": 1804,
      "Ġz": 1805,
      "Ġmag": 1806,
      "Ġreport": 1807,
      "----": 1808,
      "Ġsym": 1809,
      "ences": 1810,
      "thing": 1811,
      "rite": 1812,
      "iting": 1813,
      "Ġimplement": 1814,
      "Ġcamp": 1815,
      "Ġhead": 1816,
      "Ġchildren": 1817,
      "amet": 1818,
      "ides": 1819,
      "Ġtimes": 1820,
      "Ġoffer": 1821,
      "Ġdeterm": 1822,
      "\":{\"": 1823,
      "Ġclear": 1824,
      "Ġevent": 1825,
      "uro": 1826,
      "Ġminutes": 1827,
      "Ġris": 1828,
      "Ġsystems": 1829,
      "Ġfeatures": 1830,
      "let": 1831,
      "Ġarg": 1832,
      "Ġstrong": 1833,
      "ĠJohn": 1834,
      "Ġpast": 1835,
      "erc": 1836,
      "Ġtem": 1837,
      "Ġask": 1838,
      "Ġimm": 1839,
      "ibility": 1840,
      "Ġcrit": 1841,
      "Ġspace": 1842,
      "Ġchallenges": 1843,
      "ived": 1844,
      "Ġdiscuss": 1845,
      "idence": 1846,
      "tember": 1847,
      "Ġnever": 1848,
      "Ġorig": 1849,
      "ĠMarch": 1850,
      "Ġnatural": 1851,
      "Ġparticular": 1852,
      "ording": 1853,
      "An": 1854,
      "Ġfr": 1855,
      "Ġnon": 1856,
      "Ġneg": 1857,
      "ĠDo": 1858,
      "Ġlearning": 1859,
      "str": 1860,
      "ches": 1861,
      "ditionally": 1862,
      "Ġleg": 1863,
      "illed": 1864,
      "Ġagainst": 1865,
      "Ġcome": 1866,
      "eptember": 1867,
      "Ġanalysis": 1868,
      "Ġcorre": 1869,
      "pos": 1870,
      "Ġmess": 1871,
      "Ġreally": 1872,
      "Ġgovern": 1873,
      "Ġexc": 1874,
      "Ġmeet": 1875,
      "Ġmot": 1876,
      "Ġcook": 1877,
      "stain": 1878,
      "ommend": 1879,
      "cle": 1880,
      "Ġavail": 1881,
      "It": 1882,
      "Ġbrand": 1883,
      "Ġtarget": 1884,
      "Ġeconom": 1885,
      "=\"": 1886,
      "This": 1887,
      "Ġfore": 1888,
      "Ġmodel": 1889,
      "Ġrepresent": 1890,
      "Ġresources": 1891,
      "()": 1892,
      "ĠAust": 1893,
      "izing": 1894,
      "ley": 1895,
      "Ġbecame": 1896,
      "Ġsustain": 1897,
      "Ġcreating": 1898,
      "ified": 1899,
      "uture": 1900,
      "aring": 1901,
      "iew": 1902,
      "ctober": 1903,
      "Ch": 1904,
      "yth": 1905,
      "Ġmov": 1906,
      "Ġmeas": 1907,
      "Ġunderstanding": 1908,
      "Ġbi": 1909,
      "imate": 1910,
      "ger": 1911,
      "Ġbas": 1912,
      "ditional": 1913,
      "Ġproducts": 1914,
      "Ġmovies": 1915,
      "app": 1916,
      "Ġvide": 1917,
      "Ġgrowth": 1918,
      "Ġes": 1919,
      "ĠPh": 1920,
      "Ġorder": 1921,
      "Ġproblem": 1922,
      "Ġcode": 1923,
      "Ġanaly": 1924,
      "oura": 1925,
      "Ġcheck": 1926,
      "Ġreduce": 1927,
      "Ġvers": 1928,
      "oney": 1929,
      "Ġpopular": 1930,
      "apan": 1931,
      "Ġworking": 1932,
      "Ġcustomers": 1933,
      "Ġpost": 1934,
      "Ġnumbers": 1935,
      "Ġlog": 1936,
      "cent": 1937,
      "elt": 1938,
      "Ġ\\(": 1939,
      "Ġcustomer": 1940,
      "Ġshort": 1941,
      "He": 1942,
      "To": 1943,
      "ĠSeptember": 1944,
      "avor": 1945,
      "Ġcontrol": 1946,
      "ugust": 1947,
      "Ġlow": 1948,
      "Ġmeans": 1949,
      "Ġrecommend": 1950,
      "Ġey": 1951,
      "ĠMar": 1952,
      "Ġindividuals": 1953,
      "Ġnet": 1954,
      "apt": 1955,
      "Ġrece": 1956,
      "Ġlik": 1957,
      "ention": 1958,
      "usion": 1959,
      "osp": 1960,
      "ĠOne": 1961,
      "ott": 1962,
      "Ġtools": 1963,
      "ĠUniversity": 1964,
      "Ġbenefits": 1965,
      "ert": 1966,
      "âĢ¢": 1967,
      "Ġdiff": 1968,
      "ances": 1969,
      "Ġsince": 1970,
      "ĠBrit": 1971,
      "Ġchanges": 1972,
      "Ġwords": 1973,
      "Ġtravel": 1974,
      "ĠOctober": 1975,
      "Ġindustry": 1976,
      "Ġhours": 1977,
      "rain": 1978,
      "Ġservices": 1979,
      "idd": 1980,
      "Ġsw": 1981,
      "vert": 1982,
      "Ġocc": 1983,
      "Ġsoft": 1984,
      "Ġaddress": 1985,
      "ï¬": 1986,
      "Ġexpect": 1987,
      "Ġevents": 1988,
      "Ġcolle": 1989,
      "Ġtypes": 1990,
      "Ġspecial": 1991,
      "Ġshare": 1992,
      "Ġsay": 1993,
      "ration": 1994,
      "cember": 1995,
      "Ġgoals": 1996,
      "lex": 1997,
      "Ġidea": 1998,
      "Wh": 1999,
      "Ġbody": 2000,
      "ctor": 2001,
      "aces": 2002,
      "Ġpattern": 2003,
      "sel": 2004,
      "Ġplat": 2005,
      "Ġlaw": 2006,
      "aster": 2007,
      "Ġfunctions": 2008,
      "oint": 2009,
      "ĠWorld": 2010,
      "Ġjour": 2011,
      "Ġpoints": 2012,
      "Ġpres": 2013,
      "Ġfour": 2014,
      "Ġdi": 2015,
      "Ġbreak": 2016,
      "uary": 2017,
      "Ġtrack": 2018,
      "Ġcoll": 2019,
      "Ġdays": 2020,
      "Ġpie": 2021,
      "ties": 2022,
      "Ġheart": 2023,
      "asing": 2024,
      "ety": 2025,
      "ĠPe": 2026,
      "fficient": 2027,
      "ĠAugust": 2028,
      "Ġtips": 2029,
      "Ġview": 2030,
      "Ġachieve": 2031,
      "ming": 2032,
      "iques": 2033,
      "atic": 2034,
      "orts": 2035,
      "serv": 2036,
      "aps": 2037,
      "Ġhard": 2038,
      "Ġaccount": 2039,
      "Ġidentify": 2040,
      "Ġestablish": 2041,
      "ague": 2042,
      "Ġfree": 2043,
      "ĠGerm": 2044,
      "Ġmental": 2045,
      "iple": 2046,
      "Ġmarketing": 2047,
      "ĠEn": 2048,
      "mp": 2049,
      "Ġhig": 2050,
      "rict": 2051,
      "Ġanswer": 2052,
      "omet": 2053,
      "Ġtown": 2054,
      "âĶ": 2055,
      "Ġflow": 2056,
      "ilar": 2057,
      "plic": 2058,
      "ĠDecember": 2059,
      "Ġfuture": 2060,
      "ource": 2061,
      "Ġperformance": 2062,
      "Ġmom": 2063,
      "Ġstyle": 2064,
      "ledge": 2065,
      "Ġprovides": 2066,
      "Ġstarted": 2067,
      "...": 2068,
      "Ġcaus": 2069,
      "frac": 2070,
      "Ġplease": 2071,
      "Ġmar": 2072,
      "Ġusers": 2073,
      "Ġquestions": 2074,
      "ĠBl": 2075,
      "rid": 2076,
      "istic": 2077,
      "Ġgen": 2078,
      "Ġrelationships": 2079,
      "Ġside": 2080,
      "urs": 2081,
      "Ġstrateg": 2082,
      "ĠSome": 2083,
      "ĠOr": 2084,
      "joy": 2085,
      "requ": 2086,
      "ird": 2087,
      "Ġwin": 2088,
      "utions": 2089,
      "We": 2090,
      "âĶĢ": 2091,
      "Ġprint": 2092,
      "ged": 2093,
      "my": 2094,
      "iction": 2095,
      "Ġinit": 2096,
      "Ġtraining": 2097,
      "ges": 2098,
      "Ġ,": 2099,
      "enn": 2100,
      "Ġcontrib": 2101,
      "Ġplayed": 2102,
      "born": 2103,
      "onse": 2104,
      "If": 2105,
      "Ġage": 2106,
      "ai": 2107,
      "ĠYork": 2108,
      "Ġincrease": 2109,
      "levision": 2110,
      "ĠJapan": 2111,
      "Ġintern": 2112,
      "ajor": 2113,
      "Ġplatform": 2114,
      "Ġpay": 2115,
      "ember": 2116,
      "Ġseason": 2117,
      "Ġarch": 2118,
      "Ġborn": 2119,
      "che": 2120,
      "Ġmaintain": 2121,
      "Ġfriends": 2122,
      "Ġstay": 2123,
      "Ġdeaths": 2124,
      "Ġ<<": 2125,
      "verage": 2126,
      "Ġsitu": 2127,
      "side": 2128,
      "Ġamount": 2129,
      "Ġlarg": 2130,
      "icult": 2131,
      "Ġbeaut": 2132,
      "uments": 2133,
      "Ġhold": 2134,
      "Ġrequire": 2135,
      "ĠX": 2136,
      "Ġanim": 2137,
      "âĶĢâĶĢ": 2138,
      "Ġconcept": 2139,
      "Ġhy": 2140,
      "Ġnecess": 2141,
      "Ġstru": 2142,
      "oon": 2143,
      "Ġmiss": 2144,
      "}{": 2145,
      "pose": 2146,
      "ones": 2147,
      "Ġbal": 2148,
      "Ġsuccessful": 2149,
      "ON": 2150,
      "Ġpers": 2151,
      "Ġterms": 2152,
      "Ġstructure": 2153,
      "Ġfootball": 2154,
      "Ġincorpor": 2155,
      "Ġrespons": 2156,
      "action": 2157,
      "olution": 2158,
      "Ġcompet": 2159,
      "ĠJanuary": 2160,
      "ilt": 2161,
      "Ġthought": 2162,
      "oms": 2163,
      "Ġdescrib": 2164,
      "Ġavailable": 2165,
      "Ġonline": 2166,
      "ĠEnglish": 2167,
      "ivity": 2168,
      "Ġsqu": 2169,
      "ently": 2170,
      "Ġaffect": 2171,
      "Ġvisit": 2172,
      "arl": 2173,
      "illion": 2174,
      "Ġbegan": 2175,
      "ee": 2176,
      "not": 2177,
      "Ġsens": 2178,
      "Ġmanagement": 2179,
      "Ġdeep": 2180,
      "Ġdepend": 2181,
      "Ġdistrib": 2182,
      "ires": 2183,
      "Ġtechniques": 2184,
      "Ġservice": 2185,
      "ises": 2186,
      "pril": 2187,
      "Ġ}": 2188,
      "Ġcharacters": 2189,
      "ault": 2190,
      "Ġphysical": 2191,
      "Ġconnect": 2192,
      "Ġelements": 2193,
      "Ġworks": 2194,
      "Ġdig": 2195,
      "Ġleast": 2196,
      "Ġtraditional": 2197,
      "istics": 2198,
      "ored": 2199,
      "Ġkind": 2200,
      "ĠTe": 2201,
      "ane": 2202,
      "Ġmakes": 2203,
      "resh": 2204,
      "Ġrecord": 2205,
      "Ġcalcul": 2206,
      "time": 2207,
      "oes": 2208,
      "ibr": 2209,
      "sych": 2210,
      "ĠThat": 2211,
      "oice": 2212,
      "ung": 2213,
      "Ġaway": 2214,
      "ĠMan": 2215,
      "Ġmembers": 2216,
      "aur": 2217,
      "Ġneeded": 2218,
      "Ġacross": 2219,
      "fer": 2220,
      "Ġeasy": 2221,
      "urope": 2222,
      "Ġresults": 2223,
      "rist": 2224,
      "Ġquality": 2225,
      "Ġbehavior": 2226,
      "Ġlater": 2227,
      "Ġoptions": 2228,
      "Ġcareer": 2229,
      "play": 2230,
      "Ġsearch": 2231,
      "ruary": 2232,
      "ebruary": 2233,
      "min": 2234,
      "ners": 2235,
      "ised": 2236,
      "ĠRiver": 2237,
      "aign": 2238,
      "Ġfactors": 2239,
      "ered": 2240,
      "amed": 2241,
      "wh": 2242,
      "ster": 2243,
      "Ġreach": 2244,
      "ony": 2245,
      "Ġfund": 2246,
      "Ġsupp": 2247,
      "Ġcourse": 2248,
      "Ġdied": 2249,
      "bum": 2250,
      "anced": 2251,
      "Ġfurther": 2252,
      "Ġput": 2253,
      "Ġbuilding": 2254,
      "Ġdifficult": 2255,
      "Ġsn": 2256,
      "hemat": 2257,
      "Ġwon": 2258,
      "Ġavoid": 2259,
      "Ġactivities": 2260,
      "elling": 2261,
      "Ġyoung": 2262,
      "ĠCal": 2263,
      "duct": 2264,
      "(\"": 2265,
      "Ġcir": 2266,
      "ological": 2267,
      "def": 2268,
      "Ġcup": 2269,
      "light": 2270,
      "Ġplayer": 2271,
      "Ġnegative": 2272,
      "Ġsimilar": 2273,
      "Ġsingle": 2274,
      "Ġbegin": 2275,
      "ython": 2276,
      "ters": 2277,
      "ief": 2278,
      "ipp": 2279,
      "Ġtreat": 2280,
      "ĠYour": 2281,
      "iod": 2282,
      "iate": 2283,
      "ĠPr": 2284,
      "aves": 2285,
      "ST": 2286,
      "ĠGe": 2287,
      "```": 2288,
      "Ġcountry": 2289,
      "oph": 2290,
      "ried": 2291,
      "ĠComm": 2292,
      "Ġcontain": 2293,
      "Ġmaterials": 2294,
      "Ġculture": 2295,
      "ĠApril": 2296,
      "Ġtelevision": 2297,
      "ament": 2298,
      "Ġremain": 2299,
      "call": 2300,
      "Ġerr": 2301,
      "Ġsomeone": 2302,
      "fort": 2303,
      "aly": 2304,
      "Ġnature": 2305,
      "reng": 2306,
      "ĠInst": 2307,
      "ees": 2308,
      "ĠBritish": 2309,
      "omes": 2310,
      "Ġgoing": 2311,
      "Ġsize": 2312,
      "Ġconvers": 2313,
      "rem": 2314,
      "Ġrequired": 2315,
      "For": 2316,
      "face": 2317,
      "itect": 2318,
      "Ġprograms": 2319,
      "Ġsat": 2320,
      "ĠRes": 2321,
      "Ġeducation": 2322,
      "Ġcomput": 2323,
      "Ġvol": 2324,
      "opp": 2325,
      "ĠJu": 2326,
      "Ġstrugg": 2327,
      "................................": 2328,
      "anies": 2329,
      "augh": 2330,
      "Ġcolor": 2331,
      "Ġissues": 2332,
      "Ġexperiences": 2333,
      "ician": 2334,
      "ising": 2335,
      "Ġfeed": 2336,
      "Ġexist": 2337,
      "rec": 2338,
      "Ġeff": 2339,
      "Ġresponse": 2340,
      "Ġpred": 2341,
      "Ġcertain": 2342,
      "Ġprofessional": 2343,
      "Ġgames": 2344,
      "ĠAdditionally": 2345,
      "value": 2346,
      "tem": 2347,
      "ĠKing": 2348,
      "ĠFebruary": 2349,
      "selves": 2350,
      "pecial": 2351,
      "Ġtransport": 2352,
      "Ġgovernment": 2353,
      "Ġface": 2354,
      "Ġexerc": 2355,
      "Ġgroups": 2356,
      "ĠEurope": 2357,
      "ditions": 2358,
      "Ġla": 2359,
      "Ġgeneral": 2360,
      "You": 2361,
      "Ġstore": 2362,
      "ators": 2363,
      "Ġcommunication": 2364,
      "Ġsentence": 2365,
      "Ġinstru": 2366,
      "urity": 2367,
      "Ġalong": 2368,
      "Ġprob": 2369,
      "af": 2370,
      "Ġphot": 2371,
      "rew": 2372,
      "Ġsumm": 2373,
      "Ġcampaign": 2374,
      "ĠSure": 2375,
      "Ġword": 2376,
      "Ġmen": 2377,
      "Ġfelt": 2378,
      "Ġlive": 2379,
      "Ġseem": 2380,
      "Ġcalls": 2381,
      "uck": 2382,
      "Ġbig": 2383,
      "Ġauthor": 2384,
      "ids": 2385,
      "ĠYes": 2386,
      "Ġmajor": 2387,
      "rench": 2388,
      "Ġaction": 2389,
      "onsider": 2390,
      "cript": 2391,
      "\".": 2392,
      "Ġce": 2393,
      "ued": 2394,
      "ĠPar": 2395,
      "Ġtrue": 2396,
      "Ġmultiple": 2397,
      "Ġproblems": 2398,
      "Ġdat": 2399,
      "Ġcreated": 2400,
      "Ġstrategies": 2401,
      "Ġfield": 2402,
      "Ġknowledge": 2403,
      "Ġge": 2404,
      "ĠWrite": 2405,
      "Ġdiv": 2406,
      "ameters": 2407,
      "Ġmanag": 2408,
      "Ġtaking": 2409,
      "aries": 2410,
      "Ġdue": 2411,
      "Ġallows": 2412,
      "ĠRep": 2413,
      "Ġfar": 2414,
      "Ġquick": 2415,
      "Ġoverall": 2416,
      "Ġpolic": 2417,
      "ĠAll": 2418,
      "Ġearly": 2419,
      "ift": 2420,
      "Ġsales": 2421,
      "cher": 2422,
      "ene": 2423,
      "Ġplayers": 2424,
      "',": 2425,
      "ison": 2426,
      "Ġoffic": 2427,
      "ovember": 2428,
      "imately": 2429,
      "ĠSu": 2430,
      "ister": 2431,
      "vious": 2432,
      "aling": 2433,
      "Ġdr": 2434,
      "Ġenjoy": 2435,
      "Ġperiod": 2436,
      "Ġalbum": 2437,
      "ĠHer": 2438,
      "span": 2439,
      "Ġencoura": 2440,
      "Ġsimple": 2441,
      "Ġemotional": 2442,
      "Ġwind": 2443,
      "Ġoil": 2444,
      "ĠSer": 2445,
      "rate": 2446,
      "Ġcru": 2447,
      "Ġhelps": 2448,
      "ĠWith": 2449,
      "Ġreview": 2450,
      "ival": 2451,
      "ump": 2452,
      "ĠEl": 2453,
      "Ġhope": 2454,
      "osed": 2455,
      "Ġnight": 2456,
      "ude": 2457,
      "ĠWar": 2458,
      "Ġcollabor": 2459,
      "ĠSouth": 2460,
      "Ġinn": 2461,
      "Ġstreng": 2462,
      "Ġwhether": 2463,
      "just": 2464,
      "word": 2465,
      "ĠAf": 2466,
      "Ġdecision": 2467,
      "irl": 2468,
      "Ġcorrect": 2469,
      "iam": 2470,
      "ched": 2471,
      "ening": 2472,
      "uce": 2473,
      "There": 2474,
      "Ġseen": 2475,
      "Ġmathemat": 2476,
      "ging": 2477,
      "ened": 2478,
      "Ġadditional": 2479,
      "useum": 2480,
      "itation": 2481,
      "Ġproviding": 2482,
      "verall": 2483,
      "Ġparticip": 2484,
      "Ġprot": 2485,
      "ference": 2486,
      "ĠCar": 2487,
      "Ġlooking": 2488,
      "more": 2489,
      "Ġvideo": 2490,
      "ï¬ģ": 2491,
      "Ġlikely": 2492,
      "Ġtalk": 2493,
      "Ġleading": 2494,
      "ows": 2495,
      "Ġknew": 2496,
      "'d": 2497,
      "izations": 2498,
      "Ġincludes": 2499,
      "lished": 2500,
      "Ġformat": 2501,
      "Ġcapt": 2502,
      "tt": 2503,
      "Ġfeet": 2504,
      "ĠPart": 2505,
      "On": 2506,
      "oss": 2507,
      "Ġpopulation": 2508,
      "Ġnear": 2509,
      "Ġtransform": 2510,
      "come": 2511,
      "Ġi": 2512,
      "acy": 2513,
      "Ġability": 2514,
      "Ġbring": 2515,
      "Ġcontext": 2516,
      "Ġweek": 2517,
      "Ġhigher": 2518,
      "ox": 2519,
      "ura": 2520,
      "lying": 2521,
      "ĠJune": 2522,
      "med": 2523,
      "Ġprior": 2524,
      "ler": 2525,
      "Ġfail": 2526,
      "Ġmoney": 2527,
      "inally": 2528,
      "Ġautom": 2529,
      "Ġoptim": 2530,
      "pper": 2531,
      "Ġintrodu": 2532,
      "hel": 2533,
      "Ġstring": 2534,
      "irt": 2535,
      "icle": 2536,
      "Ġassoc": 2537,
      "Ġcy": 2538,
      "ĠNational": 2539,
      "ĠHis": 2540,
      "Ġill": 2541,
      "Ġregular": 2542,
      "umb": 2543,
      "Ġmember": 2544,
      "Ġengine": 2545,
      "bol": 2546,
      "ancial": 2547,
      "osing": 2548,
      "Ġprevent": 2549,
      "Ġattention": 2550,
      "Ġsoftware": 2551,
      "ography": 2552,
      "Ġwomen": 2553,
      "Ġoriginal": 2554,
      "Ġnecessary": 2555,
      "Ġpromot": 2556,
      "arth": 2557,
      "Ġgot": 2558,
      "Ġlittle": 2559,
      "based": 2560,
      "rast": 2561,
      "},": 2562,
      "Ġband": 2563,
      "ĠMe": 2564,
      "Ġvisual": 2565,
      "ER": 2566,
      "Ġwrite": 2567,
      "icate": 2568,
      "key": 2569,
      "Ġuses": 2570,
      "Ġarchitect": 2571,
      "Ġhouse": 2572,
      "Ġred": 2573,
      "ĠCity": 2574,
      "Ġsustainable": 2575,
      "ĠNovember": 2576,
      "Ġrev": 2577,
      "Ġyourself": 2578,
      "ĠAustral": 2579,
      "Ġperfect": 2580,
      "Ġoffers": 2581,
      "ole": 2582,
      "igure": 2583,
      "ĠCount": 2584,
      "aches": 2585,
      "ales": 2586,
      "Ġemail": 2587,
      "Ġengaging": 2588,
      "isc": 2589,
      "acks": 2590,
      "Ġsteps": 2591,
      "vey": 2592,
      "Ġinde": 2593,
      "Ġmodern": 2594,
      "Ġlay": 2595,
      "enc": 2596,
      "iated": 2597,
      "Ġwent": 2598,
      "Ġactors": 2599,
      "Ġexpress": 2600,
      "Ġnetwork": 2601,
      "Ġhaving": 2602,
      "Ġmeaning": 2603,
      "Ġrisk": 2604,
      "Ġtook": 2605,
      "adem": 2606,
      "Ġelse": 2607,
      "Ġprotect": 2608,
      "Ġopportunities": 2609,
      "Ġtakes": 2610,
      "ĠAfter": 2611,
      "ĠJuly": 2612,
      "Ġwalk": 2613,
      "Ġrather": 2614,
      "num": 2615,
      "Ġinsp": 2616,
      "Ġthird": 2617,
      "etic": 2618,
      "ĠTr": 2619,
      "Ġrecogn": 2620,
      "Ġfile": 2621,
      "itch": 2622,
      "alf": 2623,
      "uild": 2624,
      "alls": 2625,
      "Ġbat": 2626,
      "ume": 2627,
      "Ġcompanies": 2628,
      "ĠAmeric": 2629,
      "Ġwhy": 2630,
      "Ġamong": 2631,
      "________": 2632,
      "iment": 2633,
      "//": 2634,
      "Ġmach": 2635,
      "Ġprogress": 2636,
      "Ġconcern": 2637,
      "Ġliving": 2638,
      "Ġenough": 2639,
      ".âĢĿ": 2640,
      "ĠAm": 2641,
      "Ġsources": 2642,
      "aren": 2643,
      "Ġabove": 2644,
      ".\",": 2645,
      "atives": 2646,
      "Ġdone": 2647,
      "ground": 2648,
      "unch": 2649,
      "Ġpurpose": 2650,
      "Ġrele": 2651,
      "Ġonce": 2652,
      "ĠAdd": 2653,
      "ĠLet": 2654,
      "Ġcultural": 2655,
      "Ġpractice": 2656,
      "Ġexplain": 2657,
      "place": 2658,
      "Ġeffects": 2659,
      "oman": 2660,
      "ĠFran": 2661,
      "ĠDes": 2662,
      "Ġexpert": 2663,
      "Ġversion": 2664,
      "Ġcame": 2665,
      "ps": 2666,
      "Ġtherap": 2667,
      "Ġsle": 2668,
      "Ġcountries": 2669,
      "ma": 2670,
      "Ġcell": 2671,
      "Ġlower": 2672,
      "Ġgain": 2673,
      "Ġproduction": 2674,
      "Ġdesigned": 2675,
      "ww": 2676,
      "ĠGu": 2677,
      "Ġfull": 2678,
      "System": 2679,
      "book": 2680,
      "Ġste": 2681,
      "ĠWill": 2682,
      "Ġpatterns": 2683,
      "Ġpress": 2684,
      "Ġguid": 2685,
      "One": 2686,
      "Ġlevels": 2687,
      "Ġaspect": 2688,
      "Ġenh": 2689,
      "Ġsun": 2690,
      "sequ": 2691,
      "Ġhistor": 2692,
      "cient": 2693,
      "</": 2694,
      "friend": 2695,
      "Ġsequ": 2696,
      "aim": 2697,
      "Ġmethods": 2698,
      "ither": 2699,
      "Ġhot": 2700,
      "Ġinteract": 2701,
      "ĠSte": 2702,
      "Ġmix": 2703,
      "aken": 2704,
      "Ġthemselves": 2705,
      "Ġnamed": 2706,
      "ula": 2707,
      "apter": 2708,
      "Ġmoment": 2709,
      "isf": 2710,
      "inary": 2711,
      "ension": 2712,
      "Ġpaper": 2713,
      "Ġport": 2714,
      "âĢľ": 2715,
      "dom": 2716,
      "nal": 2717,
      "ana": 2718,
      "Ġrate": 2719,
      "ready": 2720,
      "Ġdise": 2721,
      "ĠUS": 2722,
      "gor": 2723,
      "ured": 2724,
      "Ġinsights": 2725,
      "Ġreducing": 2726,
      "Ġtheory": 2727,
      "Ġbar": 2728,
      "Ġlot": 2729,
      "Ġscore": 2730,
      "Ġvoice": 2731,
      "Ġnut": 2732,
      "hood": 2733,
      "Ġcra": 2734,
      "Ġdest": 2735,
      "Ġgreen": 2736,
      "ĠPres": 2737,
      "Ġgoal": 2738,
      "pecially": 2739,
      "Ġled": 2740,
      "Ġjourney": 2741,
      "ĠSw": 2742,
      "Ġmotiv": 2743,
      "ĠInc": 2744,
      "Ġbooks": 2745,
      "Ġprim": 2746,
      "ipe": 2747,
      "Ġfinancial": 2748,
      "Ġcrucial": 2749,
      "go": 2750,
      "Ġreflect": 2751,
      "Ad": 2752,
      "Ġanx": 2753,
      "iverse": 2754,
      "ĠMin": 2755,
      "ops": 2756,
      "ĠCent": 2757,
      "Living": 2758,
      "ification": 2759,
      "Ġfinal": 2760,
      "Ġessay": 2761,
      "Ġfeeling": 2762,
      "Ġequation": 2763,
      "Ġaccording": 2764,
      "overed": 2765,
      "tic": 2766,
      "Ġnav": 2767,
      "Ġtrying": 2768,
      "head": 2769,
      "Ġoption": 2770,
      "alu": 2771,
      "Ġformer": 2772,
      "ĠFrench": 2773,
      "ternative": 2774,
      "Ġconditions": 2775,
      "ĠLeague": 2776,
      "Ġdraw": 2777,
      "ĠAI": 2778,
      "ategy": 2779,
      "Ġbuilt": 2780,
      "Ġenvironmental": 2781,
      "))": 2782,
      "asc": 2783,
      "Ġveget": 2784,
      "rance": 2785,
      "Ġclean": 2786,
      "ĠFl": 2787,
      "Ġleaders": 2788,
      "Ġfeedback": 2789,
      "Ġaff": 2790,
      "Ġann": 2791,
      "function": 2792,
      "su": 2793,
      "igate": 2794,
      "ĠII": 2795,
      "Ġlives": 2796,
      "ĠWhile": 2797,
      "isions": 2798,
      "Ġstress": 2799,
      "Ġinstead": 2800,
      "aving": 2801,
      "oved": 2802,
      "hens": 2803,
      "ino": 2804,
      "Ġbusinesses": 2805,
      "Ġmessage": 2806,
      "By": 2807,
      "Ġfive": 2808,
      "Ġparticularly": 2809,
      "Ġeyes": 2810,
      "Ġpath": 2811,
      "Ġnarr": 2812,
      "Ġconsist": 2813,
      "Ġstrategy": 2814,
      "Ġregion": 2815,
      "Ġdark": 2816,
      "Ġri": 2817,
      "urg": 2818,
      "ĠNorth": 2819,
      "ym": 2820,
      "rel": 2821,
      "uted": 2822,
      "ĠNe": 2823,
      "ara": 2824,
      "acher": 2825,
      "Ġfeature": 2826,
      "na": 2827,
      "ĠGeor": 2828,
      "eds": 2829,
      "ĠCanad": 2830,
      "Ġpow": 2831,
      "Ġinnov": 2832,
      "Ġaverage": 2833,
      "bra": 2834,
      "pty": 2835,
      "Ġrad": 2836,
      "Ġbalance": 2837,
      "ĠAfric": 2838,
      "reate": 2839,
      "Ġbase": 2840,
      "Ġmax": 2841,
      "Ġthroughout": 2842,
      "Ġminim": 2843,
      "Ġcosts": 2844,
      "Ġrock": 2845,
      "Ġpages": 2846,
      "itude": 2847,
      "urch": 2848,
      "Ġfit": 2849,
      "Ġet": 2850,
      "ĠPal": 2851,
      "Ġcomes": 2852,
      "Ġrelated": 2853,
      "Ġpractices": 2854,
      "Ġeconomic": 2855,
      "Ġground": 2856,
      "ĠMy": 2857,
      "Ġusually": 2858,
      "Ġsurv": 2859,
      "hing": 2860,
      "Ġalready": 2861,
      "Ġconcl": 2862,
      "Ġtowards": 2863,
      "Ġblack": 2864,
      "Ġevidence": 2865,
      "Ġspeak": 2866,
      "Ġroom": 2867,
      "Ġorganization": 2868,
      "Ġemotions": 2869,
      "Ġscient": 2870,
      "Ġimportance": 2871,
      "Ġaw": 2872,
      "do": 2873,
      "Ġespecially": 2874,
      "writ": 2875,
      "Ġconnection": 2876,
      "Ġfresh": 2877,
      "Ġrelev": 2878,
      "ively": 2879,
      "Ġdoing": 2880,
      "Ġbehind": 2881,
      "spe": 2882,
      "izes": 2883,
      "Ġpolitician": 2884,
      "Ġdeb": 2885,
      "Ġplant": 2886,
      "Ġwritten": 2887,
      "Ġhealthy": 2888,
      "Ġtemper": 2889,
      "ha": 2890,
      "Ġwa": 2891,
      "ength": 2892,
      "Ex": 2893,
      "rog": 2894,
      "Ġever": 2895,
      "Ġposition": 2896,
      "actions": 2897,
      "hold": 2898,
      "itt": 2899,
      "ĠProv": 2900,
      "king": 2901,
      "most": 2902,
      "oll": 2903,
      "Ġfamil": 2904,
      ":**": 2905,
      "Ġadapt": 2906,
      "ruction": 2907,
      "agon": 2908,
      "rents": 2909,
      "Ġeffectively": 2910,
      "roll": 2911,
      "urt": 2912,
      "ĠGo": 2913,
      "Ġchoose": 2914,
      "ĠMed": 2915,
      "Ġcut": 2916,
      "ĠChrist": 2917,
      "ĠCounty": 2918,
      "nds": 2919,
      "rown": 2920,
      "Ġupd": 2921,
      "uff": 2922,
      "rad": 2923,
      "illing": 2924,
      "Ġpowerful": 2925,
      "Ġcentury": 2926,
      "When": 2927,
      "Ġincluded": 2928,
      "Ġcollect": 2929,
      "que": 2930,
      "Ġdifference": 2931,
      "Ġfun": 2932,
      "redients": 2933,
      "Al": 2934,
      "Ġrespect": 2935,
      "Ġsongs": 2936,
      "Ġpub": 2937,
      "ĠIm": 2938,
      "Ġprep": 2939,
      "Ġcause": 2940,
      "Ġmillion": 2941,
      "Ġconsum": 2942,
      "Ġworked": 2943,
      "Ġconcise": 2944,
      "Ġtask": 2945,
      "ctors": 2946,
      "urb": 2947,
      "Ġinvolves": 2948,
      "ĠConsider": 2949,
      "Ġadjust": 2950,
      "Con": 2951,
      "Ġnational": 2952,
      "sing": 2953,
      "uf": 2954,
      "Ġtoday": 2955,
      "ĠChe": 2956,
      "set": 2957,
      "ror": 2958,
      "Ġing": 2959,
      "Ġtour": 2960,
      "icians": 2961,
      "ĠSo": 2962,
      "Ġtasks": 2963,
      "omin": 2964,
      "Ġheav": 2965,
      "Ġimag": 2966,
      "}$": 2967,
      "OS": 2968,
      "Ġwaste": 2969,
      "aff": 2970,
      "ike": 2971,
      "ĠAng": 2972,
      "\"}}": 2973,
      "Ġproperties": 2974,
      "Ġtend": 2975,
      "Ġpack": 2976,
      "Ġpark": 2977,
      "Ġcommit": 2978,
      "ĠQu": 2979,
      "mon": 2980,
      "ĠBar": 2981,
      "Ġallowing": 2982,
      "Ġdistribution": 2983,
      "Ġtransportation": 2984,
      "Ġpan": 2985,
      "gar": 2986,
      "artment": 2987,
      "gorith": 2988,
      "Overall": 2989,
      "Ġsuper": 2990,
      "Ġpromote": 2991,
      "Ġreleased": 2992,
      "reet": 2993,
      "Ġreason": 2994,
      "Ġprevious": 2995,
      "istance": 2996,
      "ĠLa": 2997,
      "Ġanxiety": 2998,
      "Ġpsych": 2999,
      "ĠKe": 3000,
      "pite": 3001,
      "Ġopp": 3002,
      "ules": 3003,
      "cast": 3004,
      "hern": 3005,
      "Ġprovided": 3006,
      "Ġdoc": 3007,
      "Ġheat": 3008,
      "Ġitself": 3009,
      "Ġstandard": 3010,
      "ask": 3011,
      "Ġcritical": 3012,
      "Ġforward": 3013,
      "Ġscience": 3014,
      "ĠComp": 3015,
      "Ġsymbol": 3016,
      "Ġcases": 3017,
      "Ġbit": 3018,
      "Ġapplication": 3019,
      "Ġactions": 3020,
      "Ġbr": 3021,
      "umn": 3022,
      "Ġconflic": 3023,
      "De": 3024,
      "oyal": 3025,
      "Ġinitial": 3026,
      "And": 3027,
      "Ġbreat": 3028,
      "Ġlost": 3029,
      "ĠĠĠĠĠĠĠ": 3030,
      "Ġsurround": 3031,
      "Ġmatter": 3032,
      "Ġargument": 3033,
      "rehens": 3034,
      "Ġswe": 3035,
      "Ġhelped": 3036,
      "Ġcontinue": 3037,
      "Ġslow": 3038,
      "Ġinvolved": 3039,
      "itary": 3040,
      "Ġsatisf": 3041,
      "Ġnorm": 3042,
      "acc": 3043,
      "ĠRuss": 3044,
      "Ġthoughts": 3045,
      "Ġgold": 3046,
      "off": 3047,
      "Ġemer": 3048,
      "amb": 3049,
      "ĠAss": 3050,
      "ests": 3051,
      "Ġsepar": 3052,
      "Ġjo": 3053,
      "ission": 3054,
      "Ġorganizations": 3055,
      "oud": 3056,
      "Ġvariety": 3057,
      "Ġrob": 3058,
      "Ġpair": 3059,
      "know": 3060,
      "aced": 3061,
      "Ġsounds": 3062,
      "Ġdam": 3063,
      "Ġentire": 3064,
      "Ġtou": 3065,
      "Ġsource": 3066,
      "Ġattend": 3067,
      "Ġsituation": 3068,
      "Ġeverything": 3069,
      "Ġbelieve": 3070,
      "ĠPer": 3071,
      "Ġwee": 3072,
      "Ġcirc": 3073,
      "care": 3074,
      "Ġtaken": 3075,
      "Ġitems": 3076,
      "Ġcomfort": 3077,
      "Ġwarm": 3078,
      "idered": 3079,
      "aching": 3080,
      "Ġgetting": 3081,
      "iddle": 3082,
      "ena": 3083,
      "Ġdeveloped": 3084,
      "ĠCould": 3085,
      "Ġevalu": 3086,
      "ĠGerman": 3087,
      "Ġmass": 3088,
      "Ġexec": 3089,
      "Ġadded": 3090,
      "Ġsubject": 3091,
      "Ġalgorith": 3092,
      "though": 3093,
      "Ġwhole": 3094,
      "with": 3095,
      "reed": 3096,
      "ĠCo": 3097,
      "bor": 3098,
      "Ġapplications": 3099,
      "Ġfall": 3100,
      "ĠPol": 3101,
      "hips": 3102,
      "Ġpurch": 3103,
      "ael": 3104,
      "ampions": 3105,
      "Ġbuy": 3106,
      "Ġinterested": 3107,
      "ĠPresident": 3108,
      "Ġâ": 3109,
      "Ġselect": 3110,
      "phas": 3111,
      "Ġshows": 3112,
      "rated": 3113,
      "ĠTra": 3114,
      "ĠAre": 3115,
      "Ġelectric": 3116,
      "\")": 3117,
      "Ġtable": 3118,
      "Ġfrequ": 3119,
      "Ġgard": 3120,
      "Ġang": 3121,
      "What": 3122,
      "Ġsetting": 3123,
      "ception": 3124,
      "Ġdeg": 3125,
      "Ġsauce": 3126,
      "Ġinstall": 3127,
      "Ġdidn": 3128,
      "uel": 3129,
      "Ġcoun": 3130,
      "ĠTw": 3131,
      "amic": 3132,
      "Ġsubst": 3133,
      "Ġrelevant": 3134,
      "ivil": 3135,
      "Ġsolution": 3136,
      "Ġdetermine": 3137,
      "Ġver": 3138,
      "Ġrenew": 3139,
      "ĠJack": 3140,
      "Ġmanage": 3141,
      "Ġadding": 3142,
      "Ġprojects": 3143,
      "yl": 3144,
      "zz": 3145,
      "Ġpage": 3146,
      "uth": 3147,
      "Ġsecurity": 3148,
      "Ġsix": 3149,
      "lands": 3150,
      "icles": 3151,
      "Ġhalf": 3152,
      "Another": 3153,
      "orks": 3154,
      "erse": 3155,
      "Ġphr": 3156,
      "enge": 3157,
      "bon": 3158,
      "Ġbud": 3159,
      "Ġplants": 3160,
      "Ġrestaur": 3161,
      "Ġwar": 3162,
      "Ġwhite": 3163,
      "Ġprec": 3164,
      "ĠAb": 3165,
      "Ġguide": 3166,
      "Ġunc": 3167,
      "Ġspir": 3168,
      "Ġpriv": 3169,
      "ĠAmerica": 3170,
      ">[": 3171,
      "iful": 3172,
      "Ġarr": 3173,
      "ĠCertain": 3174,
      "unic": 3175,
      "ĠHar": 3176,
      "ached": 3177,
      "print": 3178,
      "ES": 3179,
      "Ġelement": 3180,
      "Ġefficient": 3181,
      "ĠAv": 3182,
      "ĠPlease": 3183,
      "Ġsaw": 3184,
      "Ġaim": 3185,
      "ĠSm": 3186,
      "ably": 3187,
      "Ġemployees": 3188,
      "==": 3189,
      "ĠÂ": 3190,
      "Ġsil": 3191,
      "anks": 3192,
      "Ġclose": 3193,
      "Ġconsidered": 3194,
      "Ġincreased": 3195,
      "Ġveh": 3196,
      "Ġmention": 3197,
      "ply": 3198,
      "Ġwond": 3199,
      "Ġstudent": 3200,
      "Ġindepend": 3201,
      "ĠIntern": 3202,
      "Ġflavor": 3203,
      "angle": 3204,
      "aily": 3205,
      "--------": 3206,
      "Ġweb": 3207,
      "ensive": 3208,
      "obal": 3209,
      "eder": 3210,
      "ĠRem": 3211,
      "Ġcomplete": 3212,
      "pped": 3213,
      "astic": 3214,
      "Ġquickly": 3215,
      "den": 3216,
      "Ġrich": 3217,
      "Ġapprec": 3218,
      "Ġtrust": 3219,
      "Ġthinking": 3220,
      "Ġnarrative": 3221,
      "nding": 3222,
      "Ġrates": 3223,
      "Ġclimate": 3224,
      "Ġparents": 3225,
      "mit": 3226,
      "ieved": 3227,
      "Ġcover": 3228,
      "Ġpiece": 3229,
      "leb": 3230,
      "Ġ$\\": 3231,
      "Ġlimit": 3232,
      "omp": 3233,
      "ologies": 3234,
      "Ġextra": 3235,
      "pri": 3236,
      "Ġstories": 3237,
      "Ġweight": 3238,
      "Ġinteresting": 3239,
      "Ġmob": 3240,
      "Ġoutput": 3241,
      "],": 3242,
      "Ġlab": 3243,
      "ĠSim": 3244,
      "Ġsmo": 3245,
      "Ġwanted": 3246,
      "Ġdemon": 3247,
      "]</": 3248,
      "rt": 3249,
      "AR": 3250,
      "Ġcat": 3251,
      "Ġstri": 3252,
      "EN": 3253,
      "Ġful": 3254,
      "Ġfire": 3255,
      "Ġreality": 3256,
      "Ġstarting": 3257,
      "Ġcred": 3258,
      "Ġparts": 3259,
      "ields": 3260,
      "Ġchoice": 3261,
      "ĠMark": 3262,
      "Ġlocation": 3263,
      "anger": 3264,
      "Ġlearned": 3265,
      "equ": 3266,
      "Ġcop": 3267,
      "itor": 3268,
      "ĠEd": 3269,
      "Ġincreasing": 3270,
      "Ġcard": 3271,
      "Ġrecipe": 3272,
      "Ġsus": 3273,
      "ĠCertainly": 3274,
      "ille": 3275,
      "Cl": 3276,
      "ius": 3277,
      "Ġcompon": 3278,
      "ĠState": 3279,
      "Ġequal": 3280,
      "ĠâĢĺ": 3281,
      "Ġclaim": 3282,
      "Ġemp": 3283,
      "Ġdistance": 3284,
      "Ġperspect": 3285,
      "ae": 3286,
      "Ġtit": 3287,
      "ĠCreate": 3288,
      "ellig": 3289,
      "These": 3290,
      "Ġinfluence": 3291,
      "Ġdyn": 3292,
      "Ġhost": 3293,
      "Ġeither": 3294,
      "ĠPark": 3295,
      "Ġsche": 3296,
      "friendly": 3297,
      "Ġmother": 3298,
      "Ġdou": 3299,
      "otes": 3300,
      "ĠEngland": 3301,
      "Ġvalu": 3302,
      "Ġflo": 3303,
      "Ġbox": 3304,
      "Ġwatch": 3305,
      "lection": 3306,
      "Ġlif": 3307,
      "Ġissue": 3308,
      "Ġassociated": 3309,
      "ding": 3310,
      "ĠNo": 3311,
      "Ġmeasure": 3312,
      "Ġtax": 3313,
      "inct": 3314,
      "agn": 3315,
      "tion": 3316,
      "Ġreve": 3317,
      "ĠMon": 3318,
      "Ġhelpful": 3319,
      "Ġofficial": 3320,
      "Ġthing": 3321,
      "Ġsuggestions": 3322,
      "Ġsquare": 3323,
      "Ġsold": 3324,
      "Ġdetailed": 3325,
      "chan": 3326,
      "Ġdigital": 3327,
      "iber": 3328,
      "aged": 3329,
      "Ġfamous": 3330,
      "Ġlonger": 3331,
      "Ġconclusion": 3332,
      "ĠAir": 3333,
      "iforn": 3334,
      "Ġoutside": 3335,
      "Ġmaxim": 3336,
      "aint": 3337,
      "Ġvariable": 3338,
      "Ġappear": 3339,
      "Ġspeed": 3340,
      "Ġmonths": 3341,
      "Ġpict": 3342,
      "ided": 3343,
      "Ġinstance": 3344,
      "Ġestablishments": 3345,
      ",âĢĿ": 3346,
      "life": 3347,
      "rig": 3348,
      "raw": 3349,
      "Ġactor": 3350,
      "Ġgreater": 3351,
      "sol": 3352,
      "uk": 3353,
      "Ġnovel": 3354,
      "eter": 3355,
      "like": 3356,
      "Ġwoman": 3357,
      "Ġut": 3358,
      "||||": 3359,
      "Ġones": 3360,
      "Ġcomprehens": 3361,
      "Ġfollows": 3362,
      "Ġcommunities": 3363,
      "Ġsleep": 3364,
      "ĠSec": 3365,
      "Ġchick": 3366,
      "iveness": 3367,
      "Ġcenter": 3368,
      "But": 3369,
      "Ġwild": 3370,
      "iles": 3371,
      "Ġgar": 3372,
      "ĠDon": 3373,
      "Ġdefin": 3374,
      "Ġfront": 3375,
      "istory": 3376,
      "Ġactivity": 3377,
      "iol": 3378,
      "ĠAlex": 3379,
      "Ġprice": 3380,
      "Ġreader": 3381,
      "\"|": 3382,
      "ald": 3383,
      "ama": 3384,
      "rag": 3385,
      "Ġindic": 3386,
      "Ġsummary": 3387,
      "that": 3388,
      "Ġvirt": 3389,
      "Ġopportunity": 3390,
      "Ġfavor": 3391,
      "Ġanything": 3392,
      "Ġer": 3393,
      "Ġsort": 3394,
      "ros": 3395,
      "Ġcheese": 3396,
      "Ġfilm": 3397,
      "ĠFrance": 3398,
      "earch": 3399,
      "Ġspecies": 3400,
      "term": 3401,
      "Ġarray": 3402,
      "Ġsolutions": 3403,
      "Ġcomputer": 3404,
      "ifornia": 3405,
      "irm": 3406,
      "Ġmonth": 3407,
      "Ġbound": 3408,
      "OR": 3409,
      "ĠCont": 3410,
      "Ġpolitical": 3411,
      "ĠPython": 3412,
      "order": 3413,
      "Ġconstant": 3414,
      "ĠRec": 3415,
      "hib": 3416,
      "haps": 3417,
      "tered": 3418,
      "dule": 3419,
      "Ġcool": 3420,
      "Ġsomet": 3421,
      "Ġefforts": 3422,
      "Ġreaders": 3423,
      "Ġoccur": 3424,
      "Ġvaluable": 3425,
      "eper": 3426,
      "Ġgas": 3427,
      "Ġancient": 3428,
      "Ġvariables": 3429,
      "arguments": 3430,
      "Ġmachine": 3431,
      "<<": 3432,
      "ux": 3433,
      "Ġtree": 3434,
      "Ġdaily": 3435,
      "idents": 3436,
      "ulate": 3437,
      "iff": 3438,
      "Ġdescript": 3439,
      "Ġlink": 3440,
      "Ġshape": 3441,
      "overn": 3442,
      "Ġdemand": 3443,
      "aul": 3444,
      "cos": 3445,
      "anish": 3446,
      "Ġinterp": 3447,
      "Ġsociety": 3448,
      "Ġdoesn": 3449,
      "Ġanimals": 3450,
      "Ġfru": 3451,
      "Ġpercent": 3452,
      "Ġcreative": 3453,
      "Ġloss": 3454,
      "Ġcontact": 3455,
      "Ġchem": 3456,
      "att": 3457,
      "Ġarchitecture": 3458,
      "Ġenhance": 3459,
      "ham": 3460,
      "ris": 3461,
      "Ġfather": 3462,
      "Ġdisplay": 3463,
      "ĠVal": 3464,
      "ule": 3465,
      "Ġstates": 3466,
      "Ġemphas": 3467,
      "Ġsentences": 3468,
      "Ġplatforms": 3469,
      "ĠWilliam": 3470,
      "Ġbeautiful": 3471,
      "Pe": 3472,
      "Ġhappy": 3473,
      "Ġder": 3474,
      "Ġstudies": 3475,
      "Ġplanning": 3476,
      "Ġforest": 3477,
      "plications": 3478,
      "met": 3479,
      "year": 3480,
      "parameters": 3481,
      "can": 3482,
      "Ġimages": 3483,
      "resp": 3484,
      "fulness": 3485,
      "Ġsmaller": 3486,
      "Ġinj": 3487,
      "Ġgirl": 3488,
      "Ġsuit": 3489,
      "Ġvill": 3490,
      "Ġempty": 3491,
      "ĠSpace": 3492,
      "ĠAustralia": 3493,
      "fully": 3494,
      "ĠRoman": 3495,
      "Ġdemonstr": 3496,
      "iced": 3497,
      "ĠMany": 3498,
      "ĠJapanese": 3499,
      "xx": 3500,
      "Ġcou": 3501,
      "ĠMake": 3502,
      "Ġworth": 3503,
      "Ġbecomes": 3504,
      "Ġwriter": 3505,
      "Ġattack": 3506,
      "Ġsurface": 3507,
      "ibrary": 3508,
      "Ġsou": 3509,
      "string": 3510,
      "Ġcolors": 3511,
      "Ġdecisions": 3512,
      "Ġsite": 3513,
      "ĠSam": 3514,
      "Ġstruct": 3515,
      "âĢĵâĢĵ": 3516,
      "Ġinfluen": 3517,
      "$,": 3518,
      "AS": 3519,
      "ero": 3520,
      "Ġfish": 3521,
      "ĠAg": 3522,
      "Ġreceived": 3523,
      "Ġbeauty": 3524,
      "ĠCalifornia": 3525,
      "inter": 3526,
      "Ġconsequ": 3527,
      "Ġmemory": 3528,
      "####": 3529,
      "ĠMich": 3530,
      "ĠWest": 3531,
      "ID": 3532,
      "Ġlength": 3533,
      "Ġcannot": 3534,
      "Ġneigh": 3535,
      "Ġupon": 3536,
      "ĠJames": 3537,
      "Ġprinc": 3538,
      "Ġant": 3539,
      "reg": 3540,
      "Ġep": 3541,
      "abit": 3542,
      "Ġexpected": 3543,
      "Ġprobability": 3544,
      "arah": 3545,
      "agraph": 3546,
      "Ġdisease": 3547,
      "ipl": 3548,
      "mosp": 3549,
      "inks": 3550,
      "Ġwide": 3551,
      "atory": 3552,
      "Ġfight": 3553,
      "Ġroll": 3554,
      "Ġchanged": 3555,
      "Ġexercise": 3556,
      "Ġscen": 3557,
      "Ġsets": 3558,
      "Ġmodels": 3559,
      "ĠDevelop": 3560,
      "opped": 3561,
      "bl": 3562,
      "ech": 3563,
      "where": 3564,
      "Ġhor": 3565,
      "Ġlines": 3566,
      "Ġadop": 3567,
      "Ġspread": 3568,
      "Un": 3569,
      "ĠMc": 3570,
      "Ġdetect": 3571,
      "Ġtrip": 3572,
      "Ġcateg": 3573,
      "Ġstage": 3574,
      "ipment": 3575,
      "oming": 3576,
      "Ġpropos": 3577,
      "Ġconduct": 3578,
      "ĠRed": 3579,
      "Ġreli": 3580,
      "onic": 3581,
      "icious": 3582,
      "asons": 3583,
      "rick": 3584,
      "Ġforms": 3585,
      "Ġcand": 3586,
      "estern": 3587,
      "odes": 3588,
      "rics": 3589,
      "TI": 3590,
      "ĠHouse": 3591,
      "Ġweather": 3592,
      "comes": 3593,
      "Ġtone": 3594,
      "Ġwood": 3595,
      "Ġhon": 3596,
      "Ġblood": 3597,
      "Ġassess": 3598,
      "Ġchallenge": 3599,
      "Ġthemes": 3600,
      "Ġdeveloping": 3601,
      "servation": 3602,
      "omb": 3603,
      "Ġgeomet": 3604,
      "rs": 3605,
      "Ġcities": 3606,
      "antic": 3607,
      "rix": 3608,
      "onds": 3609,
      "Ġbudget": 3610,
      "Ġsometimes": 3611,
      "ought": 3612,
      "iency": 3613,
      "Ġ//": 3614,
      "Ġtim": 3615,
      "Ġleaves": 3616,
      "Ġsimply": 3617,
      "Ġstatement": 3618,
      "Ġ>": 3619,
      "Ġrat": 3620,
      "Ġproduce": 3621,
      "Ġrequires": 3622,
      "Ġeveryone": 3623,
      "Ġmatch": 3624,
      "Ġtreatment": 3625,
      "ĠApp": 3626,
      "Ġvalid": 3627,
      "known": 3628,
      "ixt": 3629,
      "ĠSchool": 3630,
      "iring": 3631,
      "mark": 3632,
      "ondon": 3633,
      "Ġeasily": 3634,
      "lation": 3635,
      "Ġdream": 3636,
      "Ġexact": 3637,
      "Ġshap": 3638,
      "Ġtrees": 3639,
      "Ġkn": 3640,
      "Ġrow": 3641,
      "Ġ\\]": 3642,
      "Ġexploring": 3643,
      "Ġhandle": 3644,
      "âĶĢâĶĢâĶĢâĶĢ": 3645,
      "Ġerror": 3646,
      "Ġencourage": 3647,
      "Ġliter": 3648,
      "Ġreven": 3649,
      "Ġreading": 3650,
      "Ġinside": 3651,
      "Ġskin": 3652,
      "yond": 3653,
      "Ġblock": 3654,
      "Ġeasier": 3655,
      "Ġcomprehensive": 3656,
      "list": 3657,
      "Ġdram": 3658,
      "lude": 3659,
      "Ġsett": 3660,
      "Ġidentity": 3661,
      "Ġtypically": 3662,
      "Ġacadem": 3663,
      "Ġbroad": 3664,
      "Ġbrain": 3665,
      "ĠThen": 3666,
      "Ġleave": 3667,
      "Ġjud": 3668,
      "board": 3669,
      "ÂŃ": 3670,
      "ĠSince": 3671,
      "ades": 3672,
      "Ġheld": 3673,
      "Ġblue": 3674,
      "Ġsides": 3675,
      "ils": 3676,
      "rie": 3677,
      "ĠRepublic": 3678,
      "Ġcondition": 3679,
      "Ġhighly": 3680,
      "Ġhighlight": 3681,
      "Ġaccept": 3682,
      "Ġtherapy": 3683,
      "Ġingredients": 3684,
      "Ġgraph": 3685,
      "Ġrout": 3686,
      "Ġshowc": 3687,
      "ĠIndian": 3688,
      "Ġdrive": 3689,
      "Ġdevices": 3690,
      "Ġsequence": 3691,
      "^{": 3692,
      "ocol": 3693,
      "Ġfear": 3694,
      "Ġleader": 3695,
      "Ġcapital": 3696,
      "Ġble": 3697,
      "Ġsection": 3698,
      "Ġimage": 3699,
      "Ġteacher": 3700,
      "ario": 3701,
      "Ġmid": 3702,
      "Ġball": 3703,
      "left": 3704,
      "Ġisland": 3705,
      "Ġnumer": 3706,
      "Ġmovement": 3707,
      "Ġlargest": 3708,
      "'.": 3709,
      "ado": 3710,
      "ĠBo": 3711,
      "Ġengagement": 3712,
      "ĠĠĠĠĠĠĠĠĠĠĠĠĠĠĠĠ": 3713,
      "Ġmeeting": 3714,
      "Ġatmosp": 3715,
      "Ġrecent": 3716,
      "Ġregard": 3717,
      "Ġrenewable": 3718,
      "Ġcancer": 3719,
      "ĠFirst": 3720,
      "ĠEach": 3721,
      "Ġobser": 3722,
      "Ġmilitary": 3723,
      "ĠGermany": 3724,
      "Ġshared": 3725,
      "rowspan": 3726,
      "Ġgradu": 3727,
      "Ġlarger": 3728,
      "oke": 3729,
      "watch": 3730,
      "However": 3731,
      "yd": 3732,
      "alt": 3733,
      "Ġalternative": 3734,
      "ĠPre": 3735,
      "Ġbasic": 3736,
      "So": 3737,
      "Ġyet": 3738,
      "Ġplaces": 3739,
      "Ġclub": 3740,
      "Ġrefer": 3741,
      "Ġconversation": 3742,
      "Rel": 3743,
      "Ġdivid": 3744,
      "rong": 3745,
      "used": 3746,
      "ĠArt": 3747,
      "Ġclar": 3748,
      "Ġpredict": 3749,
      "ufact": 3750,
      "Ste": 3751,
      "Ġter": 3752,
      "Ġfarm": 3753,
      "Ġden": 3754,
      "ether": 3755,
      "Ġvict": 3756,
      "Ġ\\)": 3757,
      "Ġbott": 3758,
      "Ġmechan": 3759,
      "ĠItal": 3760,
      "Ġspent": 3761,
      "Ġsoon": 3762,
      "Ġlimited": 3763,
      "rug": 3764,
      "ashion": 3765,
      "ned": 3766,
      "room": 3767,
      "fee": 3768,
      "ĠDis": 3769,
      "People": 3770,
      "ront": 3771,
      "Ġson": 3772,
      "Ġbackground": 3773,
      "Ġdatab": 3774,
      "Ġtemperature": 3775,
      "ares": 3776,
      "Ġattract": 3777,
      "Ġsinger": 3778,
      "Ġmoved": 3779,
      "ĠLondon": 3780,
      "Ġsaf": 3781,
      "Ġhands": 3782,
      "Ġstrength": 3783,
      "add": 3784,
      "abilities": 3785,
      "free": 3786,
      "orage": 3787,
      "Ġdog": 3788,
      "eline": 3789,
      "Ġhear": 3790,
      "illa": 3791,
      "ĠReg": 3792,
      "ky": 3793,
      "Ġearn": 3794,
      "Ġfeelings": 3795,
      "sec": 3796,
      "Ġdead": 3797,
      "Ġceleb": 3798,
      "Ġchicken": 3799,
      "Ġdate": 3800,
      "ean": 3801,
      "file": 3802,
      "oser": 3803,
      "ĠDav": 3804,
      "Ġshown": 3805,
      "Ġcorn": 3806,
      "Ġfem": 3807,
      "Ġmist": 3808,
      "Ġtold": 3809,
      "ĠChina": 3810,
      "Ġrelig": 3811,
      "Ġinteger": 3812,
      "ĠIndia": 3813,
      "Ġmer": 3814,
      "ria": 3815,
      "Ġherself": 3816,
      "Ġassum": 3817,
      "Ġvirtual": 3818,
      "Ġbow": 3819,
      "cean": 3820,
      "rian": 3821,
      "Ġnews": 3822,
      "Ġanalyze": 3823,
      "overy": 3824,
      "agonist": 3825,
      "Ġult": 3826,
      "Ġsample": 3827,
      "ads": 3828,
      "Ġalmost": 3829,
      "Ġincome": 3830,
      "Ġtouch": 3831,
      "Ġweeks": 3832,
      "arian": 3833,
      "lymp": 3834,
      "you": 3835,
      "iar": 3836,
      "Ġoutcomes": 3837,
      "Ġmedical": 3838,
      "Ġdescribe": 3839,
      "Ġsays": 3840,
      "iter": 3841,
      "offee": 3842,
      "ounds": 3843,
      "ĠAlso": 3844,
      "ĠHigh": 3845,
      "ĠRo": 3846,
      "Ġinterview": 3847,
      "ĠDr": 3848,
      "ellow": 3849,
      "ronic": 3850,
      "box": 3851,
      "Ġdefe": 3852,
      "Ġwid": 3853,
      "Ġlack": 3854,
      "Ġrespond": 3855,
      "Ġdeeper": 3856,
      "Ġclos": 3857,
      "ĠStud": 3858,
      "othing": 3859,
      "Ġremember": 3860,
      "ĠDef": 3861,
      "Ġteams": 3862,
      "ĠQue": 3863,
      "Ġpepper": 3864,
      "Ġengage": 3865,
      "Ġnames": 3866,
      "ĠCup": 3867,
      "Ġmeditation": 3868,
      "Ġcontinu": 3869,
      "Ġcollection": 3870,
      "Ġprimary": 3871,
      "mar": 3872,
      "Ġparty": 3873,
      "Ġrunning": 3874,
      "Ġegg": 3875,
      "$.": 3876,
      "ĠBra": 3877,
      "Ġsex": 3878,
      "Ġaccur": 3879,
      "Ġdirectly": 3880,
      "Ġconvey": 3881,
      "Ġpartners": 3882,
      "Ġserve": 3883,
      "ifying": 3884,
      "Ġvisitors": 3885,
      "Ġfast": 3886,
      "Ġprocesses": 3887,
      "Ġhimself": 3888,
      "ĠParty": 3889,
      "Ġconcerns": 3890,
      "rote": 3891,
      "othes": 3892,
      "ĠAcc": 3893,
      "Ġbutter": 3894,
      "Ġobjects": 3895,
      "lin": 3896,
      "Ġbad": 3897,
      "oles": 3898,
      "ĠGree": 3899,
      "Ġcaused": 3900,
      "::": 3901,
      "PI": 3902,
      "ica": 3903,
      "_{": 3904,
      "ĠGod": 3905,
      "ĠIts": 3906,
      "inese": 3907,
      "from": 3908,
      "Ġded": 3909,
      "rupt": 3910,
      "Ġglobal": 3911,
      "tempt": 3912,
      "Now": 3913,
      "qrt": 3914,
      "Ġgives": 3915,
      "Ġsimpl": 3916,
      "ĠItalian": 3917,
      ")^": 3918,
      "Ã¡": 3919,
      "alse": 3920,
      "Ġthr": 3921,
      "Ġlat": 3922,
      "Ġfactor": 3923,
      "Ġaspects": 3924,
      "Ġmentioned": 3925,
      "AC": 3926,
      "edy": 3927,
      "ander": 3928,
      "argument": 3929,
      "Ġlandsc": 3930,
      "Ġamaz": 3931,
      "Ġhistorical": 3932,
      "Ġremind": 3933,
      "Ġcombination": 3934,
      "iding": 3935,
      "Ġactually": 3936,
      "Ġasked": 3937,
      "Ġthreat": 3938,
      "Ġtechnologies": 3939,
      "Ġparagraph": 3940,
      "Ġscreen": 3941,
      "Ġbelow": 3942,
      "à¤": 3943,
      "ceed": 3944,
      "Ġoffice": 3945,
      "Ġsave": 3946,
      "Ġprime": 3947,
      "Ġstatistics": 3948,
      "ridge": 3949,
      "minist": 3950,
      "Ġgiving": 3951,
      "Ġchann": 3952,
      "Ġequipment": 3953,
      "Ġsweet": 3954,
      "data": 3955,
      "Ġmanufact": 3956,
      "Ġagree": 3957,
      "Ġconsequences": 3958,
      "Ġ:": 3959,
      "Ġforce": 3960,
      "Ġsubs": 3961,
      "Ġintellig": 3962,
      "unicip": 3963,
      "arily": 3964,
      "unk": 3965,
      "rief": 3966,
      "Ġartists": 3967,
      "Ġquant": 3968,
      "Ġuseful": 3969,
      "Ġdirected": 3970,
      "Ġframe": 3971,
      "Ġprotagonist": 3972,
      "Ġroot": 3973,
      "Ġrequirements": 3974,
      "Ġsmooth": 3975,
      "AN": 3976,
      "ĠMus": 3977,
      "ĠGener": 3978,
      "Ġarri": 3979,
      "Ġrecommendations": 3980,
      "Ġmount": 3981,
      "Ġplans": 3982,
      "ĠOlymp": 3983,
      "Ġcouldn": 3984,
      "Ġplaying": 3985,
      "Ġenter": 3986,
      "Ã¶": 3987,
      "Ġcross": 3988,
      "resents": 3989,
      "Ġsafe": 3990,
      "UST": 3991,
      "wise": 3992,
      "za": 3993,
      "Ġadvert": 3994,
      "Ġsuggests": 3995,
      "Ġcooking": 3996,
      "ĠFrom": 3997,
      "ĠGreat": 3998,
      "ĠOther": 3999,
      "Ġinvolve": 4000,
      "Ġrepl": 4001,
      "usiness": 4002,
      "Ġ==": 4003,
      "Ġmagn": 4004,
      "Ġimmers": 4005,
      "ĠEuropean": 4006,
      "gment": 4007,
      "sem": 4008,
      "areness": 4009,
      "tools": 4010,
      "Ġviol": 4011,
      "Ġund": 4012,
      "Ġgenerate": 4013,
      "idden": 4014,
      "ĠCanada": 4015,
      "Ġfamilies": 4016,
      "ratic": 4017,
      "tra": 4018,
      "step": 4019,
      "amer": 4020,
      "object": 4021,
      "Ġschools": 4022,
      "Ġimmed": 4023,
      "Ġspirit": 4024,
      "Ġappl": 4025,
      "Ġsolve": 4026,
      "Ġinterests": 4027,
      "Ġchallenging": 4028,
      "Ġmobile": 4029,
      "works": 4030,
      "Ġsty": 4031,
      "ĠOut": 4032,
      "Ġrelax": 4033,
      "Ġrequest": 4034,
      "Ġcalculate": 4035,
      "Ġgarden": 4036,
      "At": 4037,
      "oe": 4038,
      "sert": 4039,
      "Ġsoil": 4040,
      "Ġexperiment": 4041,
      "Ġadvance": 4042,
      "FA": 4043,
      "anc": 4044,
      "Ġbra": 4045,
      "Ġactress": 4046,
      "ucle": 4047,
      "Ġadvant": 4048,
      "Ġsalt": 4049,
      "rastructure": 4050,
      "Ġafford": 4051,
      "Ġstructures": 4052,
      "Ġsav": 4053,
      "Ġresear": 4054,
      "Ġpressure": 4055,
      "ext": 4056,
      "point": 4057,
      "hent": 4058,
      "Ġflex": 4059,
      "Ġbeyond": 4060,
      "ĠGl": 4061,
      "Ġrepresents": 4062,
      "ĠPeak": 4063,
      "berg": 4064,
      "Ġadvent": 4065,
      "Ġcarbon": 4066,
      "Ġatmosphere": 4067,
      "hand": 4068,
      "zer": 4069,
      "ico": 4070,
      "Ġchart": 4071,
      "Ġseemed": 4072,
      "Ġgrand": 4073,
      "Ġgave": 4074,
      "ĠInt": 4075,
      "Ġstop": 4076,
      "ĠHol": 4077,
      "Ġserved": 4078,
      "Ġinvestment": 4079,
      "Ġweak": 4080,
      "Ġbur": 4081,
      "ilos": 4082,
      "Ġarticle": 4083,
      "Ġboard": 4084,
      "Ġoperations": 4085,
      "Ġexpand": 4086,
      "Ġturned": 4087,
      "Ġincorporating": 4088,
      "Pro": 4089,
      "inating": 4090,
      "Ġcivil": 4091,
      "Ġstream": 4092,
      "ĠRober": 4093,
      "ĠKitt": 4094,
      "Ġactive": 4095,
      "ĠSocial": 4096,
      "AL": 4097,
      "She": 4098,
      "ancing": 4099,
      "Ġdish": 4100,
      "Ġearl": 4101,
      "ĠKingdom": 4102,
      "Ġeffic": 4103,
      "Ġrepe": 4104,
      "ĠSen": 4105,
      "Ġsea": 4106,
      "Ġ\\[": 4107,
      "Ġadvanced": 4108,
      "Ġrealized": 4109,
      "default": 4110,
      "BC": 4111,
      "Mov": 4112,
      "Ġplot": 4113,
      "anging": 4114,
      "issions": 4115,
      "EAT": 4116,
      "Ġcoffee": 4117,
      "ĠMary": 4118,
      "Here": 4119,
      "Ġinternational": 4120,
      "Ġnavigate": 4121,
      "ixture": 4122,
      "\"]": 4123,
      "eria": 4124,
      "Ġharm": 4125,
      "change": 4126,
      "uten": 4127,
      "Ġsugar": 4128,
      "Ġqual": 4129,
      "Ġsell": 4130,
      "Ġmuseum": 4131,
      "Ġattempt": 4132,
      "Ġappropri": 4133,
      "Ġdocument": 4134,
      "inf": 4135,
      "Ġlate": 4136,
      "Ġstaff": 4137,
      "ĠMuseum": 4138,
      "ĠBro": 4139,
      "ÂłÂł": 4140,
      "Ġtried": 4141,
      "ospital": 4142,
      "ago": 4143,
      "orning": 4144,
      "Ġmanager": 4145,
      "Ġcast": 4146,
      "itute": 4147,
      "Ġmic": 4148,
      "istan": 4149,
      "ags": 4150,
      "Ġtraffic": 4151,
      "Ġmeasures": 4152,
      "Eng": 4153,
      "ying": 4154,
      "Ġice": 4155,
      "Ġclim": 4156,
      "Ġphone": 4157,
      "Ġpieces": 4158,
      "Related": 4159,
      "?\"": 4160,
      "ĠSch": 4161,
      "Ġstorage": 4162,
      "Ġindex": 4163,
      "Ġlocated": 4164,
      "Ġsolar": 4165,
      "ED": 4166,
      "Ġsand": 4167,
      "Ġfashion": 4168,
      "ava": 4169,
      "ht": 4170,
      "ĠSan": 4171,
      "Ġalone": 4172,
      "Ġexhib": 4173,
      "Ġprivate": 4174,
      "://": 4175,
      "Ġsess": 4176,
      "Ġstar": 4177,
      "Ġletter": 4178,
      "Ġdepth": 4179,
      "Ġinteractive": 4180,
      "Ġfasc": 4181,
      "ĠLou": 4182,
      "ki": 4183,
      "ya": 4184,
      "isms": 4185,
      "ĠSarah": 4186,
      "Ġpartner": 4187,
      "Ġdiet": 4188,
      "Ġcoe": 4189,
      "Ġfaced": 4190,
      "ameter": 4191,
      "Ġlegal": 4192,
      "Ġpriorit": 4193,
      "Ġpublished": 4194,
      "ĠSpacewatch": 4195,
      "IT": 4196,
      "omen": 4197,
      "astly": 4198,
      "Ġoffering": 4199,
      "overs": 4200,
      "Ġpresence": 4201,
      "Ġincorporate": 4202,
      "ection": 4203,
      "agram": 4204,
      "Ġchat": 4205,
      "Ġgrowing": 4206,
      "Ġdial": 4207,
      "Ġmyself": 4208,
      "efore": 4209,
      "Ġreturns": 4210,
      "Ġfocusing": 4211,
      "ĠTherefore": 4212,
      "Ġpolicy": 4213,
      "ĠMUST": 4214,
      "Ġadult": 4215,
      "ulture": 4216,
      "Ġtaste": 4217,
      "Ġmixture": 4218,
      "Ġimplications": 4219,
      "Ġclient": 4220,
      "Ġfundament": 4221,
      "Ġvegetables": 4222,
      "Ġcontribute": 4223,
      "Ġresearcher": 4224,
      "Can": 4225,
      "IS": 4226,
      "Ġloved": 4227,
      "oper": 4228,
      "ĠWow": 4229,
      "Ġseems": 4230,
      "ĠGovern": 4231,
      "Ġpractical": 4232,
      "Ġmarried": 4233,
      "ĠProvide": 4234,
      "lt": 4235,
      "omial": 4236,
      "ords": 4237,
      "Ġdecided": 4238,
      "ala": 4239,
      "Ġboy": 4240,
      "olit": 4241,
      "Ġhour": 4242,
      "ĠInternational": 4243,
      "ka": 4244,
      "usive": 4245,
      "Ġhowever": 4246,
      "being": 4247,
      "Ġeye": 4248,
      "inn": 4249,
      "Ġtomat": 4250,
      "fered": 4251,
      "iller": 4252,
      "plain": 4253,
      "Ġinfrastructure": 4254,
      "Ġauthent": 4255,
      "Ġsignificance": 4256,
      "ĠChinese": 4257,
      "Ġallowed": 4258,
      "Ġcontinued": 4259,
      "En": 4260,
      "gen": 4261,
      "Ġtail": 4262,
      "Ġwrote": 4263,
      "Ġdeal": 4264,
      "Ġnothing": 4265,
      "Ġtrain": 4266,
      "rought": 4267,
      "ecause": 4268,
      "Ġpatients": 4269,
      "Ġdatabase": 4270,
      "zing": 4271,
      "Ġstra": 4272,
      "Ġrights": 4273,
      "Ġpoem": 4274,
      "aughter": 4275,
      ".)": 4276,
      "ta": 4277,
      "Ġwife": 4278,
      "olic": 4279,
      "Ġchance": 4280,
      "Ġfinding": 4281,
      "ĠEmily": 4282,
      "[\"": 4283,
      "fit": 4284,
      "Ġfields": 4285,
      "asp": 4286,
      "Ġplays": 4287,
      "Ġinstructions": 4288,
      "cel": 4289,
      "ford": 4290,
      "wood": 4291,
      "Ġpick": 4292,
      "ĠAc": 4293,
      "ager": 4294,
      "ightly": 4295,
      "Ġquite": 4296,
      "Ġintegers": 4297,
      "ĠPeople": 4298,
      "Ġlived": 4299,
      "ĠSpe": 4300,
      "Ġpreferences": 4301,
      "Ġexpression": 4302,
      "Ġconfidence": 4303,
      "Er": 4304,
      "ĠOb": 4305,
      "Ġrelative": 4306,
      "Ġcold": 4307,
      "Ġdistinct": 4308,
      "Ġemployee": 4309,
      "Ġesc": 4310,
      "ĠCommun": 4311,
      "ira": 4312,
      "ĠChurch": 4313,
      "Ġimplementation": 4314,
      "Ġhyd": 4315,
      "Ġpolicies": 4316,
      "omar": 4317,
      "Ġprefer": 4318,
      "Ġplanet": 4319,
      "Ġimproving": 4320,
      "ios": 4321,
      "Ġpric": 4322,
      "Ġmoving": 4323,
      "Ġexperienced": 4324,
      "Ġperspective": 4325,
      "Ġslic": 4326,
      "ĠSystem": 4327,
      "raft": 4328,
      "ĠMod": 4329,
      "ashing": 4330,
      "Ġsafety": 4331,
      "ken": 4332,
      "Ġfigure": 4333,
      "Ġbread": 4334,
      "Ġbank": 4335,
      "ĠEast": 4336,
      "Ġeffort": 4337,
      "Ġfest": 4338,
      "ĠTheir": 4339,
      "ĠOf": 4340,
      "Ġsports": 4341,
      "Ġrecip": 4342,
      "Ġtechnical": 4343,
      "Ġapprox": 4344,
      "Ġconnections": 4345,
      "Ġmaximum": 4346,
      "Ġfavorite": 4347,
      "Ġlibrary": 4348,
      "ĠAnt": 4349,
      "pping": 4350,
      "ĠEarth": 4351,
      "Ġpeace": 4352,
      "ĠColle": 4353,
      "ĠOnce": 4354,
      "ĠAngel": 4355,
      "Ġamazing": 4356,
      "ĠCat": 4357,
      "Ġconver": 4358,
      "ĠDem": 4359,
      "Ġking": 4360,
      "Ġadvice": 4361,
      "Ġcentral": 4362,
      "ĠPort": 4363,
      "ĠBer": 4364,
      "Ġcream": 4365,
      "Ġdifferences": 4366,
      "Ġlooked": 4367,
      ">[{\"": 4368,
      "iples": 4369,
      "ĠId": 4370,
      "ĠDep": 4371,
      "Ġrules": 4372,
      "Ġcontains": 4373,
      "ĠChampions": 4374,
      "Ġtruly": 4375,
      "Ġiniti": 4376,
      "Ġexpertise": 4377,
      "Ġrestaurant": 4378,
      "Sh": 4379,
      "Ġsecure": 4380,
      "load": 4381,
      "Ġmiles": 4382,
      "Ã¼": 4383,
      "ĠNEAT": 4384,
      "ibilities": 4385,
      "ranch": 4386,
      "Ġbirth": 4387,
      "Ġconstruction": 4388,
      "Ġerrors": 4389,
      "mod": 4390,
      "oo": 4391,
      "Ġcry": 4392,
      "Ġbul": 4393,
      "uries": 4394,
      "see": 4395,
      "ript": 4396,
      "ĠGr": 4397,
      "Ġdishes": 4398,
      "ĠTrans": 4399,
      "ida": 4400,
      "ulations": 4401,
      "Ġapply": 4402,
      "orders": 4403,
      "Ġprem": 4404,
      "Ġfocused": 4405,
      "ĠMichael": 4406,
      "gra": 4407,
      "asure": 4408,
      "Ġloyal": 4409,
      "Ġheard": 4410,
      "Ġsharing": 4411,
      "Ġscript": 4412,
      "Ġdirection": 4413,
      "Ġpassion": 4414,
      "ĠAnderson": 4415,
      "Ġexisting": 4416,
      "Ġmis": 4417,
      "ĠTom": 4418,
      "ĠOur": 4419,
      "rue": 4420,
      "ĠChar": 4421,
      "aths": 4422,
      "Ġvideos": 4423,
      "ĠInstead": 4424,
      "Ġ...": 4425,
      "alle": 4426,
      "ĠMes": 4427,
      "nect": 4428,
      "Ġrace": 4429,
      "Ġreceive": 4430,
      "Ġformula": 4431,
      "inte": 4432,
      "Ġhit": 4433,
      "Ġkilled": 4434,
      "Ġdecre": 4435,
      "Ġready": 4436,
      "Ġsituations": 4437,
      "Ġhyp": 4438,
      "After": 4439,
      "Ġhop": 4440,
      "unc": 4441,
      "Ġnormal": 4442,
      "Pl": 4443,
      "ĠAward": 4444,
      "Ġabilities": 4445,
      "Ġspend": 4446,
      "Ġblog": 4447,
      "Step": 4448,
      "Em": 4449,
      "With": 4450,
      "build": 4451,
      "ugh": 4452,
      "hest": 4453,
      "ĠInter": 4454,
      "Ġacademic": 4455,
      "lim": 4456,
      "ĠÐ": 4457,
      "oral": 4458,
      "Ġdatas": 4459,
      "ait": 4460,
      "Ġdim": 4461,
      "Ġillust": 4462,
      "encies": 4463,
      "ĠGeorge": 4464,
      "Ġconflict": 4465,
      "]:": 4466,
      "rees": 4467,
      "Ġhous": 4468,
      "Ġassistant": 4469,
      "comp": 4470,
      "Ġexercises": 4471,
      "Ar": 4472,
      "First": 4473,
      "water": 4474,
      "Ġproduced": 4475,
      "Ġtesting": 4476,
      "ĠBlack": 4477,
      "Ġremaining": 4478,
      "Ġalgorithm": 4479,
      "Ġemb": 4480,
      "Ġfully": 4481,
      "cont": 4482,
      "reme": 4483,
      "Ġol": 4484,
      "vere": 4485,
      "umber": 4486,
      "Ġclasses": 4487,
      "ifically": 4488,
      "Ġclients": 4489,
      "Ġlooks": 4490,
      "Ġestablished": 4491,
      "Ġcurrently": 4492,
      "Ġmissing": 4493,
      "Ġearth": 4494,
      "ogle": 4495,
      "Ġdiscover": 4496,
      "Ġtrends": 4497,
      "Ġmagic": 4498,
      "ĠPalomar": 4499,
      "Ġï¬ģ": 4500,
      "Ġrand": 4501,
      "Ġformal": 4502,
      "Ġeconomy": 4503,
      "Ġcomponents": 4504,
      "Sc": 4505,
      "Sp": 4506,
      "ĠÃ": 4507,
      "Ġeat": 4508,
      "ĠTH": 4509,
      "ĠPri": 4510,
      "aker": 4511,
      "Ġhelping": 4512,
      "Ġroad": 4513,
      "Ġtransition": 4514,
      "Ġmathematical": 4515,
      "Ġcells": 4516,
      "Ġhidden": 4517,
      "Some": 4518,
      "icks": 4519,
      "ĠTV": 4520,
      "olve": 4521,
      "ĠJust": 4522,
      "ternal": 4523,
      "Ġmemories": 4524,
      "Ġannoun": 4525,
      "ĠGrand": 4526,
      "Ġchemical": 4527,
      "Ġrevenue": 4528,
      "ĠMex": 4529,
      "Ġround": 4530,
      "Ġremains": 4531,
      "Ġclassic": 4532,
      "Ġjobs": 4533,
      "gram": 4534,
      "ĠSet": 4535,
      "ĠResearch": 4536,
      "AT": 4537,
      "field": 4538,
      "Ġfilled": 4539,
      "Ġdress": 4540,
      "Ġstars": 4541,
      "ĠUsing": 4542,
      "Ġwilling": 4543,
      "ĠEmp": 4544,
      "Ġdepending": 4545,
      "Ġheavy": 4546,
      "Ġdamage": 4547,
      "rep": 4548,
      "otal": 4549,
      "unning": 4550,
      "ously": 4551,
      "anges": 4552,
      "Ġspeech": 4553,
      "Ġmathematics": 4554,
      "cious": 4555,
      "oration": 4556,
      "Des": 4557,
      "Ph": 4558,
      "tics": 4559,
      "Ġpush": 4560,
      "ands": 4561,
      "Ġuniverse": 4562,
      "Ġdesired": 4563,
      "Ġcolumn": 4564,
      "Ġparameters": 4565,
      "ĠPlay": 4566,
      "ĠAfrican": 4567,
      "urban": 4568,
      "python": 4569,
      "rans": 4570,
      "ĠBen": 4571,
      "Ġinvent": 4572,
      "Ġbuildings": 4573,
      "Ġdelicious": 4574,
      "Ġfiles": 4575,
      "Ġstatus": 4576,
      "Ġinnovative": 4577,
      "Ġwonder": 4578,
      "Ġrandom": 4579,
      "Ġfix": 4580,
      "Ġmorning": 4581,
      "Ġmedium": 4582,
      "Ġregions": 4583,
      "Ġdiscovered": 4584,
      "Ġchanging": 4585,
      "Ġtopic": 4586,
      "Ġmilk": 4587,
      "Ġleadership": 4588,
      "ĠDavid": 4589,
      "iers": 4590,
      "ĠMore": 4591,
      "Ġreson": 4592,
      "Ġcreates": 4593,
      "Ġcorresp": 4594,
      "Ġefficiency": 4595,
      "bal": 4596,
      "ded": 4597,
      "ini": 4598,
      "Ġisol": 4599,
      "ĠPat": 4600,
      "Ġsummer": 4601,
      "ĠPhil": 4602,
      "vin": 4603,
      "ĠBel": 4604,
      "ij": 4605,
      "men": 4606,
      "making": 4607,
      "net": 4608,
      "Ġtension": 4609,
      "Ġfair": 4610,
      "Ġyog": 4611,
      "acing": 4612,
      "Ġpatient": 4613,
      "Ġexcell": 4614,
      "Ġconcepts": 4615,
      "Ġpowers": 4616,
      "Ġearlier": 4617,
      "Ġfundamental": 4618,
      "Ġtables": 4619,
      "Ġwat": 4620,
      "arp": 4621,
      "pected": 4622,
      "Ġcomplet": 4623,
      "down": 4624,
      "Ġast": 4625,
      "ĠMr": 4626,
      "ĠNot": 4627,
      "Ġgoes": 4628,
      "Ġsignificantly": 4629,
      "Ġprofession": 4630,
      "Ġinterpret": 4631,
      "nes": 4632,
      "Ġmiddle": 4633,
      "Ġdom": 4634,
      "import": 4635,
      "ibly": 4636,
      "ressive": 4637,
      "ersonal": 4638,
      "Ġtruth": 4639,
      "Movies": 4640,
      "](": 4641,
      "unte": 4642,
      "ĠMic": 4643,
      "Ġvary": 4644,
      "colspan": 4645,
      "Ġpassage": 4646,
      "Ġjournal": 4647,
      "ĠAfrica": 4648,
      "Ġindependent": 4649,
      "ogue": 4650,
      "ommod": 4651,
      "Ġbelief": 4652,
      "Ġconstruct": 4653,
      "Ġcomplexity": 4654,
      "Ġappreciate": 4655,
      "eting": 4656,
      "istical": 4657,
      "orthern": 4658,
      "Ġpersonality": 4659,
      "inst": 4660,
      "Ġapproaches": 4661,
      "Ġencoun": 4662,
      "bit": 4663,
      "vest": 4664,
      "icy": 4665,
      "ĠSum": 4666,
      "Ġspaces": 4667,
      "Ġrap": 4668,
      "ognitive": 4669,
      "lor": 4670,
      "igation": 4671,
      "Ġforces": 4672,
      "Ġappropriate": 4673,
      "cil": 4674,
      "mission": 4675,
      "Ġdry": 4676,
      "Ġdistrict": 4677,
      "Ġir": 4678,
      "Ġnorth": 4679,
      "ĠRich": 4680,
      "Ġsecret": 4681,
      "Ġimproved": 4682,
      "house": 4683,
      "ville": 4684,
      "Ġhom": 4685,
      "amil": 4686,
      "Ġbeach": 4687,
      "Ġmyst": 4688,
      "Ġpersonalized": 4689,
      "iors": 4690,
      "Ġtal": 4691,
      "Ġwrong": 4692,
      "Ġmap": 4693,
      "Ġpolice": 4694,
      "Ġtechnique": 4695,
      "Ġassign": 4696,
      "Ġhealthcare": 4697,
      "Ġdepression": 4698,
      "inate": 4699,
      "icine": 4700,
      "ocks": 4701,
      "ptoms": 4702,
      "perties": 4703,
      "orem": 4704,
      "Ġbecoming": 4705,
      "standing": 4706,
      "Ġlanguages": 4707,
      "Ġschedule": 4708,
      "log": 4709,
      "rim": 4710,
      "Ġdu": 4711,
      "Ġfailure": 4712,
      "Ġgarlic": 4713,
      "Ġinfluenced": 4714,
      "Ġintelligence": 4715,
      "ancy": 4716,
      "Ġdin": 4717,
      "Ġextend": 4718,
      "quality": 4719,
      "ĠDet": 4720,
      "Ġcompared": 4721,
      "Ġroots": 4722,
      "Ġprotein": 4723,
      "English": 4724,
      "Lastly": 4725,
      "sqrt": 4726,
      "yp": 4727,
      "hetic": 4728,
      "Ġgather": 4729,
      "ube": 4730,
      "Ġpreser": 4731,
      "Ġcounty": 4732,
      "Ġguidance": 4733,
      "Ġcomfortable": 4734,
      "Ġbowl": 4735,
      "Ġstyles": 4736,
      "Ġbrought": 4737,
      "Ġthick": 4738,
      "ĠBr": 4739,
      "Ġreveal": 4740,
      "Ġimmersive": 4741,
      "world": 4742,
      "ulner": 4743,
      "ĠSpanish": 4744,
      "zil": 4745,
      "Ġnucle": 4746,
      "Ġvivid": 4747,
      "Ġphilos": 4748,
      "words": 4749,
      "Ġcandid": 4750,
      "Ġdrama": 4751,
      "\"|-": 4752,
      "Your": 4753,
      "Ġrom": 4754,
      "isp": 4755,
      "ĠDist": 4756,
      "Ġque": 4757,
      "ONE": 4758,
      "related": 4759,
      "ĠAssoc": 4760,
      "Ġlandscape": 4761,
      "under": 4762,
      "Ġcoming": 4763,
      "Ġproperty": 4764,
      "Ġmessages": 4765,
      "Ġbeginning": 4766,
      "ĠCollege": 4767,
      "NA": 4768,
      "Rem": 4769,
      "\\[": 4770,
      "lines": 4771,
      "Ġcommunicate": 4772,
      "ĠMinister": 4773,
      "Ġpicture": 4774,
      "eli": 4775,
      "ĠCO": 4776,
      "duc": 4777,
      "Ġovercome": 4778,
      "Ġbelieved": 4779,
      "Ġmaintaining": 4780,
      "Ġcampaigns": 4781,
      "Ġpurchase": 4782,
      "Ġneighbor": 4783,
      "Ġtick": 4784,
      "ĠSal": 4785,
      "ĠCN": 4786,
      "ĠHen": 4787,
      "ocal": 4788,
      "ĠOff": 4789,
      "Ġindustries": 4790,
      "LO": 4791,
      "uting": 4792,
      "ĠNow": 4793,
      "Ġworkers": 4794,
      "Ġawareness": 4795,
      "arrow": 4796,
      "Ġstation": 4797,
      "Ġscene": 4798,
      "www": 4799,
      "host": 4800,
      "itely": 4801,
      "level": 4802,
      "ĠPaul": 4803,
      "Ġresil": 4804,
      "ĠUnion": 4805,
      "Ġorganic": 4806,
      "Ġcauses": 4807,
      "part": 4808,
      "Ġcit": 4809,
      "rence": 4810,
      "irect": 4811,
      "Ġobtain": 4812,
      "coming": 4813,
      "Ġcarry": 4814,
      "ev": 4815,
      "Ġdefined": 4816,
      "Ġpaint": 4817,
      "Ġresponsible": 4818,
      "Ġcollaboration": 4819,
      "Ġnumerous": 4820,
      "\"|-||": 4821,
      "itar": 4822,
      "ĠName": 4823,
      "Ġsmart": 4824,
      "Ġmindfulness": 4825,
      "Ġdynamic": 4826,
      "Finally": 4827,
      "cd": 4828,
      "ulpt": 4829,
      "ĠDay": 4830,
      "ĠDuring": 4831,
      "Ġsculpt": 4832,
      "Ġplane": 4833,
      "Ġpassed": 4834,
      "porary": 4835,
      "Ġrisks": 4836,
      "going": 4837,
      "('": 4838,
      "onom": 4839,
      "Ġcards": 4840,
      "utive": 4841,
      "ĠMiss": 4842,
      "Ġabs": 4843,
      "Ġincred": 4844,
      "Ġformed": 4845,
      "Ġexplan": 4846,
      "Ġprompt": 4847,
      "Ġensuring": 4848,
      "Ġcompletely": 4849,
      "ÃŃ": 4850,
      "ĠTake": 4851,
      "urance": 4852,
      "ading": 4853,
      "Ġju": 4854,
      "Ġsupply": 4855,
      "EC": 4856,
      "List": 4857,
      "rets": 4858,
      "uses": 4859,
      "ĠAct": 4860,
      "Ġstorm": 4861,
      "Ġonto": 4862,
      "unn": 4863,
      "Ġcontrast": 4864,
      "Ġdiscount": 4865,
      "Ġmetal": 4866,
      "II": 4867,
      "tering": 4868,
      "ĠData": 4869,
      "ĠList": 4870,
      "Ġpoll": 4871,
      "Ġvehicles": 4872,
      "Ġtitle": 4873,
      "inated": 4874,
      "Ġstrict": 4875,
      "acity": 4876,
      "ĠThanks": 4877,
      "Ġleads": 4878,
      "Ġinfin": 4879,
      "Ġdriving": 4880,
      "ttp": 4881,
      "Ġfa": 4882,
      "aby": 4883,
      "ĠGra": 4884,
      "aph": 4885,
      "ĠAsia": 4886,
      "Ġreduced": 4887,
      "Ġresulting": 4888,
      "ropical": 4889,
      "Ġseparate": 4890,
      "itution": 4891,
      "ĠMat": 4892,
      "ĠHall": 4893,
      "Ġvulner": 4894,
      "Ġcontract": 4895,
      "Ġtrade": 4896,
      "Ġphotos": 4897,
      "number": 4898,
      "Ġexactly": 4899,
      "olk": 4900,
      "Ġgrew": 4901,
      "ĠAut": 4902,
      "Ġsend": 4903,
      "ensus": 4904,
      "Ġraise": 4905,
      "Ġprogramming": 4906,
      "fficial": 4907,
      "Ġutil": 4908,
      "Best": 4909,
      "pa": 4910,
      "Ġurban": 4911,
      "utch": 4912,
      "utely": 4913,
      "Ġstret": 4914,
      "Ġbeg": 4915,
      "Ġleaving": 4916,
      "Ġroles": 4917,
      "org": 4918,
      "Ġserving": 4919,
      "Ġintent": 4920,
      "burg": 4921,
      "arsh": 4922,
      "Ġfinally": 4923,
      "ĠZe": 4924,
      "ĠParis": 4925,
      "uis": 4926,
      "Ġmunicip": 4927,
      "Ġeco": 4928,
      "ĠMost": 4929,
      "tenance": 4930,
      "Ġmission": 4931,
      "ĠGoogle": 4932,
      "ournal": 4933,
      "Ġdoor": 4934,
      "Ġaccommod": 4935,
      "Ġagric": 4936,
      "Ġflour": 4937,
      "Ġartist": 4938,
      "ootball": 4939,
      "gest": 4940,
      "udd": 4941,
      "Ġeffectiveness": 4942,
      "Ġmagical": 4943,
      "Ġphrase": 4944,
      "ĠRobert": 4945,
      "SS": 4946,
      "Ġrelease": 4947,
      "Ġpresident": 4948,
      "Ġratio": 4949,
      "ocolate": 4950,
      "atur": 4951,
      "Ġdrug": 4952,
      "Ġunit": 4953,
      "Ġfindings": 4954,
      "Ġcourt": 4955,
      "ĠTechn": 4956,
      "Error": 4957,
      "rey": 4958,
      "Ġcore": 4959,
      "Ġpal": 4960,
      "Ġnote": 4961,
      "Ġcreation": 4962,
      "verse": 4963,
      "force": 4964,
      "Ġcollege": 4965,
      "Ġdrink": 4966,
      "van": 4967,
      "enty": 4968,
      "Ġconsidering": 4969,
      "Ġdirector": 4970,
      "Ġdepartment": 4971,
      "Ġlinear": 4972,
      "urthermore": 4973,
      "ĠMesa": 4974,
      "mond": 4975,
      "Ġusage": 4976,
      "ĠGiven": 4977,
      "ĠNor": 4978,
      "Ġbrother": 4979,
      "ĠPlan": 4980,
      "Ġclarity": 4981,
      "Ġaffordable": 4982,
      "Let": 4983,
      "real": 4984,
      "Ġdiction": 4985,
      "Ġord": 4986,
      "ĠNY": 4987,
      "Ġestim": 4988,
      "ĠAtl": 4989,
      "Ġstraight": 4990,
      "Ġcatch": 4991,
      "Ġple": 4992,
      "Ġmel": 4993,
      "Ġmaster": 4994,
      "Ġdanger": 4995,
      "Ġchain": 4996,
      "ĠUnder": 4997,
      "Ġdesigns": 4998,
      "Ġsymptoms": 4999,
      "Ġflowers": 5000,
      "Ġscores": 5001,
      "Ġultimately": 5002,
      "Based": 5003,
      "History": 5004,
      "band": 5005,
      "Ġbrief": 5006,
      "ansion": 5007,
      "Ġgets": 5008,
      "Ġaccessible": 5009,
      "Ġcrime": 5010,
      "Ġimplemented": 5011,
      "].": 5012,
      "iant": 5013,
      "Ġsem": 5014,
      "array": 5015,
      "ican": 5016,
      "urric": 5017,
      "Ġchopped": 5018,
      "Ġhumans": 5019,
      "ĠScott": 5020,
      "Ġpromoting": 5021,
      "Ġfruit": 5022,
      "ET": 5023,
      "ona": 5024,
      "atitude": 5025,
      "unt": 5026,
      "Ġpoet": 5027,
      "oves": 5028,
      "Ġlaunch": 5029,
      "ias": 5030,
      "Ã¤": 5031,
      "iny": 5032,
      "ĠCong": 5033,
      "Ġheight": 5034,
      "odies": 5035,
      "ĠEr": 5036,
      "Ġpoor": 5037,
      "Ġinteractions": 5038,
      "Ġpaid": 5039,
      "ourses": 5040,
      "Ġax": 5041,
      "arter": 5042,
      "Ġunits": 5043,
      "ensity": 5044,
      "Ġdescribed": 5045,
      "Ġfemale": 5046,
      "Ġdiverse": 5047,
      "ola": 5048,
      "ĠSpr": 5049,
      "ractions": 5050,
      "ĠForm": 5051,
      "Ġprocessing": 5052,
      "Ġconnected": 5053,
      "ĠCheck": 5054,
      "vis": 5055,
      "Ġtheme": 5056,
      "Ġanyone": 5057,
      "Ġtests": 5058,
      "Ġstruggle": 5059,
      "reedom": 5060,
      "whel": 5061,
      "Ġnone": 5062,
      "Ġshel": 5063,
      "enses": 5064,
      "Ġtrig": 5065,
      "Ġfollowed": 5066,
      "Ġmetrics": 5067,
      "Ġdevice": 5068,
      "opping": 5069,
      "ĠFlor": 5070,
      "CE": 5071,
      "inations": 5072,
      "Ġnotice": 5073,
      "Ġattrib": 5074,
      "Ġmatrix": 5075,
      "which": 5076,
      "Ġparticipants": 5077,
      "Ġprepare": 5078,
      "Ġdegree": 5079,
      "lies": 5080,
      "orial": 5081,
      "Ġstock": 5082,
      "ĠCath": 5083,
      "Ġcloud": 5084,
      "Ġparameter": 5085,
      "Ġengineering": 5086,
      "ĠCenter": 5087,
      "AP": 5088,
      "rect": 5089,
      "ĠTime": 5090,
      "ader": 5091,
      "Ġtopics": 5092,
      "`.": 5093,
      "iner": 5094,
      "Ġnode": 5095,
      "Ġlocations": 5096,
      "exas": 5097,
      "Ġcreatures": 5098,
      "Ġten": 5099,
      "reak": 5100,
      "itage": 5101,
      "Ġfuel": 5102,
      "Ġrule": 5103,
      "Ġaccurate": 5104,
      "ĠMil": 5105,
      "Ġcompos": 5106,
      "ooks": 5107,
      "Ġaccom": 5108,
      "Ġtransl": 5109,
      "Ġintric": 5110,
      "Ġseeking": 5111,
      "Ġsurpr": 5112,
      "Ġsustainability": 5113,
      "Additionally": 5114,
      "':": 5115,
      "craft": 5116,
      "amples": 5117,
      "ĠDan": 5118,
      "Ġadminist": 5119,
      "ĠRussian": 5120,
      "All": 5121,
      "Ġsouth": 5122,
      "Ġwasn": 5123,
      "Ġemissions": 5124,
      "Ġepis": 5125,
      "Ġbottom": 5126,
      "iately": 5127,
      "Ġbed": 5128,
      "urrent": 5129,
      "ĠMax": 5130,
      "gypt": 5131,
      "Ġtransfer": 5132,
      "................................................................": 5133,
      "Ġautomation": 5134,
      "Ġdouble": 5135,
      "Ġprioritize": 5136,
      "ĠTur": 5137,
      "Ġnu": 5138,
      "Ġgod": 5139,
      "ĠMor": 5140,
      "Ġhair": 5141,
      "ĠOver": 5142,
      "Ġinformed": 5143,
      "Ġstarts": 5144,
      "Ġdirectory": 5145,
      "Ġprepared": 5146,
      "ederal": 5147,
      "Ġadventure": 5148,
      "Ġexcellent": 5149,
      "iance": 5150,
      "Ġign": 5151,
      "ender": 5152,
      "Ġskill": 5153,
      "Ġaware": 5154,
      "Ġox": 5155,
      "Ġfant": 5156,
      "Ġburn": 5157,
      "Ġisn": 5158,
      "Ġmanip": 5159,
      "oviet": 5160,
      "Ġfeels": 5161,
      "Ġbenefit": 5162,
      "Ġexpectations": 5163,
      "ĠGeorg": 5164,
      "Ġmicro": 5165,
      "oose": 5166,
      "Ġspl": 5167,
      "nded": 5168,
      "Ġbright": 5169,
      "Ġinh": 5170,
      "Ġuniversity": 5171,
      "formation": 5172,
      "ĠHealth": 5173,
      "Inst": 5174,
      "Ġseek": 5175,
      "vention": 5176,
      "Ġhappened": 5177,
      "ĠPlace": 5178,
      "Ġloop": 5179,
      "Ġreported": 5180,
      "Ġmoments": 5181,
      "Ġcompetition": 5182,
      "holders": 5183,
      "Te": 5184,
      "Ġahead": 5185,
      "Ġhol": 5186,
      "ĠFe": 5187,
      "ĠGood": 5188,
      "times": 5189,
      "icago": 5190,
      "Ġ()": 5191,
      "ockey": 5192,
      "ores": 5193,
      "Ġanimal": 5194,
      "aught": 5195,
      "ĠAccording": 5196,
      "Ġresearchers": 5197,
      "Ġaccompl": 5198,
      "path": 5199,
      "Ġocean": 5200,
      "Ġitem": 5201,
      "Ġmeal": 5202,
      "Ġspr": 5203,
      "cknow": 5204,
      "Ġolder": 5205,
      "Ġetc": 5206,
      "ml": 5207,
      "Ġath": 5208,
      "icated": 5209,
      "elines": 5210,
      "Ġstir": 5211,
      "ifications": 5212,
      "class": 5213,
      "Ġslightly": 5214,
      "Ġcritic": 5215,
      "Ġvolunte": 5216,
      "Ġreligious": 5217,
      "Ġfascinating": 5218,
      "Is": 5219,
      "Since": 5220,
      "lights": 5221,
      "zy": 5222,
      "Ġpul": 5223,
      "Ġreplace": 5224,
      "ĠLONE": 5225,
      "airs": 5226,
      "clusion": 5227,
      "Ġbrown": 5228,
      "Ġoptimize": 5229,
      "Ġvictim": 5230,
      "ĠEmpire": 5231,
      "ĠLONEOS": 5232,
      "gu": 5233,
      "la": 5234,
      "ĠSy": 5235,
      "rial": 5236,
      "Ġmyth": 5237,
      "Ġcultures": 5238,
      "Ġimplementing": 5239,
      "Ġaffected": 5240,
      "Ġconsistent": 5241,
      "ĠGreek": 5242,
      "}\\": 5243,
      "rab": 5244,
      "uration": 5245,
      "ĠFin": 5246,
      "ĠFinally": 5247,
      "Ġhighest": 5248,
      "Ġmut": 5249,
      "Ġwealth": 5250,
      "Ġcharacteristics": 5251,
      "Ġreliable": 5252,
      "pre": 5253,
      "uge": 5254,
      "ĠTexas": 5255,
      "agues": 5256,
      "Ġreturned": 5257,
      "Ġhappen": 5258,
      "Ġappears": 5259,
      "ĠSuper": 5260,
      "ught": 5261,
      "Be": 5262,
      "no": 5263,
      "icial": 5264,
      "ĠMart": 5265,
      "Ġvibr": 5266,
      "Ġrank": 5267,
      "Ġcompar": 5268,
      "Ġdescription": 5269,
      "Ġoverwhel": 5270,
      "Ġdeliver": 5271,
      "required": 5272,
      "Le": 5273,
      "bed": 5274,
      "sure": 5275,
      "Ġcos": 5276,
      "Ġcourses": 5277,
      "Ġreasons": 5278,
      "ĠAPI": 5279,
      "ership": 5280,
      "Ġrot": 5281,
      "Ġaged": 5282,
      "nesses": 5283,
      "Ġobst": 5284,
      "Ġacqu": 5285,
      "Ġdiscussion": 5286,
      "Ġlayer": 5287,
      "Ġsusp": 5288,
      "Ġolive": 5289,
      "Ġpu": 5290,
      "Ġgram": 5291,
      "ĠSk": 5292,
      "ĠSl": 5293,
      "Ġkids": 5294,
      "They": 5295,
      "ĠItaly": 5296,
      "ĠKh": 5297,
      "Ġzero": 5298,
      "km": 5299,
      "Ġinner": 5300,
      "asy": 5301,
      "ams": 5302,
      "Ġstake": 5303,
      "ĠKore": 5304,
      "Ġscale": 5305,
      "Ġflu": 5306,
      "roduction": 5307,
      "Ġgeometric": 5308,
      "Ġadvertising": 5309,
      "ĠLouis": 5310,
      "')": 5311,
      "Ġpun": 5312,
      "ĠMet": 5313,
      "Ġrice": 5314,
      "Ġrise": 5315,
      "Ġresource": 5316,
      "Ġpron": 5317,
      "ĠServ": 5318,
      "pen": 5319,
      "Ġcrop": 5320,
      "icing": 5321,
      "oving": 5322,
      "Ġsaying": 5323,
      "uracy": 5324,
      "Ġlatest": 5325,
      "Ġske": 5326,
      "isk": 5327,
      "Ġreached": 5328,
      "iling": 5329,
      "Ġunf": 5330,
      "anguage": 5331,
      "Ġintegr": 5332,
      "Ġevaluate": 5333,
      "Ã³": 5334,
      "Ġpros": 5335,
      "Ġseat": 5336,
      "Ġresidents": 5337,
      "Ġcombined": 5338,
      "Ġeducational": 5339,
      "Ġstronger": 5340,
      "Ġoppos": 5341,
      "Ġcounter": 5342,
      "Ġcouple": 5343,
      "Res": 5344,
      "Ġhospital": 5345,
      "ocratic": 5346,
      "Ġunivers": 5347,
      "oster": 5348,
      "ensions": 5349,
      "Ġvegan": 5350,
      "Ġtriangle": 5351,
      "Ġbreath": 5352,
      "Ġimmediately": 5353,
      "Ġapplied": 5354,
      "Ġwalls": 5355,
      "raction": 5356,
      "ĠGreen": 5357,
      "akers": 5358,
      "Ġobjective": 5359,
      "Ġarguments": 5360,
      "Ġdivided": 5361,
      "EL": 5362,
      "orough": 5363,
      "Ġbaking": 5364,
      "roy": 5365,
      "Ġreact": 5366,
      "eless": 5367,
      "ĠLin": 5368,
      "ĠStart": 5369,
      "Ġlighting": 5370,
      "ĠFrank": 5371,
      "New": 5372,
      "aper": 5373,
      "then": 5374,
      "Ġmur": 5375,
      "Ġdoll": 5376,
      "ĠSur": 5377,
      "Ġmole": 5378,
      "ĠGroup": 5379,
      "ĠJim": 5380,
      "sole": 5381,
      "oken": 5382,
      "Ġmanaging": 5383,
      "Ġwhose": 5384,
      "Ġactual": 5385,
      "`,": 5386,
      "ĠCour": 5387,
      "Ġunex": 5388,
      "Ġserious": 5389,
      "chen": 5390,
      "isco": 5391,
      "ĠBay": 5392,
      "ĠFind": 5393,
      "Ġshift": 5394,
      "Ġprepar": 5395,
      "Ġtwist": 5396,
      "Ġimprovement": 5397,
      "Ġviews": 5398,
      "Ġcycle": 5399,
      "Ġdataset": 5400,
      "date": 5401,
      "sum": 5402,
      "Ġ--": 5403,
      "ĠChild": 5404,
      "properties": 5405,
      "Ġcommonly": 5406,
      "Ġpowder": 5407,
      "ashington": 5408,
      "comm": 5409,
      "fs": 5410,
      "gl": 5411,
      "Ġaward": 5412,
      "Ġsch": 5413,
      "Ġcognitive": 5414,
      "alities": 5415,
      "uts": 5416,
      "Ġproductivity": 5417,
      "Ġscientists": 5418,
      "Ġwait": 5419,
      "Â°": 5420,
      "Ġoven": 5421,
      "omas": 5422,
      "Ġcommer": 5423,
      "Ġwear": 5424,
      "Ġdecor": 5425,
      "Ġmaintenance": 5426,
      "Ġnearby": 5427,
      "ĠAustralian": 5428,
      "Deaths": 5429,
      "Ġdoub": 5430,
      "\"]}}": 5431,
      "Ġcorrespond": 5432,
      "Im": 5433,
      "RO": 5434,
      "coh": 5435,
      "ype": 5436,
      "ady": 5437,
      "Ġflav": 5438,
      "Ġoperation": 5439,
      "ourage": 5440,
      "Ġsuccessfully": 5441,
      "Ġwalking": 5442,
      "\"},": 5443,
      "itter": 5444,
      "Ġexcept": 5445,
      "ptions": 5446,
      "osen": 5447,
      "bert": 5448,
      "Ġago": 5449,
      "Ġwriters": 5450,
      "Ġexpos": 5451,
      "ING": 5452,
      "ĠĠĠĠĠĠĠĠĠĠĠ": 5453,
      "ĠSwed": 5454,
      "\"}},": 5455,
      "Ġvehicle": 5456,
      "Ġsuitable": 5457,
      "Ġvillage": 5458,
      "Remember": 5459,
      "ĠCor": 5460,
      "ĠMo": 5461,
      "Ġvision": 5462,
      "\":[\"": 5463,
      "Ġmyster": 5464,
      "Ġunderlying": 5465,
      "ĠArch": 5466,
      "Ġseconds": 5467,
      "Ġcredit": 5468,
      "boxed": 5469,
      "Com": 5470,
      "attle": 5471,
      "iration": 5472,
      "ĠWind": 5473,
      "Ġseven": 5474,
      "ĠEgypt": 5475,
      "Ġsynt": 5476,
      "Ġcompleted": 5477,
      "Ġlisten": 5478,
      "Ġdescriptive": 5479,
      "ĠBrazil": 5480,
      "bour": 5481,
      "Ġfab": 5482,
      "Ġlabor": 5483,
      "ĠUK": 5484,
      "Ġevolution": 5485,
      "ĠWho": 5486,
      "Ġrare": 5487,
      "ĠIsland": 5488,
      "Ġcorrelation": 5489,
      "Ġaf": 5490,
      "het": 5491,
      "Ġfer": 5492,
      "Ġfat": 5493,
      "Ġhus": 5494,
      "ĠEst": 5495,
      "Ġ$<<": 5496,
      "Ġcoast": 5497,
      "Ġideal": 5498,
      "iences": 5499,
      "Ġposts": 5500,
      "Ġreviews": 5501,
      "Therefore": 5502,
      "ĠBuild": 5503,
      "Ġsuff": 5504,
      "Ġstrange": 5505,
      "Ġsecrets": 5506,
      "Ġanalyzing": 5507,
      "Ġchannels": 5508,
      "[]": 5509,
      "flow": 5510,
      "Ġdough": 5511,
      "asion": 5512,
      "anta": 5513,
      "ĠMal": 5514,
      "ĠMont": 5515,
      "ĠPo": 5516,
      "ĠBest": 5517,
      "this": 5518,
      "ĠFace": 5519,
      "outhern": 5520,
      "ports": 5521,
      "Ġwants": 5522,
      "ĠProgram": 5523,
      "Ġswitch": 5524,
      "ĠâĪ": 5525,
      "Ġlimitations": 5526,
      "Ġboundaries": 5527,
      "ĠGeneral": 5528,
      "From": 5529,
      "Ġhabit": 5530,
      "ett": 5531,
      "ĠWestern": 5532,
      "ĠRet": 5533,
      "rene": 5534,
      "Ġrecords": 5535,
      "Ġcapture": 5536,
      "ĠTwo": 5537,
      "ĠAvoid": 5538,
      "Ġroutine": 5539,
      "ltimately": 5540,
      "Ġauthentic": 5541,
      "wide": 5542,
      "alax": 5543,
      "ilit": 5544,
      "amily": 5545,
      "Ġsched": 5546,
      "Ġadds": 5547,
      "Ġscientific": 5548,
      "Ġarrange": 5549,
      "Ġprinciples": 5550,
      "ato": 5551,
      "Ġinequ": 5552,
      "Ġvac": 5553,
      "peror": 5554,
      "ĠJournal": 5555,
      "Ġcontroll": 5556,
      "ĠChristian": 5557,
      "cosystem": 5558,
      "oons": 5559,
      "volution": 5560,
      "Ġacknow": 5561,
      "roc": 5562,
      "ota": 5563,
      "ĠOh": 5564,
      "ishing": 5565,
      "Ġdecl": 5566,
      "}},\"": 5567,
      "Ġeventually": 5568,
      "Ġtransformation": 5569,
      "Ġdialogue": 5570,
      "gent": 5571,
      "yo": 5572,
      "ingu": 5573,
      "Ġmit": 5574,
      "Ġoffered": 5575,
      "Ġdie": 5576,
      "ĠDiv": 5577,
      "Ġspot": 5578,
      "Ġachie": 5579,
      "Ġsensory": 5580,
      "itors": 5581,
      "olf": 5582,
      "ĠIr": 5583,
      "Ġrh": 5584,
      "Ġkept": 5585,
      "Ġremove": 5586,
      "Ġapart": 5587,
      "Ġgratitude": 5588,
      "Ġphysics": 5589,
      "Ġexcited": 5590,
      "ĠAssociation": 5591,
      "My": 5592,
      "UR": 5593,
      "Ġwit": 5594,
      "etime": 5595,
      "Ġmood": 5596,
      "Ġincent": 5597,
      "ĠVis": 5598,
      "Ġstudied": 5599,
      "Ġamb": 5600,
      "Ġcarefully": 5601,
      "Ġreports": 5602,
      "ĠKeep": 5603,
      "Ġrelatively": 5604,
      "person": 5605,
      "Ġod": 5606,
      "Ġpen": 5607,
      "Ġfrog": 5608,
      "otic": 5609,
      "ĠCoun": 5610,
      "rive": 5611,
      "Ġcomedy": 5612,
      "Ġmeant": 5613,
      "Ġjoy": 5614,
      "Ġregression": 5615,
      "Ġguitar": 5616,
      "Ġkeeping": 5617,
      "Ġopened": 5618,
      "Ġcircle": 5619,
      "Ġbattle": 5620,
      "door": 5621,
      "Ġtaught": 5622,
      "Ġseeds": 5623,
      "ĠGold": 5624,
      "Ġmedian": 5625,
      "Ġinsight": 5626,
      "Ġgenerally": 5627,
      "ĠProject": 5628,
      "Ġchoices": 5629,
      "Ġcapacity": 5630,
      "Ġphrases": 5631,
      "istry": 5632,
      "uman": 5633,
      "Ġchapter": 5634,
      "ĠLaw": 5635,
      "ĠEvery": 5636,
      "ĠChicago": 5637,
      "athy": 5638,
      "Ġrail": 5639,
      "Ġsky": 5640,
      "Ġstatistical": 5641,
      "Ġadvantage": 5642,
      "Ġ;": 5643,
      "erv": 5644,
      "Ġecosystem": 5645,
      "Ġship": 5646,
      "gebra": 5647,
      "ooking": 5648,
      "Ġfrequency": 5649,
      "Ġbegins": 5650,
      "win": 5651,
      "amm": 5652,
      "aming": 5653,
      "ĠSol": 5654,
      "Ġexternal": 5655,
      "ĠHel": 5656,
      "ĠPeter": 5657,
      "tery": 5658,
      "Ġcoord": 5659,
      "Ġopin": 5660,
      "Ġobstac": 5661,
      "(-": 5662,
      "isher": 5663,
      "ĠImp": 5664,
      "ĠAbs": 5665,
      "Ġspecifically": 5666,
      ".\"}},\"": 5667,
      "ĠSpain": 5668,
      "Ġglass": 5669,
      "Ġemotion": 5670,
      "Ġinternal": 5671,
      "Ġstruggling": 5672,
      "ĠCanadian": 5673,
      "Ġsurrounding": 5674,
      "ket": 5675,
      "inger": 5676,
      "Ġdaughter": 5677,
      "ette": 5678,
      "ĠNO": 5679,
      "asted": 5680,
      "ĠWhy": 5681,
      "Ġfinished": 5682,
      "Ġpresentation": 5683,
      "Ġvolume": 5684,
      "Ġtalking": 5685,
      "Ind": 5686,
      "Ġtrou": 5687,
      "Ġcamer": 5688,
      "Ġfrag": 5689,
      "ental": 5690,
      "ĠSub": 5691,
      "Ġstreet": 5692,
      "ĠMount": 5693,
      "Ġexchange": 5694,
      "ĠNet": 5695,
      "Ġclosed": 5696,
      "Ġgolden": 5697,
      "Ġalgorithms": 5698,
      "Ġcitiz": 5699,
      "sub": 5700,
      "Ã¨": 5701,
      "Ġpet": 5702,
      "Ġeth": 5703,
      "ĠPak": 5704,
      "oday": 5705,
      "ĠNone": 5706,
      "Ġremote": 5707,
      "Ġtexture": 5708,
      "yc": 5709,
      "Ġcrow": 5710,
      "Ġcars": 5711,
      "Ġwine": 5712,
      "ĠJose": 5713,
      "Ġsigns": 5714,
      "Ġsignal": 5715,
      "Ġcreativity": 5716,
      "Ġgluten": 5717,
      "Ġintroduced": 5718,
      "ĠFranc": 5719,
      "ĠAngeles": 5720,
      "Ġfirm": 5721,
      "leg": 5722,
      "aded": 5723,
      "ĠWil": 5724,
      "ĠDec": 5725,
      "Ġunknown": 5726,
      "Ġmanner": 5727,
      "Ġcolon": 5728,
      "Ġhighlights": 5729,
      "\"\"": 5730,
      "Actors": 5731,
      "Ge": 5732,
      "Ġvert": 5733,
      "irgin": 5734,
      "ĠPsych": 5735,
      "ĠĠĊ": 5736,
      "ĠLos": 5737,
      "Ġtea": 5738,
      "Ġbelong": 5739,
      "ĠSmith": 5740,
      "CA": 5741,
      "ny": 5742,
      "Ġspeaking": 5743,
      "Ġperhaps": 5744,
      "ĠVe": 5745,
      "Ġdefine": 5746,
      "undred": 5747,
      "Ġdetermined": 5748,
      "ĠDesign": 5749,
      "Ġnutrit": 5750,
      "yer": 5751,
      "Ġic": 5752,
      "Ġreb": 5753,
      "ificial": 5754,
      "azz": 5755,
      "Ġlessons": 5756,
      "Ġopening": 5757,
      "Ġpresented": 5758,
      "Ġfunding": 5759,
      "Ġlabel": 5760,
      "Ġloyalty": 5761,
      "Ġterr": 5762,
      "input": 5763,
      "atin": 5764,
      "Ġmale": 5765,
      "Ġtow": 5766,
      "icit": 5767,
      "ĠMad": 5768,
      "rier": 5769,
      "osis": 5770,
      "Ġplastic": 5771,
      "ĠUp": 5772,
      "Ġdisorders": 5773,
      "Ġflat": 5774,
      "Ġorganized": 5775,
      "Ġtracking": 5776,
      "Ġmanaged": 5777,
      "Ġderiv": 5778,
      "Bl": 5779,
      "US": 5780,
      "rame": 5781,
      "Ġcert": 5782,
      "Ġban": 5783,
      "Ġbillion": 5784,
      "Ġstick": 5785,
      "ocial": 5786,
      "Ġenab": 5787,
      "ressed": 5788,
      "âĢĵâĢĵâĢĵâĢĵ": 5789,
      "Ġneighborhood": 5790,
      "\\)": 5791,
      "your": 5792,
      "ĠThank": 5793,
      "index": 5794,
      "ĠAnother": 5795,
      "Ġcontinues": 5796,
      "ographic": 5797,
      "ï¬Ĥ": 5798,
      "Ġcausing": 5799,
      "Ġstruggles": 5800,
      "ĠAcadem": 5801,
      "](#": 5802,
      "EO": 5803,
      "sk": 5804,
      "Ġtall": 5805,
      "Ġsnow": 5806,
      "Ġfalse": 5807,
      "âĢ¦": 5808,
      "people": 5809,
      "ĠWashington": 5810,
      "Ġsatisfaction": 5811,
      "Ġshowcase": 5812,
      "ĠFlorida": 5813,
      ".\",\"": 5814,
      "Gener": 5815,
      "make": 5816,
      "ĠMac": 5817,
      "ĠDu": 5818,
      "ĠFil": 5819,
      "aked": 5820,
      "ĠChapter": 5821,
      "Ġrevised": 5822,
      "Ġuncertain": 5823,
      "Or": 5824,
      "Ġfreedom": 5825,
      "ste": 5826,
      "imal": 5827,
      "Ġforced": 5828,
      "ĠCa": 5829,
      "abeth": 5830,
      "Ġmeat": 5831,
      "Ġpoliticians": 5832,
      "allel": 5833,
      "Ġmystery": 5834,
      "Ġresilience": 5835,
      "erate": 5836,
      "Ġdro": 5837,
      "Ġclothing": 5838,
      "Ġmusical": 5839,
      "nergy": 5840,
      "Ġbehaviors": 5841,
      "Ġfitness": 5842,
      "Ġintricate": 5843,
      "iro": 5844,
      "size": 5845,
      "Ġtrib": 5846,
      "Ġlacks": 5847,
      "Ġgent": 5848,
      "ĠBusiness": 5849,
      "Ġcomments": 5850,
      "Ġcommand": 5851,
      "Ġaccident": 5852,
      "Ġcoach": 5853,
      "backs": 5854,
      "ĠPrime": 5855,
      "Ġinspired": 5856,
      "Ġfamiliar": 5857,
      "Ġjoined": 5858,
      "====": 5859,
      "semb": 5860,
      "ML": 5861,
      "found": 5862,
      "Ġcovered": 5863,
      "Ġconvert": 5864,
      "ĠMag": 5865,
      "ĠPract": 5866,
      "Ġaccuracy": 5867,
      "Ġpoly": 5868,
      "Ġwatching": 5869,
      "ĠChampionship": 5870,
      "Day": 5871,
      "hus": 5872,
      "Ġdance": 5873,
      "roph": 5874,
      "Ġhomes": 5875,
      "ifact": 5876,
      "Ġsevere": 5877,
      "Ġteaching": 5878,
      "Ġtwice": 5879,
      "Ġclassical": 5880,
      "Ġdiagn": 5881,
      "Ġprobably": 5882,
      "Ġparticipate": 5883,
      "Ġminimum": 5884,
      "Ġclosely": 5885,
      "Ġapproximately": 5886,
      "ĠCharles": 5887,
      "FF": 5888,
      "test": 5889,
      "Ġhero": 5890,
      "Ġshoot": 5891,
      "anged": 5892,
      "Ġdecide": 5893,
      "Ġconfident": 5894,
      "Ġlaws": 5895,
      "what": 5896,
      "Ġcups": 5897,
      "ĠCompany": 5898,
      "Ġrapid": 5899,
      "estyle": 5900,
      "ĠRob": 5901,
      "Ġjump": 5902,
      "Ġconsult": 5903,
      "Ġminor": 5904,
      "Ġshowing": 5905,
      "Ġinstrument": 5906,
      "Ġinnovation": 5907,
      "account": 5908,
      "othesis": 5909,
      "ĠMexico": 5910,
      "ĠNYS": 5911,
      "ĠCatholic": 5912,
      "but": 5913,
      "sa": 5914,
      "ishes": 5915,
      "Ġdates": 5916,
      "idential": 5917,
      "oding": 5918,
      "ĠJew": 5919,
      "ultural": 5920,
      "ĠVol": 5921,
      "Ġproperly": 5922,
      "Ġrepresentation": 5923,
      "Ġsnail": 5924,
      "Ġregularly": 5925,
      "ĠIdent": 5926,
      "fast": 5927,
      "},\"": 5928,
      "lete": 5929,
      "ĠID": 5930,
      "Ġongoing": 5931,
      "Ġshop": 5932,
      "ograp": 5933,
      "Ġcompelling": 5934,
      "Ġdeli": 5935,
      "ossible": 5936,
      "Ġconflicts": 5937,
      "ĠRussia": 5938,
      "Ġdescriptions": 5939,
      "Ġexcl": 5940,
      "ĠWater": 5941,
      "Ġchocolate": 5942,
      "Ġimpl": 5943,
      "Ġclin": 5944,
      "Ġmovements": 5945,
      "Ġwinter": 5946,
      "ipped": 5947,
      "Ġdefinitely": 5948,
      "ĠAbsol": 5949,
      "riage": 5950,
      "ĠWork": 5951,
      "ictor": 5952,
      "Ġjustice": 5953,
      "Ġfounded": 5954,
      "Ġincreases": 5955,
      "----------------": 5956,
      "ĠHenry": 5957,
      "Ġdictionary": 5958,
      "Next": 5959,
      "hav": 5960,
      "Ġnative": 5961,
      "istor": 5962,
      "Ġcontem": 5963,
      "ĠJe": 5964,
      "angers": 5965,
      "Ġedge": 5966,
      "ĠRemember": 5967,
      "Ġstrictly": 5968,
      "ĠFacebook": 5969,
      "nam": 5970,
      "ila": 5971,
      "ĠCle": 5972,
      "Ġcloser": 5973,
      "aws": 5974,
      "Ġpotentially": 5975,
      "fraid": 5976,
      "Ġrepresented": 5977,
      "etherlands": 5978,
      "Ġwidely": 5979,
      "reland": 5980,
      "reets": 5981,
      "Ġgift": 5982,
      "tee": 5983,
      "ĠGet": 5984,
      "ferent": 5985,
      "Ġspin": 5986,
      "Ġapps": 5987,
      "Ġshowed": 5988,
      "Ġgoods": 5989,
      "Ġperformed": 5990,
      "Ġextract": 5991,
      "Ġnetworks": 5992,
      "Ġframework": 5993,
      "Ġprofessionals": 5994,
      "Ġdelivery": 5995,
      "John": 5996,
      "ca": 5997,
      "ey": 5998,
      "fl": 5999,
      "page": 6000,
      "unting": 6001,
      "ĠRome": 6002,
      "Ġteach": 6003,
      "Ġconcent": 6004,
      "Ġcurious": 6005,
      "Ġimpacts": 6006,
      "Ġentertain": 6007,
      "Ġpossess": 6008,
      "Ġpayment": 6009,
      "ĠCarol": 6010,
      "Ġwaiting": 6011,
      "Ġupdated": 6012,
      "Ġastron": 6013,
      "uation": 6014,
      "ugg": 6015,
      "ĠEven": 6016,
      "Ġrealize": 6017,
      "Ġfacing": 6018,
      "ĠEliz": 6019,
      "Ġdegrees": 6020,
      "Ġunexpected": 6021,
      "orrow": 6022,
      "Ġcher": 6023,
      "ĠSoviet": 6024,
      "ĠBill": 6025,
      "Ġfoundation": 6026,
      "Ġgeneration": 6027,
      "ĠJane": 6028,
      "Ġexciting": 6029,
      "apping": 6030,
      "Ġangle": 6031,
      "Ġannounced": 6032,
      "iat": 6033,
      "Ġfaster": 6034,
      "ifies": 6035,
      "Ġvan": 6036,
      "outs": 6037,
      "Ġnotes": 6038,
      "ĠĠĠĠĠ": 6039,
      "Ġdesire": 6040,
      "Ġserver": 6041,
      "Ġengaged": 6042,
      "Ġcaught": 6043,
      "liers": 6044,
      "________________": 6045,
      "Ġsexual": 6046,
      "ano": 6047,
      "Ġthread": 6048,
      "Ġexception": 6049,
      "Ġvast": 6050,
      "ĠFI": 6051,
      "Ġdespite": 6052,
      "Ġinterface": 6053,
      "Ġletters": 6054,
      "Ġdivide": 6055,
      "âĶĢâĶĢâĶĢâĶĢâĶĢâĶĢâĶĢâĶĢ": 6056,
      "Ġeggs": 6057,
      "ĠDistrict": 6058,
      "Ġthous": 6059,
      "ĠBased": 6060,
      "That": 6061,
      "Ġsummar": 6062,
      "Ġmanagers": 6063,
      "Ġrevolution": 6064,
      "Ġemerg": 6065,
      "Ġinitiatives": 6066,
      "how": 6067,
      "have": 6068,
      "sm": 6069,
      "Ġfiction": 6070,
      "olved": 6071,
      "ĠIreland": 6072,
      "Ġstack": 6073,
      "ulated": 6074,
      "ĠUs": 6075,
      "ĠArmy": 6076,
      "Ġconfront": 6077,
      "ĠConf": 6078,
      "Ġalbums": 6079,
      "Ġsoul": 6080,
      "Comp": 6081,
      "func": 6082,
      "gener": 6083,
      "was": 6084,
      "Ġur": 6085,
      "itoring": 6086,
      "Ġgun": 6087,
      "ĠLife": 6088,
      "Ġadhere": 6089,
      "Ġrecently": 6090,
      "Ġlistening": 6091,
      "Ġhandling": 6092,
      "Ġelection": 6093,
      "Ġfilter": 6094,
      "Ġholds": 6095,
      "Ġrecognize": 6096,
      "Ġcircum": 6097,
      "Ġromantic": 6098,
      "ello": 6099,
      "Ġworksh": 6100,
      "Ġclearly": 6101,
      "Ġdiseases": 6102,
      "ĠQueen": 6103,
      "Ġpronoun": 6104,
      "No": 6105,
      "rical": 6106,
      "Ġcoc": 6107,
      "Ġfig": 6108,
      "arant": 6109,
      "Ġrent": 6110,
      "iled": 6111,
      "Ġplaced": 6112,
      "Ġcompare": 6113,
      "ansas": 6114,
      "lick": 6115,
      "Ġartifact": 6116,
      "ĠConst": 6117,
      "Ġpainting": 6118,
      "Ġlogic": 6119,
      "Ġriver": 6120,
      "writer": 6121,
      "queue": 6122,
      "ĠPerhaps": 6123,
      "Ġfloor": 6124,
      "cohol": 6125,
      "aland": 6126,
      "ĠSing": 6127,
      "Ġconservation": 6128,
      "Ġcharge": 6129,
      "Ġstanding": 6130,
      "Ġasking": 6131,
      "Ġsurvive": 6132,
      "writing": 6133,
      "Ġcommitment": 6134,
      "ĠRichard": 6135,
      "TS": 6136,
      "Ġsuc": 6137,
      "ĠLo": 6138,
      "ĠRock": 6139,
      "Ġfears": 6140,
      "Ġclick": 6141,
      "Ġarm": 6142,
      "Ġquiet": 6143,
      "Ġserves": 6144,
      "effect": 6145,
      "Ġlists": 6146,
      "Ġmemor": 6147,
      "Ġparent": 6148,
      "Ġtells": 6149,
      "ometimes": 6150,
      "Ġfootballer": 6151,
      "Ġslowly": 6152,
      "Ġexplanation": 6153,
      "IP": 6154,
      "Polit": 6155,
      "mas": 6156,
      "write": 6157,
      "zen": 6158,
      "Ġsen": 6159,
      "Ġsac": 6160,
      "state": 6161,
      "Ġcomment": 6162,
      "through": 6163,
      "neg": 6164,
      "Ġoutcome": 6165,
      "ventions": 6166,
      "annel": 6167,
      "Ġappeared": 6168,
      "Ġwindow": 6169,
      "Ġstrengths": 6170,
      "cdot": 6171,
      "cles": 6172,
      "cons": 6173,
      "rich": 6174,
      "Ġkit": 6175,
      "ails": 6176,
      "Ġcomplement": 6177,
      "Ġattacks": 6178,
      "Ġprofit": 6179,
      "ĠJohnson": 6180,
      "Ġlinked": 6181,
      "Ġsettings": 6182,
      "Ġtomatoes": 6183,
      "Ġfaith": 6184,
      "Ġvibrant": 6185,
      "Ġinequality": 6186,
      "CD": 6187,
      "sit": 6188,
      "Ġwest": 6189,
      "road": 6190,
      "ĠBoy": 6191,
      "ynomial": 6192,
      "Ġoperating": 6193,
      "Ġwinning": 6194,
      "west": 6195,
      "Ġwire": 6196,
      "ita": 6197,
      "iture": 6198,
      "Ġbinary": 6199,
      "Ġdrop": 6200,
      "illy": 6201,
      "ĠSaint": 6202,
      "ĠPet": 6203,
      "Ġchurch": 6204,
      "Ġteasp": 6205,
      "Ġassistance": 6206,
      "Ġvisually": 6207,
      "Ġfriendly": 6208,
      "ĠScot": 6209,
      "ĠMaybe": 6210,
      "Ġresponsibility": 6211,
      "Ġadults": 6212,
      "Ġpap": 6213,
      "Ġeight": 6214,
      "una": 6215,
      "Ġalgebra": 6216,
      "ĠPress": 6217,
      "ĠHey": 6218,
      "ologist": 6219,
      "Ġassist": 6220,
      "Ġdiscovery": 6221,
      "Ġfaces": 6222,
      "Ġdrawn": 6223,
      "Ġnutri": 6224,
      "Ġelectricity": 6225,
      "TION": 6226,
      "Ġagriculture": 6227,
      "Ġhusband": 6228,
      "Acc": 6229,
      "organ": 6230,
      "oul": 6231,
      "ĠRel": 6232,
      "osh": 6233,
      "Ġquad": 6234,
      "Ġsuggested": 6235,
      "Ġsymmet": 6236,
      "Ġanalytics": 6237,
      "Ġdepends": 6238,
      "Ġrestaurants": 6239,
      "ĠCatal": 6240,
      "!\"": 6241,
      "?âĢĿ": 6242,
      "\\]": 6243,
      "aud": 6244,
      "Ġreput": 6245,
      "ĠTest": 6246,
      "using": 6247,
      "ĠIll": 6248,
      "opher": 6249,
      "Ġexploration": 6250,
      "Ġfinds": 6251,
      "Ġretail": 6252,
      "Ġrefuse": 6253,
      "ĠAnaly": 6254,
      "Ġextreme": 6255,
      "Ġswim": 6256,
      "ĠOrgan": 6257,
      "Ġradio": 6258,
      "Ġmistakes": 6259,
      "VID": 6260,
      "rat": 6261,
      "Ġafraid": 6262,
      "ani": 6263,
      "ushed": 6264,
      "ĠMind": 6265,
      "ĠDen": 6266,
      "ĠStreet": 6267,
      "Ġstatements": 6268,
      "Ġstudying": 6269,
      "Ġobjectives": 6270,
      "Ġexistence": 6271,
      "Ġpairs": 6272,
      "Ġchatb": 6273,
      "Se": 6274,
      "squ": 6275,
      "{\\": 6276,
      "Ġwall": 6277,
      "Ġfort": 6278,
      "Ġvir": 6279,
      "Ġenable": 6280,
      "Ġagency": 6281,
      "Our": 6282,
      "Writ": 6283,
      "Ġsin": 6284,
      "ĠSoph": 6285,
      "ĠHave": 6286,
      "appe": 6287,
      "Ġexperts": 6288,
      "Ġinteraction": 6289,
      "ups": 6290,
      "Ġsubt": 6291,
      "liament": 6292,
      "Ġbeliefs": 6293,
      "Ġstretch": 6294,
      "ographer": 6295,
      "Qu": 6296,
      "eta": 6297,
      "igen": 6298,
      "ĠAp": 6299,
      "iform": 6300,
      "ablish": 6301,
      "Ġchampions": 6302,
      "Ġembra": 6303,
      "Ġrecovery": 6304,
      "Ġsupporting": 6305,
      "Ġpossibility": 6306,
      "ĠAbsolutely": 6307,
      "CO": 6308,
      "pan": 6309,
      "Ġtur": 6310,
      "ĠMel": 6311,
      "Ġselection": 6312,
      "ĠOfficial": 6313,
      "Ġrain": 6314,
      "Ġfollowers": 6315,
      "Ġachieved": 6316,
      "Ġbike": 6317,
      "Ġliterature": 6318,
      "Ġregarding": 6319,
      "Ġflexibility": 6320,
      "ĠCouncil": 6321,
      "ĠPakistan": 6322,
      ")$": 6323,
      "wo": 6324,
      "well": 6325,
      "Ġsister": 6326,
      "Ġcas": 6327,
      "Ġcuis": 6328,
      "Ġbond": 6329,
      "Ġmas": 6330,
      "astern": 6331,
      "user": 6332,
      "ĠIran": 6333,
      "ĠMem": 6334,
      "ĠPublic": 6335,
      "Ġsud": 6336,
      "Ġarms": 6337,
      "Ġcorpor": 6338,
      "Ġcolleagues": 6339,
      "Ġfabric": 6340,
      "Ġhundred": 6341,
      "Ġchosen": 6342,
      "ogether": 6343,
      "Ġhappens": 6344,
      "denly": 6345,
      "GB": 6346,
      "top": 6347,
      "ada": 6348,
      "Ġalthough": 6349,
      "ateful": 6350,
      "Ġexcess": 6351,
      "Ġchronic": 6352,
      "ĠThomas": 6353,
      "assion": 6354,
      "ĠAlthough": 6355,
      "Ġfoods": 6356,
      "Ġappealing": 6357,
      "Ġindeed": 6358,
      "Ġmeaningful": 6359,
      "Ġoptional": 6360,
      "Ġspiritual": 6361,
      "Ġsessions": 6362,
      "urricane": 6363,
      "Ġcommercial": 6364,
      "erts": 6365,
      "Ġwel": 6366,
      "Ġtoward": 6367,
      "ĠAM": 6368,
      "Ġonion": 6369,
      "ĠPM": 6370,
      "Ġ=>": 6371,
      "ync": 6372,
      "ĠIsra": 6373,
      "century": 6374,
      "ĠCentral": 6375,
      "spec": 6376,
      "Ġdedicated": 6377,
      "Ġfestival": 6378,
      ")(": 6379,
      "AM": 6380,
      "Â²": 6381,
      "Ġforget": 6382,
      "rome": 6383,
      "ĠFore": 6384,
      "ĠEduc": 6385,
      "Ġshad": 6386,
      "ideo": 6387,
      "ells": 6388,
      "Ġnoise": 6389,
      "Ġchildhood": 6390,
      "Ġmusicians": 6391,
      "Ġfacilit": 6392,
      "ĠIsl": 6393,
      "Ġidentifying": 6394,
      "Ġdemonstrate": 6395,
      "Ġsoup": 6396,
      "Ġjuice": 6397,
      "gers": 6398,
      "ĠHot": 6399,
      "ĠHistory": 6400,
      "Ġsegment": 6401,
      "Ġcomposing": 6402,
      "Ġtele": 6403,
      "okyo": 6404,
      "Ġrelat": 6405,
      "Ġspecified": 6406,
      "Ġstudio": 6407,
      "const": 6408,
      "Ġpassing": 6409,
      "ipping": 6410,
      "Ġstores": 6411,
      "ĠDespite": 6412,
      "Ġjoin": 6413,
      "Ġtablesp": 6414,
      "ĠZealand": 6415,
      "Ġschol": 6416,
      "Each": 6417,
      "kins": 6418,
      "rates": 6419,
      "|}": 6420,
      "Ġbought": 6421,
      "Ġgalax": 6422,
      "ĠBefore": 6423,
      "Ġcompl": 6424,
      "Ġran": 6425,
      "asty": 6426,
      "ĠYear": 6427,
      "Ġagg": 6428,
      "Ġbelie": 6429,
      "ĠShow": 6430,
      "Ġreplaced": 6431,
      "Enter": 6432,
      "ban": 6433,
      "dri": 6434,
      "onent": 6435,
      "itzer": 6436,
      "ĠSil": 6437,
      "ĠSun": 6438,
      "oto": 6439,
      "agine": 6440,
      "ĠChoose": 6441,
      "Ġperforming": 6442,
      "Ġintroduction": 6443,
      "Ġcomponent": 6444,
      "case": 6445,
      "Ġwed": 6446,
      "ĠBC": 6447,
      "ĠBob": 6448,
      "izza": 6449,
      "Ġclust": 6450,
      "ĠStand": 6451,
      "Ġpositions": 6452,
      "Ġavailability": 6453,
      "Ġincreasingly": 6454,
      "Ġappearance": 6455,
      "xxx": 6456,
      "Ġphilosoph": 6457,
      "tes": 6458,
      "ima": 6459,
      "ithm": 6460,
      "adium": 6461,
      "Ġconference": 6462,
      "ĠBas": 6463,
      "ĠBig": 6464,
      "ĠNetherlands": 6465,
      "ĠWhite": 6466,
      "Ġpolynomial": 6467,
      "Ġsolid": 6468,
      "Ġbirds": 6469,
      "Ġstandards": 6470,
      "Ġruns": 6471,
      "count": 6472,
      "Ġtact": 6473,
      "atically": 6474,
      "orter": 6475,
      "ali": 6476,
      "Ġhab": 6477,
      "ilarly": 6478,
      "Ġalive": 6479,
      "ĠGP": 6480,
      "ĠJo": 6481,
      "ĠJava": 6482,
      "Ġspark": 6483,
      "Ġexpensive": 6484,
      "fficients": 6485,
      "ĠSea": 6486,
      "Ġforeign": 6487,
      "Ġconsumption": 6488,
      "Ġescape": 6489,
      "alysis": 6490,
      "ingers": 6491,
      "Ġyellow": 6492,
      "ĠPage": 6493,
      "ĠBecause": 6494,
      "Ġabsol": 6495,
      "ĠOverall": 6496,
      "Ġparties": 6497,
      "Ġsalad": 6498,
      "ĠScience": 6499,
      "ĠSee": 6500,
      "Ġmanufacture": 6501,
      "Ġintentions": 6502,
      "bles": 6503,
      "Ġ?": 6504,
      "Ġpand": 6505,
      "Ġbranch": 6506,
      "rooms": 6507,
      "Ġthin": 6508,
      "Ġgall": 6509,
      "Ġaltern": 6510,
      "ĠBur": 6511,
      "Ġdeploy": 6512,
      "ĠLook": 6513,
      "ĠEnergy": 6514,
      "ĠVictor": 6515,
      "Ġindicate": 6516,
      "Ġrecurs": 6517,
      "Ġphase": 6518,
      "Ġmostly": 6519,
      "Ġtrial": 6520,
      "Ġrepresenting": 6521,
      "ĠInclude": 6522,
      "Ġsurvival": 6523,
      "ii": 6524,
      "rete": 6525,
      "Ġpod": 6526,
      "Ġbin": 6527,
      "Ġhar": 6528,
      "Ġeating": 6529,
      "eling": 6530,
      "ĠCustom": 6531,
      "Ġconven": 6532,
      "ĠDou": 6533,
      "Ġequations": 6534,
      "Ġintegration": 6535,
      "Ġmotivation": 6536,
      "Ġindicates": 6537,
      "Ġblend": 6538,
      "Mus": 6539,
      "Pr": 6540,
      "sort": 6541,
      "uing": 6542,
      "Ġ)": 6543,
      "Ġwaves": 6544,
      "Ġfif": 6545,
      "ĠCamp": 6546,
      "Ġproof": 6547,
      "ocation": 6548,
      "Ġjew": 6549,
      "ĠStar": 6550,
      "culate": 6551,
      "Ġfourth": 6552,
      "Ġdivision": 6553,
      "Ġupdates": 6554,
      "United": 6555,
      "Ġstakeholders": 6556,
      "Ġderivative": 6557,
      "']": 6558,
      "=<<": 6559,
      "Cont": 6560,
      "Su": 6561,
      "ba": 6562,
      "rum": 6563,
      "itle": 6564,
      "Ġfill": 6565,
      "Ġbodies": 6566,
      "ĠTor": 6567,
      "ĠBook": 6568,
      "Ġrul": 6569,
      "Ġshif": 6570,
      "berries": 6571,
      "ĠLeg": 6572,
      "Ġpurs": 6573,
      "Ġaccounts": 6574,
      "Ġcitizens": 6575,
      "Aust": 6576,
      "Ġbot": 6577,
      "iche": 6578,
      "ĠTim": 6579,
      "cho": 6580,
      "ache": 6581,
      "izer": 6582,
      "erman": 6583,
      "Ġelim": 6584,
      "Ġanswers": 6585,
      "Ġresponses": 6586,
      "Ġhousehold": 6587,
      "Ġpsychological": 6588,
      "Ġclimb": 6589,
      "Ġnuclear": 6590,
      "je": 6591,
      "Ġphen": 6592,
      "Ġfro": 6593,
      "Ġreaction": 6594,
      "Ġgone": 6595,
      "oted": 6596,
      "cks": 6597,
      "dered": 6598,
      "Ġdeviation": 6599,
      "encers": 6600,
      "Conclusion": 6601,
      "Ġpreviously": 6602,
      "Ġfulf": 6603,
      "Ġproposed": 6604,
      "ĠSummer": 6605,
      "Ġexposure": 6606,
      "Ġmysterious": 6607,
      "Comm": 6608,
      "Ġtang": 6609,
      "Ġselling": 6610,
      "Ġrein": 6611,
      "andon": 6612,
      "Ġshot": 6613,
      "Ġinches": 6614,
      "asts": 6615,
      "Ġdoctor": 6616,
      "osting": 6617,
      "ĠVer": 6618,
      "Ġretrie": 6619,
      "Ġmonitor": 6620,
      "Ġobserved": 6621,
      "Ġcoefficient": 6622,
      "bur": 6623,
      "tical": 6624,
      "Ġiron": 6625,
      "orrect": 6626,
      "Ġfurn": 6627,
      "ston": 6628,
      "ĠCost": 6629,
      "ĠDel": 6630,
      "ĠFLO": 6631,
      "Ġsector": 6632,
      "avy": 6633,
      "Ġliqu": 6634,
      "Ġprovince": 6635,
      "Ġsurvey": 6636,
      "Ġcareful": 6637,
      "Ġmotion": 6638,
      "Ġmountain": 6639,
      "Ġprices": 6640,
      "Ġhousing": 6641,
      "Ġaccomplish": 6642,
      "Ġflavors": 6643,
      "Ġobstacles": 6644,
      "Ã¥": 6645,
      "Ġtheorem": 6646,
      "Ġmig": 6647,
      "abet": 6648,
      "ĠRoyal": 6649,
      "ĠVirgin": 6650,
      "Ġenthus": 6651,
      "Ġadvoc": 6652,
      "ographics": 6653,
      "Chapter": 6654,
      "Ġreaching": 6655,
      "Ġcerem": 6656,
      "Ġcorner": 6657,
      "ĠAcademy": 6658,
      "Ġcuisine": 6659,
      "['": 6660,
      "Ġtag": 6661,
      "Ġfilling": 6662,
      "Ġeast": 6663,
      "Ġforg": 6664,
      "Ġstunning": 6665,
      "ighter": 6666,
      "Ġmaybe": 6667,
      "Ġobserv": 6668,
      "Ġacid": 6669,
      "Ġgenerated": 6670,
      "Ġprofile": 6671,
      "Ġprofound": 6672,
      "Ġgrant": 6673,
      "Ġaffects": 6674,
      "ĠStep": 6675,
      "Ġlifestyle": 6676,
      "Ġshapes": 6677,
      "Ġyoga": 6678,
      "Ġinhabit": 6679,
      "Ġholid": 6680,
      "Consider": 6681,
      "long": 6682,
      "yr": 6683,
      "Ġlights": 6684,
      "amin": 6685,
      "ĠCast": 6686,
      "ĠMain": 6687,
      "ĠMass": 6688,
      "ĠPenn": 6689,
      "ĠBi": 6690,
      "ĠThus": 6691,
      "ints": 6692,
      "oven": 6693,
      "Ġprison": 6694,
      "azine": 6695,
      "Ġmulti": 6696,
      "Ġbasis": 6697,
      "Ġrecommended": 6698,
      "Ġrecognition": 6699,
      "EM": 6700,
      "trans": 6701,
      "Ġwarn": 6702,
      "Ġbag": 6703,
      "Ġproced": 6704,
      "ĠHam": 6705,
      "abin": 6706,
      "ĠLily": 6707,
      "ĠExt": 6708,
      "ella": 6709,
      "Ġrefers": 6710,
      "Ġgrass": 6711,
      "poses": 6712,
      "Ġdivis": 6713,
      "Ġdestroy": 6714,
      "ternatively": 6715,
      "Ġcopy": 6716,
      "Ġqueue": 6717,
      "Ġcorresponding": 6718,
      "Col": 6719,
      "fess": 6720,
      "Ġ_": 6721,
      "ittle": 6722,
      "Ġcomposer": 6723,
      "Ġmeals": 6724,
      "Ġresistance": 6725,
      "ĠKn": 6726,
      "Ġthank": 6727,
      "Ġmedicine": 6728,
      "awa": 6729,
      "Ġartificial": 6730,
      "Ġgreatest": 6731,
      "Ġends": 6732,
      "Ġmonitoring": 6733,
      "Ġgrateful": 6734,
      "Ġprinting": 6735,
      "ĠInstagram": 6736,
      "Ġmixed": 6737,
      "Ġspeaker": 6738,
      "ĠElizabeth": 6739,
      "++": 6740,
      "telling": 6741,
      "Ġ%": 6742,
      "Ġcovers": 6743,
      "stract": 6744,
      "chain": 6745,
      "Ġvent": 6746,
      "ĠThrough": 6747,
      "Ġnoticed": 6748,
      "ructions": 6749,
      "Ġextrem": 6750,
      "Ġlogical": 6751,
      "Ġinternet": 6752,
      "Ġdistributed": 6753,
      "Ġannual": 6754,
      "Ġconducted": 6755,
      "Ġdreams": 6756,
      "Sport": 6757,
      "va": 6758,
      "ora": 6759,
      "Ġwave": 6760,
      "Ġvia": 6761,
      "Ġfeat": 6762,
      "Ġconscious": 6763,
      "Ġproducer": 6764,
      "Ġminute": 6765,
      "Ġ'[]": 6766,
      "Ġvector": 6767,
      "Ġcraft": 6768,
      "Ġmotivations": 6769,
      "Ġclaims": 6770,
      "Ġrecipes": 6771,
      "Ġ'[]'.": 6772,
      "();": 6773,
      "press": 6774,
      "Ġid": 6775,
      "ĠBoth": 6776,
      "Ġvo": 6777,
      "Ġrou": 6778,
      "Ġabuse": 6779,
      "Ġmusician": 6780,
      "income": 6781,
      "Ġoccup": 6782,
      "riday": 6783,
      "Ġcontainer": 6784,
      "Ġwalked": 6785,
      "Ġguidelines": 6786,
      "Ġempathy": 6787,
      "Ġcandidate": 6788,
      "Man": 6789,
      "UT": 6790,
      "sl": 6791,
      "Ġsight": 6792,
      "Ġnarrow": 6793,
      "ĠDutch": 6794,
      "ĠLear": 6795,
      "ĠInf": 6796,
      "Ġremoved": 6797,
      "Ġparallel": 6798,
      "Ġbasket": 6799,
      "Ġselected": 6800,
      "ĠDevelopment": 6801,
      "Ġmagnetic": 6802,
      "ĠSpring": 6803,
      "Ġrely": 6804,
      "Ġlies": 6805,
      "Ġstd": 6806,
      "âĢĺ": 6807,
      "asters": 6808,
      "Ġoutdoor": 6809,
      "Ġraised": 6810,
      "Ġcombine": 6811,
      "Ġcapabilities": 6812,
      "Ġcleaning": 6813,
      "Ġinstallation": 6814,
      "Ġcategories": 6815,
      "Ġcoefficients": 6816,
      "CH": 6817,
      "}]</": 6818,
      "ĠIN": 6819,
      "ĠIT": 6820,
      "Ġaddiction": 6821,
      "urns": 6822,
      "Ġsupported": 6823,
      "speople": 6824,
      "Ġimagery": 6825,
      "itches": 6826,
      "itutions": 6827,
      "Ġfine": 6828,
      "Ġmarg": 6829,
      "ĠDisc": 6830,
      "Ġdisrupt": 6831,
      "Ġended": 6832,
      "Ġbreaking": 6833,
      "Ġcalm": 6834,
      "Ġgained": 6835,
      "Ġdetective": 6836,
      "Ġtalent": 6837,
      "bb": 6838,
      "ga": 6839,
      "Åį": 6840,
      "items": 6841,
      "isters": 6842,
      "aylor": 6843,
      "estic": 6844,
      "oking": 6845,
      "Ġjoint": 6846,
      "ĠInte": 6847,
      "Ġcrew": 6848,
      "Ġsubtle": 6849,
      "Ġturns": 6850,
      "Ġrecorded": 6851,
      "Ġgirls": 6852,
      "Ġsizes": 6853,
      "oma": 6854,
      "ĠArab": 6855,
      "ĠCSS": 6856,
      "Ġalcohol": 6857,
      "Ġconv": 6858,
      "Ġvoc": 6859,
      "ppers": 6860,
      "ĠLake": 6861,
      "Ġshall": 6862,
      "duction": 6863,
      "Ġgrav": 6864,
      "Ġoccurs": 6865,
      "Ġcontributions": 6866,
      "Ġstaying": 6867,
      "Ġcompetitive": 6868,
      "Ġpictures": 6869,
      "ĠMusic": 6870,
      "Don": 6871,
      "Tra": 6872,
      "UN": 6873,
      "ras": 6874,
      "Ġlose": 6875,
      "Ġlux": 6876,
      "Ġiter": 6877,
      "achel": 6878,
      "endar": 6879,
      "Ġrational": 6880,
      "Ġkid": 6881,
      "Ġcooper": 6882,
      "icted": 6883,
      "Ġflight": 6884,
      "Ġexplicit": 6885,
      "Ġreduction": 6886,
      "Ġpossibilities": 6887,
      "Ġidentified": 6888,
      "Ġinspiration": 6889,
      "Ġdestination": 6890,
      "Ġheavily": 6891,
      "ĠSecret": 6892,
      "Ġsorted": 6893,
      "Ġteaspoon": 6894,
      "^(": 6895,
      "ĠTry": 6896,
      "iders": 6897,
      "ĠCH": 6898,
      "about": 6899,
      "izz": 6900,
      "ĠOl": 6901,
      "Ġcommunic": 6902,
      "Ġenvironments": 6903,
      "Ġprotection": 6904,
      "Ġcapable": 6905,
      "ĠColl": 6906,
      "Ġfrust": 6907,
      "Ġupdate": 6908,
      "Ġreasoning": 6909,
      "Ġpercentage": 6910,
      "Ġhypothesis": 6911,
      "Ġincredible": 6912,
      "><|": 6913,
      "flo": 6914,
      "fection": 6915,
      "ĠJul": 6916,
      "weight": 6917,
      "ĠClass": 6918,
      "Ġbreaks": 6919,
      "ĠEnsure": 6920,
      "Ġintroduce": 6921,
      "Ġinspire": 6922,
      "Ġterrit": 6923,
      "Despite": 6924,
      "ĠCongress": 6925,
      "Form": 6926,
      "pi": 6927,
      "range": 6928,
      "Ġcub": 6929,
      "Ġbrow": 6930,
      "Ġthorough": 6931,
      "owered": 6932,
      "ĠAri": 6933,
      "adox": 6934,
      "Ġproport": 6935,
      "ĠBu": 6936,
      "Ġvisiting": 6937,
      "Ġinvesting": 6938,
      "Ġbiggest": 6939,
      "ĠRepresent": 6940,
      "Ġaims": 6941,
      "Ġhighlighting": 6942,
      "ĠDepartment": 6943,
      "Ġgentle": 6944,
      "Use": 6945,
      "Ultimately": 6946,
      "Ġtap": 6947,
      "Ġtropical": 6948,
      "Ġbaby": 6949,
      "irc": 6950,
      "ĠFound": 6951,
      "active": 6952,
      "ĠClub": 6953,
      "While": 6954,
      "Ġmenu": 6955,
      "Ġhotel": 6956,
      "Ġcontemporary": 6957,
      "Ġsucceed": 6958,
      "cal": 6959,
      "Ġsites": 6960,
      "ĠTour": 6961,
      "ĠTokyo": 6962,
      "ĠLove": 6963,
      "Ġmeets": 6964,
      "Ġfinish": 6965,
      "Ġmachines": 6966,
      "mitted": 6967,
      "Ġperspectives": 6968,
      "Ġmanufacturing": 6969,
      ".'": 6970,
      "dem": 6971,
      "disc": 6972,
      "Ġbact": 6973,
      "arc": 6974,
      "Ġda": 6975,
      "Ġstood": 6976,
      "ĠBet": 6977,
      "Ġnearly": 6978,
      "Ġsyn": 6979,
      "obe": 6980,
      "Ġintended": 6981,
      "Ġcenturies": 6982,
      "azon": 6983,
      "Ġpursu": 6984,
      "Ġcorrectly": 6985,
      "Ġbands": 6986,
      "Ġjudge": 6987,
      "Ġflexible": 6988,
      "sembly": 6989,
      "dy": 6990,
      "sin": 6991,
      "Ġreward": 6992,
      "Ġnation": 6993,
      "Ġstreets": 6994,
      "Ġbeat": 6995,
      "ĠMa": 6996,
      "ĠHill": 6997,
      "Ġnotable": 6998,
      "Ġfunctional": 6999,
      "Ġparticles": 7000,
      "Ġtrend": 7001,
      "Ġcooked": 7002,
      "ĠMaria": 7003,
      "Ġmotivated": 7004,
      "Ġsurrounded": 7005,
      "Ġcategory": 7006,
      "bro": 7007,
      "da": 7008,
      "Ġluck": 7009,
      "ĠMer": 7010,
      "iest": 7011,
      "ĠAnn": 7012,
      "ĠLee": 7013,
      "Ġmarkets": 7014,
      "Ġaddressing": 7015,
      "ĠBlue": 7016,
      "Ġfrequently": 7017,
      "Ġfruits": 7018,
      "Ġhonor": 7019,
      "Ġsession": 7020,
      "ĠPrize": 7021,
      "Ġinfinite": 7022,
      "ĠCourt": 7023,
      "lers": 7024,
      "Ġretain": 7025,
      "uty": 7026,
      "ĠCons": 7027,
      "ĠProm": 7028,
      "ĠBudd": 7029,
      "ĠWomen": 7030,
      "Ġarrest": 7031,
      "Ġmatches": 7032,
      "Ġpurposes": 7033,
      "Ġholding": 7034,
      "Ġmajority": 7035,
      "Ġconstantly": 7036,
      "reprene": 7037,
      "ĠCOVID": 7038,
      "Brit": 7039,
      "RI": 7040,
      "body": 7041,
      "gon": 7042,
      "ygen": 7043,
      "eries": 7044,
      "Ġthus": 7045,
      "Ġthrow": 7046,
      "stances": 7047,
      "ĠPot": 7048,
      "Ġride": 7049,
      "Ġteen": 7050,
      "uals": 7051,
      "Ġappoint": 7052,
      "Ġexpenses": 7053,
      "Ġevening": 7054,
      "Ġdefault": 7055,
      "Ġsupplies": 7056,
      "Ġlaun": 7057,
      "ĠDefault": 7058,
      "Sim": 7059,
      "Ġmill": 7060,
      "Ġhoney": 7061,
      "Ġglow": 7062,
      "ĠGames": 7063,
      "Ġfacilities": 7064,
      "Ġcookies": 7065,
      "Ġbrands": 7066,
      "Ġtowns": 7067,
      "Ġpersu": 7068,
      "Ġcontaining": 7069,
      "ĠInstitute": 7070,
      "ttps": 7071,
      "ĠTwitter": 7072,
      "Ġmunicipality": 7073,
      "Ġnuanced": 7074,
      "Ġschedul": 7075,
      "AG": 7076,
      "During": 7077,
      "More": 7078,
      "atoes": 7079,
      "usions": 7080,
      "Ġstable": 7081,
      "ifferent": 7082,
      "Ġalt": 7083,
      "ĠHT": 7084,
      "ĠFree": 7085,
      "ĠOpen": 7086,
      "phone": 7087,
      "ova": 7088,
      "Ġplanned": 7089,
      "Ġpasseng": 7090,
      "Ġbeneficial": 7091,
      "Ġbreathing": 7092,
      "Ġdefinition": 7093,
      "Ġsplit": 7094,
      "Ġcomparison": 7095,
      "ĠOhio": 7096,
      "ĠScotland": 7097,
      "QL": 7098,
      "gn": 7099,
      "wed": 7100,
      "Ġcake": 7101,
      "Ġcensus": 7102,
      "Ġfo": 7103,
      "Ġfly": 7104,
      "Ġhuge": 7105,
      "ĠAN": 7106,
      "ĠCook": 7107,
      "ĠMario": 7108,
      "ĠPict": 7109,
      "Ġherbs": 7110,
      "ĠViet": 7111,
      "Ġinsurance": 7112,
      "Ġdeeply": 7113,
      "ĠÂ·": 7114,
      "Ġathlet": 7115,
      "Ġachieving": 7116,
      "ĠIrish": 7117,
      "wa": 7118,
      "Ġdomin": 7119,
      "stack": 7120,
      "Ġnorthern": 7121,
      "Ġantic": 7122,
      "ĠPower": 7123,
      "Ġmoves": 7124,
      "ĠLong": 7125,
      "osa": 7126,
      "oses": 7127,
      "Ġregards": 7128,
      "Ġexcite": 7129,
      "Ġlawyer": 7130,
      "Ġsymbols": 7131,
      "Ġpollution": 7132,
      "Ġsummarize": 7133,
      "cell": 7134,
      "Ġsour": 7135,
      "ili": 7136,
      "Ġbeans": 7137,
      "Ġconsole": 7138,
      "ĠFer": 7139,
      "Ġneut": 7140,
      "Ġshopping": 7141,
      "Ġknowing": 7142,
      "they": 7143,
      "Ġsitting": 7144,
      "Ġconsistency": 7145,
      "Ġcounsel": 7146,
      "Ġfighting": 7147,
      "Ġdinner": 7148,
      "Ġkitchen": 7149,
      "max": 7150,
      "pop": 7151,
      "Ġbold": 7152,
      "storm": 7153,
      "stood": 7154,
      "ĠTer": 7155,
      "olving": 7156,
      "ĠSqu": 7157,
      "../": 7158,
      "ĠLu": 7159,
      "Ġlemon": 7160,
      "Ġtherefore": 7161,
      "Ġseeing": 7162,
      "Ġsurf": 7163,
      "Ġcalculated": 7164,
      "Ġremained": 7165,
      "Once": 7166,
      "Ġtherapist": 7167,
      "Ġadoption": 7168,
      "Data": 7169,
      "kin": 7170,
      "reens": 7171,
      "also": 7172,
      "edia": 7173,
      "Ġharsh": 7174,
      "Ġstim": 7175,
      "atever": 7176,
      "umin": 7177,
      "Ġchips": 7178,
      "Ġquarter": 7179,
      "ĠWeb": 7180,
      "Ġgenerations": 7181,
      "Ġtargeted": 7182,
      "Ġdocuments": 7183,
      "Ġopposite": 7184,
      "ĠJoseph": 7185,
      "Sub": 7186,
      "gian": 7187,
      "kay": 7188,
      "hem": 7189,
      "erie": 7190,
      "style": 7191,
      "ĠElect": 7192,
      "Ġenem": 7193,
      "Ġabandon": 7194,
      "Ġincl": 7195,
      "Ġspending": 7196,
      "ternoon": 7197,
      "ologists": 7198,
      "Ġworldwide": 7199,
      "Ġguests": 7200,
      "Ġcenters": 7201,
      "aze": 7202,
      "Ġlegend": 7203,
      "Ġauthority": 7204,
      "ĠMarketing": 7205,
      "ĠGeorgia": 7206,
      "driven": 7207,
      "bi": 7208,
      "find": 7209,
      "inent": 7210,
      "Ġhockey": 7211,
      "Ġlon": 7212,
      "Ġlic": 7213,
      "Ġgrown": 7214,
      "Ġvital": 7215,
      "Ġweap": 7216,
      "ĠFriday": 7217,
      "Ġdispl": 7218,
      "Ġexpansion": 7219,
      "Ġillness": 7220,
      "Ġconsumers": 7221,
      "Ġindependence": 7222,
      "Ġcontinuous": 7223,
      "Ġrepeat": 7224,
      "ĠSenate": 7225,
      "Ġcamera": 7226,
      "ME": 7227,
      "car": 7228,
      "gredients": 7229,
      "uit": 7230,
      "vant": 7231,
      "Ġfoss": 7232,
      "Ġmoral": 7233,
      "asive": 7234,
      "Ġhat": 7235,
      "ĠMix": 7236,
      "Ġ(\"": 7237,
      "kend": 7238,
      "acific": 7239,
      "aki": 7240,
      "Ġarmy": 7241,
      "Ġcurve": 7242,
      "Ġintegral": 7243,
      "Ġprofessor": 7244,
      "Ġforever": 7245,
      "Ġspecialized": 7246,
      "Ġsilver": 7247,
      "ĠValley": 7248,
      "Ġmemorable": 7249,
      "LE": 7250,
      "hether": 7251,
      "itative": 7252,
      "story": 7253,
      "ĠTre": 7254,
      "ĠCreat": 7255,
      "ĠPost": 7256,
      "ĠLim": 7257,
      "ĠLord": 7258,
      "ĠFour": 7259,
      "Ġseasons": 7260,
      "Ġworry": 7261,
      "Ġexpressed": 7262,
      "Ġexpressions": 7263,
      "Ġgeometry": 7264,
      "Ġepisode": 7265,
      "itzerland": 7266,
      "uate": 7267,
      "vision": 7268,
      "ĠDar": 7269,
      "aka": 7270,
      "ĠâĢ¢": 7271,
      "Ġtraditions": 7272,
      "Ġstrings": 7273,
      "Ġensures": 7274,
      "swer": 7275,
      "ĠBritain": 7276,
      "Ġnecessarily": 7277,
      "Ġofficer": 7278,
      "Ġcommitted": 7279,
      "ĠJackson": 7280,
      "Ġprecise": 7281,
      "||||||||": 7282,
      "Ġmechanisms": 7283,
      "ĠTHE": 7284,
      "Ġgrammar": 7285,
      "Ġfurniture": 7286,
      "Ġexcitement": 7287,
      "MA": 7288,
      "Out": 7289,
      "she": 7290,
      "ester": 7291,
      "uma": 7292,
      "ĠKansas": 7293,
      "Ġpeak": 7294,
      "Ġguarant": 7295,
      "Ġexamine": 7296,
      "Ġtelling": 7297,
      "Ġinfluencers": 7298,
      "ĠColumb": 7299,
      "Ġsensitive": 7300,
      "Ġrecognized": 7301,
      "ĠIII": 7302,
      "Ġminimize": 7303,
      "Ġcollected": 7304,
      "Ġimagine": 7305,
      "natural": 7306,
      "Ġaid": 7307,
      "rip": 7308,
      "Ġweigh": 7309,
      "ĠLand": 7310,
      "Ġotherwise": 7311,
      "Ġexpon": 7312,
      "Ġrefine": 7313,
      "Ġbene": 7314,
      "Ġlesson": 7315,
      "Ġreferred": 7316,
      "ĠOlympics": 7317,
      "Ġdomain": 7318,
      "Ġrhyth": 7319,
      "havior": 7320,
      "BA": 7321,
      "isl": 7322,
      "Ġease": 7323,
      "ĠWed": 7324,
      "ĠFigure": 7325,
      "ĠThink": 7326,
      "Ġformation": 7327,
      "their": 7328,
      "ĠEmperor": 7329,
      "Ġinvestig": 7330,
      "umbled": 7331,
      "building": 7332,
      "Ġadministr": 7333,
      "ker": 7334,
      "aria": 7335,
      "ulating": 7336,
      "Ġexists": 7337,
      "ĠLike": 7338,
      "ĠLatin": 7339,
      "ĠRh": 7340,
      "Ġrig": 7341,
      "Ġshoes": 7342,
      "Ġheritage": 7343,
      "weet": 7344,
      "Ġretired": 7345,
      "ĠSociety": 7346,
      "Ġchoosing": 7347,
      "iking": 7348,
      "Ġmeetings": 7349,
      "Ġchecks": 7350,
      "Ġgenre": 7351,
      "ĠPrince": 7352,
      "urable": 7353,
      "Ġsteel": 7354,
      "Ġassumptions": 7355,
      "ĠOlympic": 7356,
      "Ġmitigate": 7357,
      "Ġhabits": 7358,
      "Cal": 7359,
      "Furthermore": 7360,
      "lock": 7361,
      "table": 7362,
      "ê¯": 7363,
      "inem": 7364,
      "Ġpizza": 7365,
      "Ġrewards": 7366,
      "amics": 7367,
      "lder": 7368,
      "Ġchair": 7369,
      "emic": 7370,
      "formance": 7371,
      "Ġsport": 7372,
      "Ġvariations": 7373,
      "Ġmode": 7374,
      "ĠDev": 7375,
      "Through": 7376,
      "process": 7377,
      "Ġbaseball": 7378,
      "Ġpackage": 7379,
      "Ġwildlife": 7380,
      "Ġinjury": 7381,
      "ĠService": 7382,
      "IG": 7383,
      "gs": 7384,
      "run": 7385,
      "init": 7386,
      "Ġcart": 7387,
      "ĠTop": 7388,
      "ĠTrue": 7389,
      "ĠST": 7390,
      "ĠAD": 7391,
      "abel": 7392,
      "estion": 7393,
      "ĠDig": 7394,
      "ĠRad": 7395,
      "Ġarts": 7396,
      "Ġoutl": 7397,
      "Ġcrim": 7398,
      "Ġteachers": 7399,
      "Ġsliced": 7400,
      "ĠIdentify": 7401,
      "jo": 7402,
      "main": 7403,
      "Ġfell": 7404,
      "roke": 7405,
      "ĠAwards": 7406,
      "ĠBrown": 7407,
      "ĠDNA": 7408,
      "Ġring": 7409,
      "Ġupper": 7410,
      "Ġdiscipl": 7411,
      "Ġequival": 7412,
      "Ġpolitics": 7413,
      "ĠExplain": 7414,
      "Ġdiscussed": 7415,
      "Ġharder": 7416,
      "Ġstrategic": 7417,
      "},{\"": 7418,
      "Ġslices": 7419,
      "Ġrelatable": 7420,
      "Sportspeople": 7421,
      "dim": 7422,
      "front": 7423,
      "hire": 7424,
      "Ġsale": 7425,
      "itz": 7426,
      "icide": 7427,
      "ĠMah": 7428,
      "ĠJac": 7429,
      "Ġrecyc": 7430,
      "Ġinformative": 7431,
      "scale": 7432,
      "Ġturning": 7433,
      "Ġyounger": 7434,
      "rogen": 7435,
      "Ġinitially": 7436,
      "Ġhonest": 7437,
      "Ġillustrate": 7438,
      "Ġisolation": 7439,
      "\"]}}},{\"": 7440,
      "ĠPractice": 7441,
      "Ne": 7442,
      "SON": 7443,
      "iations": 7444,
      "rd": 7445,
      "yon": 7446,
      "Ġ__": 7447,
      "onut": 7448,
      "ĠCard": 7449,
      "Ġleague": 7450,
      "serve": 7451,
      "Ġracing": 7452,
      "inked": 7453,
      "Ġsigned": 7454,
      "blem": 7455,
      "Ġimpacted": 7456,
      "Ġdriven": 7457,
      "Ġexperiencing": 7458,
      "ĠExper": 7459,
      "Ġdigits": 7460,
      "Ġinstruction": 7461,
      "Ġbringing": 7462,
      "Ġencounter": 7463,
      "RL": 7464,
      "cest": 7465,
      "ye": 7466,
      "Ġbes": 7467,
      "aste": 7468,
      "Ġstations": 7469,
      "ĠHa": 7470,
      "mented": 7471,
      "Ġwearing": 7472,
      "ĠWal": 7473,
      "Ġsections": 7474,
      "Ġquery": 7475,
      "Ġnewsp": 7476,
      "ĠBeach": 7477,
      "Ġinvestigation": 7478,
      "Ġnegot": 7479,
      "Ġmarriage": 7480,
      "Ġreflects": 7481,
      "Ġmassive": 7482,
      "Ġvulnerable": 7483,
      "Ġjewel": 7484,
      "Figure": 7485,
      "Ġwal": 7486,
      "Ġfiber": 7487,
      "Ġmir": 7488,
      "Ġmouth": 7489,
      "Ġdess": 7490,
      "ownt": 7491,
      "antha": 7492,
      "ĠLog": 7493,
      "Ġkill": 7494,
      "ĠNob": 7495,
      "Ġoverview": 7496,
      "Ġsupports": 7497,
      "Ġrealistic": 7498,
      "Ġestimate": 7499,
      "Ġintegrate": 7500,
      "Ġelected": 7501,
      "Ġdescribes": 7502,
      "Ġkinds": 7503,
      "ĠHarry": 7504,
      "Ġera": 7505,
      "ĠRoad": 7506,
      "Ġchannel": 7507,
      "Ġviolence": 7508,
      "Ġabsor": 7509,
      "Ġoxygen": 7510,
      "Ġpursue": 7511,
      "worth": 7512,
      "Ġprove": 7513,
      "Ġhesit": 7514,
      "anda": 7515,
      "Ġpool": 7516,
      "tense": 7517,
      "Ġintu": 7518,
      "plete": 7519,
      "Ġoriginally": 7520,
      "Ġsnack": 7521,
      "ĠAmazon": 7522,
      "Ġoccurred": 7523,
      "Ġhoriz": 7524,
      "Ġrows": 7525,
      "ĠGovernor": 7526,
      "Ġfixed": 7527,
      "ĠTechnology": 7528,
      "vania": 7529,
      "Ġdollars": 7530,
      "Ġexclusive": 7531,
      "foot": 7532,
      "kes": 7533,
      "such": 7534,
      "Ġpip": 7535,
      "Ġpump": 7536,
      "Ġfederal": 7537,
      "Ġlosing": 7538,
      "ĠCr": 7539,
      "ĠHi": 7540,
      "ĠBack": 7541,
      "ĠJr": 7542,
      "ĠWhich": 7543,
      "Ġpasta": 7544,
      "Ġbreakfast": 7545,
      "Ġnuts": 7546,
      "ĠSwitzerland": 7547,
      "Ġagreement": 7548,
      "Ġquantum": 7549,
      "Ġoverwhelming": 7550,
      "Ġcrops": 7551,
      "ĠVirginia": 7552,
      "Ġanticip": 7553,
      "!<|": 7554,
      "File": 7555,
      "MS": 7556,
      "Me": 7557,
      "Over": 7558,
      "fol": 7559,
      "Ġtut": 7560,
      "alo": 7561,
      "Ġreference": 7562,
      "elly": 7563,
      "ĠCarl": 7564,
      "Ġprop": 7565,
      "Ġdealing": 7566,
      "ĠFocus": 7567,
      "Ġunable": 7568,
      "merce": 7569,
      "Ġknows": 7570,
      "Ġarticles": 7571,
      "Ġintegrated": 7572,
      "Ġresponsibilities": 7573,
      "Ġpartnerships": 7574,
      "Ġcharts": 7575,
      "integer": 7576,
      "Ġinterpretation": 7577,
      "Ġenabling": 7578,
      "Ġreputation": 7579,
      "ih": 7580,
      "jection": 7581,
      "pack": 7582,
      "ua": 7583,
      "inals": 7584,
      "Ġpit": 7585,
      "Ġreactions": 7586,
      "Ġorange": 7587,
      "ĠBank": 7588,
      "Ġadm": 7589,
      "Ġpret": 7590,
      "Ġkeys": 7591,
      "Ġremark": 7592,
      "inson": 7593,
      "Ġdriver": 7594,
      "Ġappeal": 7595,
      "Ġdetermination": 7596,
      "Ġcollaborate": 7597,
      "Ġfailed": 7598,
      "ĠAtlantic": 7599,
      "Ġmurder": 7600,
      "Ġfigures": 7601,
      "((": 7602,
      "BS": 7603,
      "bre": 7604,
      "language": 7605,
      "heast": 7606,
      "lets": 7607,
      "Ġnerv": 7608,
      "ĠSometimes": 7609,
      "ulf": 7610,
      "Ġ(-": 7611,
      "mental": 7612,
      "ums": 7613,
      "Ġdisorder": 7614,
      "ampion": 7615,
      "Ġinterval": 7616,
      "Ġowner": 7617,
      "Ġmainly": 7618,
      "Ġentry": 7619,
      "Ġstorytelling": 7620,
      "values": 7621,
      "Ġexplores": 7622,
      "Ġdiscussing": 7623,
      "ĠManagement": 7624,
      "Ġenjoyed": 7625,
      "Ġtemperatures": 7626,
      "Ġproposal": 7627,
      "Ġafternoon": 7628,
      "Ġacknowled": 7629,
      "Ab": 7630,
      "Name": 7631,
      "lvania": 7632,
      "mes": 7633,
      "paren": 7634,
      "Ġtough": 7635,
      "Ġpull": 7636,
      "Ġstopped": 7637,
      "ĠMiddle": 7638,
      "ĠLine": 7639,
      "Ġenables": 7640,
      "roud": 7641,
      "Ġspring": 7642,
      "ermine": 7643,
      "athan": 7644,
      "Reg": 7645,
      "ĠAsk": 7646,
      "Ġindustrial": 7647,
      "Ġlimits": 7648,
      "Ġorigin": 7649,
      "Ġdrinks": 7650,
      "Ġconcerned": 7651,
      "Ġscenes": 7652,
      "Ġtimeline": 7653,
      "Politicians": 7654,
      "Not": 7655,
      "Spe": 7656,
      "])": 7657,
      "group": 7658,
      "pass": 7659,
      "anes": 7660,
      "agers": 7661,
      "ĠEss": 7662,
      "Ġrural": 7663,
      "Ġscored": 7664,
      "Ġcalling": 7665,
      "Ġsmallest": 7666,
      "Ġediting": 7667,
      "profit": 7668,
      "rapy": 7669,
      "ĠColor": 7670,
      "Ġconversion": 7671,
      "Ġstrengthen": 7672,
      "ĠUSA": 7673,
      "Ġspeakers": 7674,
      "Ġpackaging": 7675,
      "Ġinjuries": 7676,
      "Ġadvantages": 7677,
      "Ġdangerous": 7678,
      "ĠFrancisco": 7679,
      "Ġbasketball": 7680,
      "Ġlaunched": 7681,
      "Football": 7682,
      "Ġfle": 7683,
      "Ġmor": 7684,
      "Ġgender": 7685,
      "Ġstone": 7686,
      "ĠCivil": 7687,
      "ĠBow": 7688,
      "Ġhearing": 7689,
      "Ġ\"\"\"": 7690,
      "ĠGen": 7691,
      "asting": 7692,
      "Ġtrail": 7693,
      "luding": 7694,
      "Ġrecru": 7695,
      "Ġattractions": 7696,
      "valid": 7697,
      "sylvania": 7698,
      "Ġcriteria": 7699,
      "Ġlegs": 7700,
      "Ġgenetic": 7701,
      "Ġguided": 7702,
      "zzle": 7703,
      "Ġrepeated": 7704,
      "Ġsandw": 7705,
      "Instructions": 7706,
      "Ġuncertainty": 7707,
      "Ġliquid": 7708,
      "war": 7709,
      "Ġintense": 7710,
      "child": 7711,
      "Ġstored": 7712,
      "lyn": 7713,
      "ĠRam": 7714,
      "Ġrough": 7715,
      "ĠOs": 7716,
      "Ġdisappe": 7717,
      "ucl": 7718,
      "Ġentered": 7719,
      "Ġpracticing": 7720,
      "Ġcalendar": 7721,
      "ĠAustria": 7722,
      "ĠSeries": 7723,
      "inois": 7724,
      "ersey": 7725,
      "Ġefficiently": 7726,
      "Ġfarming": 7727,
      "LS": 7728,
      "Per": 7729,
      "uels": 7730,
      "vable": 7731,
      "Ġmal": 7732,
      "Ġmath": 7733,
      "ĠTO": 7734,
      "ĠCD": 7735,
      "sect": 7736,
      "abil": 7737,
      "Ġshock": 7738,
      "osaur": 7739,
      "ĠJoe": 7740,
      "never": 7741,
      "iana": 7742,
      "Ġspices": 7743,
      "ĠChief": 7744,
      "Ġfunctionality": 7745,
      "Ġflag": 7746,
      "Ġpopulations": 7747,
      "Ġfewer": 7748,
      "Ġboost": 7749,
      "ĠEmma": 7750,
      "ĠAmericans": 7751,
      "Ġminimal": 7752,
      "Ġearned": 7753,
      "ĠIntroduction": 7754,
      "nesday": 7755,
      "ĠMartin": 7756,
      "British": 7757,
      "Ġexponential": 7758,
      "\");": 7759,
      "gments": 7760,
      "Ġcash": 7761,
      "Ġwrap": 7762,
      "itu": 7763,
      "Ġpil": 7764,
      "ĠTem": 7765,
      "imp": 7766,
      "ĠMot": 7767,
      "Ġmoon": 7768,
      "abul": 7769,
      "Ġsharp": 7770,
      "ĠJones": 7771,
      "ĠAny": 7772,
      "Ġaudio": 7773,
      "Ġhappiness": 7774,
      "Ġbroken": 7775,
      "Ġdried": 7776,
      "Ġdrawing": 7777,
      "Ġtourism": 7778,
      "Ġrobots": 7779,
      "Ġentirely": 7780,
      "Ġexecutive": 7781,
      "Ġindicating": 7782,
      "rosoft": 7783,
      "Ġhorror": 7784,
      "Ġassessment": 7785,
      "Ġarrived": 7786,
      "Ġuniversities": 7787,
      "ĠDivision": 7788,
      "Ġworkshops": 7789,
      "Ġfeaturing": 7790,
      "TH": 7791,
      "rating": 7792,
      "orous": 7793,
      "Ġbonds": 7794,
      "verty": 7795,
      "ĠHome": 7796,
      "Ġpoverty": 7797,
      "Ġspect": 7798,
      "Ġscope": 7799,
      "Ġshell": 7800,
      "Ġpotatoes": 7801,
      "Ġimprovements": 7802,
      "Ġwinner": 7803,
      "Ġwinners": 7804,
      "minute": 7805,
      "ï¬ģc": 7806,
      "Ġuncover": 7807,
      "ĠApple": 7808,
      "Ġexhibit": 7809,
      "ĠNetwork": 7810,
      "Ġinhabitants": 7811,
      "IV": 7812,
      "di": 7813,
      "epend": 7814,
      "ship": 7815,
      "Ġpounds": 7816,
      "Ġfre": 7817,
      "Ġdust": 7818,
      "ĠSir": 7819,
      "ĠHaw": 7820,
      "ĠFire": 7821,
      "Ġads": 7822,
      "Ġimpossible": 7823,
      "Ġoutline": 7824,
      "Ġdisaster": 7825,
      "Ġscent": 7826,
      "Ġperce": 7827,
      "coln": 7828,
      "Ġmedal": 7829,
      "Ġgreatly": 7830,
      "lessly": 7831,
      "Ġelectronic": 7832,
      "ĠEnjoy": 7833,
      "Ġperiods": 7834,
      "Ġcraf": 7835,
      "Ġprimarily": 7836,
      "\"}}},": 7837,
      "Ġrobust": 7838,
      "Ġsubstance": 7839,
      "Ġdecrease": 7840,
      "Ġencountered": 7841,
      "ĠPennsylvania": 7842,
      "Am": 7843,
      "Int": 7844,
      "Please": 7845,
      "Time": 7846,
      "iable": 7847,
      "heim": 7848,
      "andy": 7849,
      "Ġabstract": 7850,
      "aped": 7851,
      "ictional": 7852,
      "Ġsolving": 7853,
      "Ġentreprene": 7854,
      "Ġconversations": 7855,
      "Ġpriority": 7856,
      "ederation": 7857,
      "Ġrelaxation": 7858,
      "Ã³n": 7859,
      "ĠSweden": 7860,
      "Ġwish": 7861,
      "riers": 7862,
      "Ġmoist": 7863,
      "Ġwhom": 7864,
      "Ġrust": 7865,
      "ĠJean": 7866,
      "achine": 7867,
      "ĠStan": 7868,
      "oston": 7869,
      "uesday": 7870,
      "Ġsignals": 7871,
      "Ġblocks": 7872,
      "Ġbusy": 7873,
      "Ġeveryday": 7874,
      "ashi": 7875,
      "ĠNews": 7876,
      "Ġsurviv": 7877,
      "ENT": 7878,
      "Ġshaped": 7879,
      "Ġgraphics": 7880,
      "Ġtomato": 7881,
      "nected": 7882,
      "Ġtickets": 7883,
      "Ġestimated": 7884,
      "Ġextremely": 7885,
      "Ġdisplays": 7886,
      "Ġbeneath": 7887,
      "nic": 7888,
      "rase": 7889,
      "some": 7890,
      "Ġtunn": 7891,
      "Ġbill": 7892,
      "ĠHale": 7893,
      "thur": 7894,
      "ĠWall": 7895,
      "ĠFest": 7896,
      "ĠRen": 7897,
      "ĠRap": 7898,
      "Ġworkout": 7899,
      "Ġinstant": 7900,
      "Ġguard": 7901,
      "ĠAdv": 7902,
      "Ġcultiv": 7903,
      "Ġboss": 7904,
      "Ġcris": 7905,
      "Ġeleg": 7906,
      "Ġoldest": 7907,
      "ĠAtt": 7908,
      "Ġavoiding": 7909,
      "Ġfarmers": 7910,
      "Ġsavings": 7911,
      "parent": 7912,
      "Ġprospect": 7913,
      "ĠCarolina": 7914,
      "$$": 7915,
      "Using": 7916,
      "gcc": 7917,
      "hi": 7918,
      "high": 7919,
      "Ġtsp": 7920,
      "veys": 7921,
      "stal": 7922,
      "igan": 7923,
      "ĠSund": 7924,
      "Ġstated": 7925,
      "ĠMu": 7926,
      "ĠPan": 7927,
      "Ġvit": 7928,
      "ĠEnd": 7929,
      "ogy": 7930,
      "Ġdesert": 7931,
      "fecture": 7932,
      "Ġagreed": 7933,
      "Ġourselves": 7934,
      "ĠRead": 7935,
      "Ġconfir": 7936,
      "Ġessence": 7937,
      "Ġbird": 7938,
      "Ġmultip": 7939,
      "position": 7940,
      "Ġbrings": 7941,
      "ydney": 7942,
      "ĠCommunity": 7943,
      "ĠDuke": 7944,
      "Ġcircumstances": 7945,
      "ĠIllinois": 7946,
      "uous": 7947,
      "ĠPers": 7948,
      "ĠKnow": 7949,
      "Ġtrained": 7950,
      "Ġlisted": 7951,
      "ĠRevolution": 7952,
      "Thank": 7953,
      "Ġfocuses": 7954,
      "aborate": 7955,
      "Ġamounts": 7956,
      "Ġnavig": 7957,
      "Ġradius": 7958,
      "ĠChristmas": 7959,
      "Ġincentives": 7960,
      "Ġchatbot": 7961,
      "ĠEducation": 7962,
      "ja": 7963,
      "yan": 7964,
      "Ġ................................................................": 7965,
      "Ġfan": 7966,
      "Ġhttp": 7967,
      "Ġstraw": 7968,
      "ĠBattle": 7969,
      "apes": 7970,
      "Ġresc": 7971,
      "aven": 7972,
      "Ġcontrad": 7973,
      "ĠStory": 7974,
      "Ġoverl": 7975,
      "Ġ\\).": 7976,
      "Ġguest": 7977,
      "ĠEnc": 7978,
      "plicated": 7979,
      "Ġsquares": 7980,
      "Ġencourages": 7981,
      "Ġaccurately": 7982,
      "Ġpricing": 7983,
      "ĠCatalina": 7984,
      "dis": 7985,
      "ln": 7986,
      "md": 7987,
      "Ġ!": 7988,
      "Ġwider": 7989,
      "Ġproud": 7990,
      "Ġlie": 7991,
      "ĠToday": 7992,
      "amar": 7993,
      "ĠCap": 7994,
      "Ġwhis": 7995,
      "ĠOcean": 7996,
      "Ġresolution": 7997,
      "Ġthanks": 7998,
      "Ġskilled": 7999,
      "Ġcaf": 8000,
      "Ġfacts": 8001,
      "ĠAndrew": 8002,
      "Ġcrisp": 8003,
      "Ġgrid": 8004,
      "ennis": 8005,
      "Ġemerged": 8006,
      "Ġodd": 8007,
      "Ġthousands": 8008,
      "Ġsubtract": 8009,
      "/(": 8010,
      "EF": 8011,
      "draw": 8012,
      "onia": 8013,
      "Ġfans": 8014,
      "oli": 8015,
      "iger": 8016,
      "Ġalmond": 8017,
      "ĠWord": 8018,
      "ĠWood": 8019,
      "ĠUN": 8020,
      "orship": 8021,
      "Ġbutton": 8022,
      "ĠStat": 8023,
      "ĠPhys": 8024,
      "Ġdipl": 8025,
      "Ġachievements": 8026,
      "Ġcontributed": 8027,
      "Ġdarkness": 8028,
      "Ġofficials": 8029,
      "ĠDisney": 8030,
      "Ġinterviews": 8031,
      "aturday": 8032,
      "stein": 8033,
      "Hand": 8034,
      "Total": 8035,
      "lig": 8036,
      "rant": 8037,
      "Ð¾": 8038,
      "Ġovers": 8039,
      "itable": 8040,
      "Ġborder": 8041,
      "ĠSilla": 8042,
      "ĠCop": 8043,
      "ĠPoint": 8044,
      "ĠBad": 8045,
      "opt": 8046,
      "ieval": 8047,
      "Ġtech": 8048,
      "Ġjazz": 8049,
      "uality": 8050,
      "Ġpeppers": 8051,
      "Ġscal": 8052,
      "Ġacting": 8053,
      "archy": 8054,
      "hesis": 8055,
      "ĠArgent": 8056,
      "Ġlandmark": 8057,
      "check": 8058,
      "Ġengineer": 8059,
      "Ġbatter": 8060,
      "Ġrobot": 8061,
      "Ġattendees": 8062,
      "Ġfloat": 8063,
      "ĠAlexander": 8064,
      "ĠContin": 8065,
      "Ġboys": 8066,
      "Ġcontrolled": 8067,
      "ĠImplement": 8068,
      "Ġemergency": 8069,
      "Ġpodcast": 8070,
      "Note": 8071,
      "RA": 8072,
      "Ġtro": 8073,
      "ilant": 8074,
      "stone": 8075,
      "ellect": 8076,
      "aya": 8077,
      "ested": 8078,
      "ĠWrit": 8079,
      "redict": 8080,
      "Ġunus": 8081,
      "necess": 8082,
      "arer": 8083,
      "Ġapplying": 8084,
      "ensional": 8085,
      "onday": 8086,
      "puter": 8087,
      "Ġdelicate": 8088,
      "cules": 8089,
      "ĠExpl": 8090,
      "Ġheads": 8091,
      "while": 8092,
      "Ġtender": 8093,
      "Ġanti": 8094,
      "Ġmountains": 8095,
      "Ġmythology": 8096,
      "Ed": 8097,
      "Mod": 8098,
      "fall": 8099,
      "powered": 8100,
      "Ã±": 8101,
      "Ġsad": 8102,
      "Ġlen": 8103,
      "elle": 8104,
      "ami": 8105,
      "Ġsts": 8106,
      "ĠWay": 8107,
      "Ġneck": 8108,
      "ĠOld": 8109,
      "ormal": 8110,
      "ruption": 8111,
      "okes": 8112,
      "Ġconsists": 8113,
      "Ġinstitutions": 8114,
      "Ġpsychology": 8115,
      "Ġwatched": 8116,
      "ĠScottish": 8117,
      "Ġpoetry": 8118,
      "Ġjewelry": 8119,
      "Ġpretty": 8120,
      "BI": 8121,
      "Many": 8122,
      "pat": 8123,
      "rm": 8124,
      "arry": 8125,
      "roid": 8126,
      "Ġhun": 8127,
      "Ġeager": 8128,
      "start": 8129,
      "Ġnob": 8130,
      "ĠCur": 8131,
      "Ġrecon": 8132,
      "arios": 8133,
      "Ġsmile": 8134,
      "Ġsupportive": 8135,
      "Ġeditor": 8136,
      "Ġstands": 8137,
      "Ġvisualization": 8138,
      "Ġcutting": 8139,
      "solving": 8140,
      "ais": 8141,
      "mic": 8142,
      "zed": 8143,
      "erve": 8144,
      "Ġfold": 8145,
      "Ġnine": 8146,
      "Ġghost": 8147,
      "ĠMars": 8148,
      "Ġcha": 8149,
      "ĠDi": 8150,
      "Ġseats": 8151,
      "ially": 8152,
      "ustain": 8153,
      "ĠJud": 8154,
      "Ġje": 8155,
      "Ġclothes": 8156,
      "Ġdownload": 8157,
      "bered": 8158,
      "Ġinvolving": 8159,
      "()`": 8160,
      "Ġphoto": 8161,
      "Ġpriorities": 8162,
      "Ġadvancements": 8163,
      "ĠGovernment": 8164,
      "Ġdiscounts": 8165,
      "Ġwitness": 8166,
      "Ġpronouns": 8167,
      "Ġcrisis": 8168,
      "Cities": 8169,
      "Par": 8170,
      "http": 8171,
      "inates": 8172,
      "Ġsail": 8173,
      "Ġreform": 8174,
      "ĠSS": 8175,
      "Ġstability": 8176,
      "adian": 8177,
      "ĠPC": 8178,
      "ĠBang": 8179,
      "ocado": 8180,
      "ĠLew": 8181,
      "ĠFred": 8182,
      "ĠFootball": 8183,
      "ĠUk": 8184,
      "Ġimpressive": 8185,
      "Ġarise": 8186,
      "Ġspoken": 8187,
      "Ġsociet": 8188,
      "ĠForce": 8189,
      "Ġfinance": 8190,
      "Ġfootprint": 8191,
      "Ġgovernments": 8192,
      "Ġgenu": 8193,
      "Ġsurroundings": 8194,
      "Ġappreciation": 8195,
      "ĠSecond": 8196,
      "Ġgradually": 8197,
      "Ġdoubt": 8198,
      "Ġimplies": 8199,
      "specific": 8200,
      "Ġnervous": 8201,
      "jan": 8202,
      "night": 8203,
      "roat": 8204,
      "Ġhurt": 8205,
      "Ġlunch": 8206,
      "ĠAS": 8207,
      "ĠCut": 8208,
      "ĠRef": 8209,
      "ĠNorthern": 8210,
      "rup": 8211,
      "ulty": 8212,
      "Ġevil": 8213,
      "Ġscat": 8214,
      "ricts": 8215,
      "Ġrelief": 8216,
      "Ġguess": 8217,
      "iox": 8218,
      "ĠReview": 8219,
      "Ġextensive": 8220,
      "Ġaircraft": 8221,
      "Ġmagazine": 8222,
      "Ġvegetable": 8223,
      "Ġshelter": 8224,
      "ithmetic": 8225,
      "Ġbinomial": 8226,
      "Do": 8227,
      "arent": 8228,
      "alph": 8229,
      "Ġpray": 8230,
      "ĠCub": 8231,
      "uls": 8232,
      "teen": 8233,
      "ĠPacific": 8234,
      "ĠWales": 8235,
      "acon": 8236,
      "oda": 8237,
      "ĠRom": 8238,
      "Ġcomprom": 8239,
      "ĠURL": 8240,
      "iano": 8241,
      "jective": 8242,
      "Ġinterventions": 8243,
      "Ġintrig": 8244,
      "Ġcrust": 8245,
      "cribe": 8246,
      "Ġdetermin": 8247,
      "Ġtraveling": 8248,
      "fortun": 8249,
      "Example": 8250,
      "ĠWilliams": 8251,
      "ĠDemocratic": 8252,
      "Ġwedding": 8253,
      "CC": 8254,
      "Ġcater": 8255,
      "Ġbass": 8256,
      "etts": 8257,
      "ĠIP": 8258,
      "ĠSa": 8259,
      "ĠSydney": 8260,
      "Ġstadium": 8261,
      "ĠCall": 8262,
      "ĠBan": 8263,
      "abb": 8264,
      "Ġshares": 8265,
      "igned": 8266,
      "Ġspoke": 8267,
      "Ġcharity": 8268,
      "Ġendless": 8269,
      "ĠProduct": 8270,
      "Ġvend": 8271,
      "Ġlasting": 8272,
      "books": 8273,
      "Ġhistoric": 8274,
      "Ġaccordingly": 8275,
      "Ġdebate": 8276,
      "Ġvertical": 8277,
      "rations": 8278,
      "ĠÎ": 8279,
      "Ġurg": 8280,
      "Ġbath": 8281,
      "ĠTuesday": 8282,
      "ĠWars": 8283,
      "ĠLight": 8284,
      "Ġrub": 8285,
      "berry": 8286,
      "Ġtraits": 8287,
      "ĠStr": 8288,
      "ĠĠĠĠĠĠ": 8289,
      "inkle": 8290,
      "Ġsurg": 8291,
      "Ġcarried": 8292,
      "Ġpersist": 8293,
      "Ġengineers": 8294,
      "ĠIncre": 8295,
      "Ġweaknesses": 8296,
      "Ġorders": 8297,
      "abulary": 8298,
      "ĠFestival": 8299,
      "dam": 8300,
      "indu": 8301,
      "rer": 8302,
      "Ġsor": 8303,
      "Ġbags": 8304,
      "Ġdensity": 8305,
      "Ġhier": 8306,
      "enth": 8307,
      "ĠGive": 8308,
      "ĠGame": 8309,
      "ĠKat": 8310,
      "Ġunderstood": 8311,
      "Ġsmell": 8312,
      "Ġrequests": 8313,
      "Ġrestrict": 8314,
      "ĠOrder": 8315,
      "ĠInternet": 8316,
      "Ġtitles": 8317,
      "Ġsoldiers": 8318,
      "Ġprinciple": 8319,
      "Ġbroader": 8320,
      "Ġdogs": 8321,
      "Ġmuseums": 8322,
      "ĠDaniel": 8323,
      "Ġiconic": 8324,
      "():": 8325,
      "LL": 8326,
      "efficient": 8327,
      "hors": 8328,
      "sur": 8329,
      "itting": 8330,
      "Ġduration": 8331,
      "Ġnor": 8332,
      "ĠMid": 8333,
      "plot": 8334,
      "ĠJenn": 8335,
      "ĠInvest": 8336,
      "ĠKen": 8337,
      "Ġdesigners": 8338,
      "Ġchecking": 8339,
      "Ġoccasion": 8340,
      "ĠParliament": 8341,
      "Ġoptimal": 8342,
      "Ġcrack": 8343,
      "Ġscientist": 8344,
      "ĠProvince": 8345,
      "Ġemphasis": 8346,
      "Ġbottles": 8347,
      "Ġreligion": 8348,
      "ĠLincoln": 8349,
      "Ġroute": 8350,
      "Early": 8351,
      "oom": 8352,
      "och": 8353,
      "Ġtight": 8354,
      "incess": 8355,
      "Ġsouthern": 8356,
      "Ġhip": 8357,
      "ĠTri": 8358,
      "Ġstages": 8359,
      "ĠHy": 8360,
      "Ġwhatever": 8361,
      "ĠLittle": 8362,
      "ĠFamily": 8363,
      "Ġnoted": 8364,
      "Ġune": 8365,
      "Ġ$(": 8366,
      "Ġmush": 8367,
      "ussian": 8368,
      "Ġgenerating": 8369,
      "Ġconsideration": 8370,
      "Ġforecast": 8371,
      "Ġremainder": 8372,
      "Ġcertainly": 8373,
      "Ġofficers": 8374,
      "Ġfeatured": 8375,
      "ĠCoast": 8376,
      "Ġshaping": 8377,
      "Ġinventory": 8378,
      "Ġsuspense": 8379,
      "Ġsacr": 8380,
      "Ġtactics": 8381,
      "Ġfossil": 8382,
      "Build": 8383,
      "Che": 8384,
      "dep": 8385,
      "nel": 8386,
      "into": 8387,
      "lements": 8388,
      "Ġnice": 8389,
      "ĠAh": 8390,
      "unes": 8391,
      "ĠWould": 8392,
      "umes": 8393,
      "rency": 8394,
      "Ġhaven": 8395,
      "Then": 8396,
      "Inter": 8397,
      "ĠAsian": 8398,
      "Ġload": 8399,
      "Ġdraft": 8400,
      "Ġsearching": 8401,
      "Ġphotography": 8402,
      "ĠImpro": 8403,
      "Ġimmediate": 8404,
      "Ġrevealed": 8405,
      "Ġpaintings": 8406,
      "ĠFIFA": 8407,
      "Ġnutrients": 8408,
      "Of": 8409,
      "br": 8410,
      "Ġinsect": 8411,
      "Ġgap": 8412,
      "ĠCamb": 8413,
      "ĠDid": 8414,
      "ĠLuc": 8415,
      "Ġseam": 8416,
      "ĠJersey": 8417,
      "Ġaccel": 8418,
      "Ġrelation": 8419,
      "Ġwhereas": 8420,
      "Ġflood": 8421,
      "ranches": 8422,
      "Ġcombining": 8423,
      "Ġversions": 8424,
      "Ġassociation": 8425,
      "Ġlayers": 8426,
      "Add": 8427,
      "ompson": 8428,
      "ĠPortug": 8429,
      "Ġhouses": 8430,
      "Ġaccommodations": 8431,
      "ĠKorea": 8432,
      "ĠWindows": 8433,
      "Ġbacteria": 8434,
      "Part": 8435,
      "bec": 8436,
      "cers": 8437,
      "vas": 8438,
      "will": 8439,
      "yers": 8440,
      "hered": 8441,
      "Ġlibr": 8442,
      "Ġye": 8443,
      "ĠSant": 8444,
      "ĠBre": 8445,
      "Ġsufficient": 8446,
      "Ġvs": 8447,
      "Ġvot": 8448,
      "ĠWell": 8449,
      "ĠWild": 8450,
      "ĠFurthermore": 8451,
      "ĠRew": 8452,
      "Ġshut": 8453,
      "ptic": 8454,
      "ĠGer": 8455,
      "ĠNative": 8456,
      "ĠJon": 8457,
      "Ġalloc": 8458,
      "Ġvariance": 8459,
      "conf": 8460,
      "Ġconstra": 8461,
      "Ġbroth": 8462,
      "Ġdepart": 8463,
      "Ġcomputers": 8464,
      "Ġwondering": 8465,
      "ĠBuilding": 8466,
      "ĠâĪĴ": 8467,
      "Ġartifacts": 8468,
      "ĠFoundation": 8469,
      "EFA": 8470,
      "base": 8471,
      "oor": 8472,
      "pur": 8473,
      "Ġobs": 8474,
      "Ġpure": 8475,
      "Ġber": 8476,
      "stra": 8477,
      "Ġbeef": 8478,
      "ĠBrand": 8479,
      "osit": 8480,
      "izable": 8481,
      "achus": 8482,
      "Ġfees": 8483,
      "Ġsheet": 8484,
      "ĠAlice": 8485,
      "Ġorganize": 8486,
      "prov": 8487,
      "Ġglad": 8488,
      "ĠIndust": 8489,
      "Ġdrives": 8490,
      "forward": 8491,
      "}$.": 8492,
      "ĠSimilarly": 8493,
      "Ġdefend": 8494,
      "ĠSpec": 8495,
      "Ġyogurt": 8496,
      "Ġjournalist": 8497,
      "Ġclinical": 8498,
      ".âĢĻ": 8499,
      "AI": 8500,
      "FC": 8501,
      "Ke": 8502,
      "Set": 8503,
      "mid": 8504,
      "only": 8505,
      "ingly": 8506,
      "Ġlinks": 8507,
      "ĠSat": 8508,
      "ĠSaturday": 8509,
      "raine": 8510,
      "ĠCEO": 8511,
      "search": 8512,
      "ĠHung": 8513,
      "Ġmodule": 8514,
      "ĠFox": 8515,
      "ĠRon": 8516,
      "ĠRub": 8517,
      "ials": 8518,
      "ĠThree": 8519,
      "Ġresolve": 8520,
      "Ġpoems": 8521,
      "Ġassume": 8522,
      "Ġobvious": 8523,
      "Ġowners": 8524,
      "Ġedges": 8525,
      "Ġkeywords": 8526,
      "())": 8527,
      "Ġhardware": 8528,
      "Ġbalanced": 8529,
      "Ġwindows": 8530,
      "irlines": 8531,
      "Ġcaptiv": 8532,
      "ĠRemove": 8533,
      "Ġemphasize": 8534,
      "Ġbroadcast": 8535,
      "Ġresonates": 8536,
      "Ġextended": 8537,
      "Ġentertainment": 8538,
      "Ġfifth": 8539,
      "len": 8540,
      "nov": 8541,
      "pm": 8542,
      "Ġtiny": 8543,
      "Ġpig": 8544,
      "Ġfolk": 8545,
      "Ġelev": 8546,
      "chant": 8547,
      "Ġaside": 8548,
      "ĠEconom": 8549,
      "Ġkilling": 8550,
      "Ġplate": 8551,
      "ĠVan": 8552,
      "Ġages": 8553,
      "Ġcharged": 8554,
      "ocket": 8555,
      "ĠDoes": 8556,
      "ĠTeam": 8557,
      "Ġstruggled": 8558,
      "Ġscenarios": 8559,
      "Ġcolumns": 8560,
      "ĠPictures": 8561,
      "ĠWednesday": 8562,
      "folio": 8563,
      "achusetts": 8564,
      "AD": 8565,
      "HO": 8566,
      "han": 8567,
      "iology": 8568,
      "rons": 8569,
      "Ġsoph": 8570,
      "Ġcabin": 8571,
      "Ġwestern": 8572,
      "ĠSelf": 8573,
      "rays": 8574,
      "Ġasp": 8575,
      "ivered": 8576,
      "ĠGall": 8577,
      "ourse": 8578,
      "ĠKent": 8579,
      "Ġapples": 8580,
      "Ġupcoming": 8581,
      "Ġartistic": 8582,
      "Ġreduces": 8583,
      "Ġsalary": 8584,
      "Ġelectron": 8585,
      "ĠServe": 8586,
      "ĠIncorpor": 8587,
      "Ġstrike": 8588,
      "Ġdrugs": 8589,
      "Ġmolec": 8590,
      "Ġcoconut": 8591,
      "Ġobservations": 8592,
      "ĠRepresentatives": 8593,
      "Ġequivalent": 8594,
      "py": 8595,
      "inch": 8596,
      "Ġbridge": 8597,
      "Ġhall": 8598,
      "Ġreject": 8599,
      "ĠTown": 8600,
      "oly": 8601,
      "Ġbeings": 8602,
      "ĠCare": 8603,
      "ĠCross": 8604,
      "ulum": 8605,
      "ppings": 8606,
      "ĠLiber": 8607,
      "ĠNumber": 8608,
      "Ġplenty": 8609,
      "ipal": 8610,
      "ishop": 8611,
      "ĠAnswer": 8612,
      "Ġpossibly": 8613,
      "Ġparadox": 8614,
      "Ġcomplexities": 8615,
      "Ġestablishing": 8616,
      "Ġgreenhouse": 8617,
      "Ġvegetarian": 8618,
      "Ġrivers": 8619,
      "Ġcollective": 8620,
      "ĠRecords": 8621,
      "ĠSamantha": 8622,
      "ĠRepublican": 8623,
      "ĠMicrosoft": 8624,
      "Ġastronaut": 8625,
      "Ġshadows": 8626,
      "Ġceremony": 8627,
      "ĠBuddh": 8628,
      "dimensional": 8629,
      "($": 8630,
      "Japan": 8631,
      "dess": 8632,
      "Ġpace": 8633,
      "Ġmaps": 8634,
      "eld": 8635,
      "ĠMaster": 8636,
      "ĠHor": 8637,
      "ĠBern": 8638,
      "ivals": 8639,
      "emade": 8640,
      "ĠEll": 8641,
      "ĠGard": 8642,
      "izational": 8643,
      "ĠâĢĻ": 8644,
      "actor": 8645,
      "ĠInformation": 8646,
      "Ġproduces": 8647,
      "Ġcharges": 8648,
      "Ġmodify": 8649,
      ".\")": 8650,
      "Ġmuscle": 8651,
      "Ġtypical": 8652,
      "Ġcombinations": 8653,
      "Ġstatic": 8654,
      "Ġdifficulties": 8655,
      "Ġprotocol": 8656,
      "Ġtransformed": 8657,
      "ÂłÂłÂłÂł": 8658,
      "ĠOffice": 8659,
      "Ġholiday": 8660,
      "%.": 8661,
      "cap": 8662,
      "iÄ": 8663,
      "omy": 8664,
      "etch": 8665,
      "Ġnick": 8666,
      "ĠAC": 8667,
      "Ġonions": 8668,
      "ĠDown": 8669,
      "Ġrit": 8670,
      "Ġkil": 8671,
      "izard": 8672,
      "Ġdecades": 8673,
      "Ġvariation": 8674,
      "issance": 8675,
      "ecd": 8676,
      "Ġdistingu": 8677,
      "restling": 8678,
      "Ġvisited": 8679,
      "Ġcrash": 8680,
      "ĠMaya": 8681,
      "Ġmodeling": 8682,
      "ĠEnter": 8683,
      "Ġhyper": 8684,
      "Ġcomputing": 8685,
      "Ġcaptured": 8686,
      "Ġinspiring": 8687,
      "Ġawait": 8688,
      "Ġparks": 8689,
      "Ġsubstitute": 8690,
      "ĠMuslim": 8691,
      "Ġcivilization": 8692,
      "Ġdressing": 8693,
      "Ġincredibly": 8694,
      "ĠIsrael": 8695,
      "vari": 8696,
      "ĠĀ": 8697,
      "ati": 8698,
      "Ġfoster": 8699,
      "iches": 8700,
      "Ġly": 8701,
      "ĠTimes": 8702,
      "Ġnomin": 8703,
      "Ġgiant": 8704,
      "Ġstuff": 8705,
      "Ġconj": 8706,
      "ĠBal": 8707,
      "ĠFort": 8708,
      "ĠRest": 8709,
      "ĠGal": 8710,
      "Ġincident": 8711,
      "Intern": 8712,
      "ĠYoung": 8713,
      "Ġinstruct": 8714,
      "Ġsubsequ": 8715,
      "ernel": 8716,
      "Ġdelay": 8717,
      "Ġairport": 8718,
      "Ġfunds": 8719,
      "Ġpaths": 8720,
      "Ġselecting": 8721,
      "Club": 8722,
      "Ġreminder": 8723,
      "Canadian": 8724,
      "grade": 8725,
      "ĠPhilipp": 8726,
      "Ġwaters": 8727,
      "ĠDetermine": 8728,
      "ĠKorean": 8729,
      "Ġawarded": 8730,
      "Writers": 8731,
      "Ġphilosophy": 8732,
      "necessary": 8733,
      "math": 8734,
      "pie": 8735,
      "intend": 8736,
      "Ġecho": 8737,
      "ela": 8738,
      "irty": 8739,
      "ador": 8740,
      "ĠMult": 8741,
      "ĠNight": 8742,
      "Ġcompat": 8743,
      "Ġcompact": 8744,
      "Ġ->": 8745,
      "Ġoutliers": 8746,
      "Ġroasted": 8747,
      "Ġactively": 8748,
      "Ġdevelopers": 8749,
      "Ġinterior": 8750,
      "Ġengines": 8751,
      "lishing": 8752,
      "Ġproviders": 8753,
      "Ġcontributing": 8754,
      "Ġphotograph": 8755,
      "Ġemails": 8756,
      "Ġportion": 8757,
      "Ġneighb": 8758,
      "Ġrolling": 8759,
      "Ġaccepted": 8760,
      "ĠBrook": 8761,
      "Ġopinion": 8762,
      "Ġcorporate": 8763,
      "Ġbottle": 8764,
      "ĠMassachusetts": 8765,
      "Ġluxury": 8766,
      "Mar": 8767,
      "bu": 8768,
      "hour": 8769,
      "iac": 8770,
      "heat": 8771,
      "onto": 8772,
      "Ġbell": 8773,
      "Ġdiced": 8774,
      "Ġelder": 8775,
      "âĢĤ": 8776,
      "ĠMen": 8777,
      "Ġdefect": 8778,
      "ĠFollow": 8779,
      "Ġatom": 8780,
      "ĠNa": 8781,
      "ogram": 8782,
      "Ġcompassion": 8783,
      "apse": 8784,
      "inton": 8785,
      "ĠVari": 8786,
      "Ġproducing": 8787,
      "Ġminer": 8788,
      "ĠReal": 8789,
      "Ġmessaging": 8790,
      "Ġpopularity": 8791,
      "Ġspirits": 8792,
      "Ġadopt": 8793,
      "Ġobserve": 8794,
      "ĠSecretary": 8795,
      "='": 8796,
      "EX": 8797,
      "RT": 8798,
      "ls": 8799,
      "song": 8800,
      "isa": 8801,
      "Ġdownt": 8802,
      "Ġordered": 8803,
      "ĠMur": 8804,
      "ĠBir": 8805,
      "Ġcomplain": 8806,
      "ĠLem": 8807,
      "Ġshr": 8808,
      "idean": 8809,
      "ghan": 8810,
      "Ġuniform": 8811,
      "Ġscan": 8812,
      "ĠVen": 8813,
      "there": 8814,
      "exp": 8815,
      "Ġchest": 8816,
      "Ġclassroom": 8817,
      "Ġboat": 8818,
      "Ġtrials": 8819,
      "Ġlanding": 8820,
      ">>>": 8821,
      "Ġmotor": 8822,
      "apped": 8823,
      "Ġdiagram": 8824,
      "Ġmissed": 8825,
      "Ġnetworking": 8826,
      "Ġexplained": 8827,
      "Ġsilent": 8828,
      "Ġdynamics": 8829,
      "Ġfantasy": 8830,
      "ĠChildren": 8831,
      "Ġgalaxy": 8832,
      "Ġpandemic": 8833,
      "ĠNobel": 8834,
      "uclidean": 8835,
      "Sec": 8836,
      "dec": 8837,
      "sis": 8838,
      "sim": 8839,
      "Ġsan": 8840,
      "itations": 8841,
      "Ġpound": 8842,
      "Ġmask": 8843,
      "Ġear": 8844,
      "Ġstitch": 8845,
      "ĠBon": 8846,
      "quer": 8847,
      "than": 8848,
      "Ġven": 8849,
      "Ġarithmetic": 8850,
      "Ġtradition": 8851,
      ".\"},\"": 8852,
      "Ġedit": 8853,
      "Ġinfluences": 8854,
      "Ġdiscussions": 8855,
      "ometric": 8856,
      "Ġdependent": 8857,
      "Ġcontexts": 8858,
      "Ġlayout": 8859,
      "ĠSecurity": 8860,
      "Ġshowcases": 8861,
      "ĠPrefecture": 8862,
      "Ġvictory": 8863,
      "Ġpreparing": 8864,
      "ĠJewish": 8865,
      "Ġpapers": 8866,
      "Ġvirus": 8867,
      "Ġdiplom": 8868,
      "LA": 8869,
      "Year": 8870,
      "yal": 8871,
      "herent": 8872,
      "ref": 8873,
      "Ġped": 8874,
      "Ġboot": 8875,
      "Ġmort": 8876,
      "omething": 8877,
      "iments": 8878,
      "ĠIS": 8879,
      "Ġstuck": 8880,
      "unior": 8881,
      "Ġancest": 8882,
      "Ġanecd": 8883,
      "osc": 8884,
      "Ġplus": 8885,
      "arks": 8886,
      "Ġmedieval": 8887,
      "Ġtechnological": 8888,
      "Ġmodular": 8889,
      "Ġintellect": 8890,
      "Ġmatters": 8891,
      "Ġemployment": 8892,
      "Ġargue": 8893,
      "Ġencouraging": 8894,
      "Ġpanel": 8895,
      "Ġsupernatural": 8896,
      "Ġregardless": 8897,
      "ĠCommunication": 8898,
      "ĠMoreover": 8899,
      "Ġscholars": 8900,
      "Ġunusual": 8901,
      "FL": 8902,
      "Gu": 8903,
      "Sm": 8904,
      "fire": 8905,
      "Ġtours": 8906,
      "Ġaer": 8907,
      "Ġarom": 8908,
      "Ġbranches": 8909,
      "ĠSus": 8910,
      "ĠSand": 8911,
      "otion": 8912,
      "ĠAirlines": 8913,
      "Ġproceed": 8914,
      "âĢĲ": 8915,
      "tex": 8916,
      "ĠMonday": 8917,
      "ĠHand": 8918,
      "ĠEv": 8919,
      "Ġworkplace": 8920,
      "ĠCharl": 8921,
      "Ġmuscles": 8922,
      "Ġrepet": 8923,
      "Ġpersonalities": 8924,
      "Ġanimated": 8925,
      "ĠSupport": 8926,
      "numbers": 8927,
      "Ġradiation": 8928,
      "ĠMedia": 8929,
      "Ġopponent": 8930,
      "Ġcategor": 8931,
      "Ġjudgment": 8932,
      "Ġhoping": 8933,
      "ĠBrazilian": 8934,
      "Ġterror": 8935,
      "Ġrapidly": 8936,
      "effective": 8937,
      "Ob": 8938,
      "had": 8939,
      "orney": 8940,
      "align": 8941,
      "Ġbars": 8942,
      "rovers": 8943,
      "stream": 8944,
      "ĠSalt": 8945,
      "ĠPay": 8946,
      "ĠBoston": 8947,
      "ĠJer": 8948,
      "Ġessays": 8949,
      "Ġkeeps": 8950,
      "Ġtreated": 8951,
      "Ġmilest": 8952,
      "Ġmeasured": 8953,
      "ĠCommit": 8954,
      "haust": 8955,
      "Ġconsumer": 8956,
      "Ġpanels": 8957,
      "aska": 8958,
      "umni": 8959,
      "Ġattending": 8960,
      "Ġmobility": 8961,
      "Ġtaxes": 8962,
      "ĠBerlin": 8963,
      "Ġdimension": 8964,
      "Ġvictims": 8965,
      "Ġquadratic": 8966,
      "ĠRewrite": 8967,
      "\";": 8968,
      ")<|": 8969,
      "iem": 8970,
      "ji": 8971,
      "oa": 8972,
      "pet": 8973,
      "vals": 8974,
      "erb": 8975,
      "atre": 8976,
      "Ġholes": 8977,
      "Ġreph": 8978,
      "ifts": 8979,
      "ĠFar": 8980,
      "eller": 8981,
      "Ġraises": 8982,
      "Ġauthors": 8983,
      "Ġending": 8984,
      "Ġconfig": 8985,
      "valuate": 8986,
      "Ġdefense": 8987,
      "Ġmeters": 8988,
      "ĠEngine": 8989,
      "ĠIndones": 8990,
      "Ġfilms": 8991,
      "zech": 8992,
      "Ġperfectly": 8993,
      "Ġevaluating": 8994,
      "Ġclubs": 8995,
      "Ġpreferred": 8996,
      "Ġsurprise": 8997,
      "Ġvacation": 8998,
      "According": 8999,
      "ĠSunday": 9000,
      "German": 9001,
      "df": 9002,
      "uct": 9003,
      "Ð°": 9004,
      "Ġtiss": 9005,
      "Ġwis": 9006,
      "Ġfought": 9007,
      "Ġmac": 9008,
      "Ġtom": 9009,
      "Ġlas": 9010,
      "imation": 9011,
      "ĠTheorem": 9012,
      "ĠPersonal": 9013,
      "Ġsuicide": 9014,
      "ĠInit": 9015,
      "Ingredients": 9016,
      "Ġcohes": 9017,
      "Ġmodified": 9018,
      "Ġcreature": 9019,
      "rank": 9020,
      "ĠLead": 9021,
      "Ġelections": 9022,
      "Ġinvested": 9023,
      "Ġoperate": 9024,
      "Ġimmune": 9025,
      "Ġbiases": 9026,
      "remier": 9027,
      "Ġautomatically": 9028,
      "ĠAirport": 9029,
      "Ġkingdom": 9030,
      "Ġbirthday": 9031,
      "Ġbullet": 9032,
      "Ġconvenient": 9033,
      "Ġproportion": 9034,
      "Ġnewspaper": 9035,
      "Ġintuitive": 9036,
      "His": 9037,
      "National": 9038,
      "Up": 9039,
      "nament": 9040,
      "Ġsick": 9041,
      "ĠSn": 9042,
      "agree": 9043,
      "Ġretention": 9044,
      "Ġgrows": 9045,
      "lik": 9046,
      "Ġhappening": 9047,
      "anned": 9048,
      "Ġaddressed": 9049,
      "Ġcycl": 9050,
      "Ġexecution": 9051,
      "Ġsubjects": 9052,
      "Ġpreparation": 9053,
      "float": 9054,
      "bin": 9055,
      "bar": 9056,
      "code": 9057,
      "mo": 9058,
      "names": 9059,
      "ilation": 9060,
      "ighth": 9061,
      "ĠWhere": 9062,
      "ĠDire": 9063,
      "ĠDear": 9064,
      "ĠLow": 9065,
      "Ġseaf": 9066,
      "ĠEastern": 9067,
      "arters": 9068,
      "Ġupl": 9069,
      "Ġimpression": 9070,
      "result": 9071,
      "Ġcontest": 9072,
      "Ġliver": 9073,
      "Ġperm": 9074,
      "ĠAnalysis": 9075,
      "arma": 9076,
      "Ġelaborate": 9077,
      "Ġhumanity": 9078,
      "Ġbiology": 9079,
      "Ġputting": 9080,
      "ĠAbout": 9081,
      "Ġscenario": 9082,
      "Ġsimplify": 9083,
      "Ġmanipulate": 9084,
      "Ġopinions": 9085,
      "ĠIslamic": 9086,
      "Ġtablespoon": 9087,
      "ĠColumbia": 9088,
      "ĠHaleak": 9089,
      "EST": 9090,
      "days": 9091,
      "his": 9092,
      "when": 9093,
      "rell": 9094,
      "Ġtheore": 9095,
      "Ġtheories": 9096,
      "Ġfellow": 9097,
      "stat": 9098,
      "ĠTaylor": 9099,
      "Ġsticks": 9100,
      "Ġvine": 9101,
      "Ġneuro": 9102,
      "lower": 9103,
      "ibl": 9104,
      "Ġperception": 9105,
      "Ġsole": 9106,
      "Ġvisible": 9107,
      "Ġrefresh": 9108,
      "Ġprominent": 9109,
      "ĠConnect": 9110,
      "Ġgenres": 9111,
      "Ġsensors": 9112,
      "Ġauthorities": 9113,
      "ĠGuide": 9114,
      "Ġhorse": 9115,
      "Ġreliability": 9116,
      "ĠGreece": 9117,
      "ĠHolly": 9118,
      "model": 9119,
      "Ġobtained": 9120,
      "Ġabsolute": 9121,
      "''": 9122,
      "Will": 9123,
      "cut": 9124,
      "mus": 9125,
      "Ġawards": 9126,
      "Ġyield": 9127,
      "ĠCode": 9128,
      "keep": 9129,
      "quir": 9130,
      "Ġdeals": 9131,
      "ĠDI": 9132,
      "ĠLibrary": 9133,
      "Ġsending": 9134,
      "Ġru": 9135,
      "ĠNon": 9136,
      "Ġunp": 9137,
      "Ġresid": 9138,
      "Ġrelate": 9139,
      "Ġaligns": 9140,
      "lected": 9141,
      "Ġexplored": 9142,
      "Ġowned": 9143,
      "ĠAsh": 9144,
      "exper": 9145,
      "Ġmarked": 9146,
      "Ġsingers": 9147,
      "Ġtreasure": 9148,
      "appy": 9149,
      "Why": 9150,
      "Ġgene": 9151,
      "Ġangles": 9152,
      "Ġscheme": 9153,
      "Ġdedication": 9154,
      "Ġattempts": 9155,
      "html": 9156,
      "Ġphilosopher": 9157,
      "Ġcandidates": 9158,
      "Ġexplicitly": 9159,
      "ĠDigital": 9160,
      "PA": 9161,
      "aire": 9162,
      "bet": 9163,
      "break": 9164,
      "oop": 9165,
      "vol": 9166,
      "wind": 9167,
      "Ġtorn": 9168,
      "rely": 9169,
      "itivity": 9170,
      "Ġfier": 9171,
      "ĠCy": 9172,
      "Ġalle": 9173,
      "ĠHold": 9174,
      "ĠLinked": 9175,
      "ĠIns": 9176,
      "obile": 9177,
      "Ġagent": 9178,
      "Ġshoulder": 9179,
      "Ġcountless": 9180,
      "ĠArts": 9181,
      "Ġconfirm": 9182,
      "ceptions": 9183,
      "Ġmetric": 9184,
      "Ġgrab": 9185,
      "ĠOnly": 9186,
      "Ġmarine": 9187,
      "Ġconclusions": 9188,
      "ĠValue": 9189,
      "Ġroutes": 9190,
      "Ġfestivals": 9191,
      "ĠFilm": 9192,
      "ĠInteg": 9193,
      "Ġabandoned": 9194,
      "Handler": 9195,
      ")/": 9196,
      "Act": 9197,
      "Count": 9198,
      "Most": 9199,
      "Trans": 9200,
      "has": 9201,
      "Ġ..": 9202,
      "Ġtack": 9203,
      "Ġsed": 9204,
      "Ġfalls": 9205,
      "Ġinfect": 9206,
      "Ġalph": 9207,
      "Ġcong": 9208,
      "Ġ(;": 9209,
      "ĠBus": 9210,
      "ĠLED": 9211,
      "ĠEqu": 9212,
      "Ġworn": 9213,
      "ĠThompson": 9214,
      "Ġevolved": 9215,
      "ordan": 9216,
      "arness": 9217,
      "Ġcoin": 9218,
      "Ġdelivered": 9219,
      "ĠEmploy": 9220,
      "Ġlegacy": 9221,
      "ĠAustrian": 9222,
      "Ġincorporated": 9223,
      "Ġconnecting": 9224,
      "written": 9225,
      "Ġweekend": 9226,
      "Ġâī": 9227,
      "agnetic": 9228,
      "Ġliterary": 9229,
      "Ġsculptures": 9230,
      "Ġcomposition": 9231,
      "Ġcasual": 9232,
      "Austral": 9233,
      "Ġpassengers": 9234,
[...]
